{
  "version": "1.0",
  "truncation": null,
  "padding": null,
  "added_tokens": [
    {
      "id": 0,
      "content": "[PAD]",
      "single_word": false,
      "lstrip": false,
      "rstrip": false,
      "normalized": false,
      "special": true
    },
    {
      "id": 1,
      "content": "[UNK]",
      "single_word": false,
      "lstrip": false,
      "rstrip": false,
      "normalized": false,
      "special": true
    },
    {
      "id": 2,
      "content": "[BOS]",
      "single_word": false,
      "lstrip": false,
      "rstrip": false,
      "normalized": false,
      "special": true
    },
    {
      "id": 3,
      "content": "[EOS]",
      "single_word": false,
      "lstrip": false,
      "rstrip": false,
      "normalized": false,
      "special": true
    },
    {
      "id": 4,
      "content": "[MASK]",
      "single_word": false,
      "lstrip": false,
      "rstrip": false,
      "normalized": false,
      "special": true
    },
    {
      "id": 5,
      "content": "[INST]",
      "single_word": false,
      "lstrip": false,
      "rstrip": false,
      "normalized": false,
      "special": true
    },
    {
      "id": 6,
      "content": "[/INST]",
      "single_word": false,
      "lstrip": false,
      "rstrip": false,
      "normalized": false,
      "special": true
    },
    {
      "id": 7,
      "content": "[THINK]",
      "single_word": false,
      "lstrip": false,
      "rstrip": false,
      "normalized": false,
      "special": true
    },
    {
      "id": 8,
      "content": "[/THINK]",
      "single_word": false,
      "lstrip": false,
      "rstrip": false,
      "normalized": false,
      "special": true
    },
    {
      "id": 9,
      "content": "[ANSWER]",
      "single_word": false,
      "lstrip": false,
      "rstrip": false,
      "normalized": false,
      "special": true
    },
    {
      "id": 10,
      "content": "[/ANSWER]",
      "single_word": false,
      "lstrip": false,
      "rstrip": false,
      "normalized": false,
      "special": true
    }
  ],
  "normalizer": null,
  "pre_tokenizer": {
    "type": "Sequence",
    "pretokenizers": [
      {
        "type": "Whitespace"
      },
      {
        "type": "Split",
        "pattern": {
          "Regex": "\\d"
        },
        "behavior": "Isolated",
        "invert": false
      }
    ]
  },
  "post_processor": {
    "type": "TemplateProcessing",
    "single": [
      {
        "SpecialToken": {
          "id": "[BOS]",
          "type_id": 0
        }
      },
      {
        "Sequence": {
          "id": "A",
          "type_id": 0
        }
      },
      {
        "SpecialToken": {
          "id": "[EOS]",
          "type_id": 0
        }
      }
    ],
    "pair": [
      {
        "SpecialToken": {
          "id": "[BOS]",
          "type_id": 0
        }
      },
      {
        "Sequence": {
          "id": "A",
          "type_id": 0
        }
      },
      {
        "SpecialToken": {
          "id": "[EOS]",
          "type_id": 0
        }
      },
      {
        "Sequence": {
          "id": "B",
          "type_id": 1
        }
      },
      {
        "SpecialToken": {
          "id": "[EOS]",
          "type_id": 1
        }
      }
    ],
    "special_tokens": {
      "[BOS]": {
        "id": "[BOS]",
        "ids": [
          2
        ],
        "tokens": [
          "[BOS]"
        ]
      },
      "[EOS]": {
        "id": "[EOS]",
        "ids": [
          3
        ],
        "tokens": [
          "[EOS]"
        ]
      }
    }
  },
  "decoder": {
    "type": "WordPiece",
    "prefix": "##",
    "cleanup": true
  },
  "model": {
    "type": "BPE",
    "dropout": null,
    "unk_token": "[UNK]",
    "continuing_subword_prefix": "##",
    "end_of_word_suffix": null,
    "fuse_unk": false,
    "byte_fallback": false,
    "ignore_merges": false,
    "vocab": {
      "[PAD]": 0,
      "[UNK]": 1,
      "[BOS]": 2,
      "[EOS]": 3,
      "[MASK]": 4,
      "[INST]": 5,
      "[/INST]": 6,
      "[THINK]": 7,
      "[/THINK]": 8,
      "[ANSWER]": 9,
      "[/ANSWER]": 10,
      "\n": 11,
      " ": 12,
      "!": 13,
      "\"": 14,
      "#": 15,
      "$": 16,
      "%": 17,
      "&": 18,
      "'": 19,
      "(": 20,
      ")": 21,
      "*": 22,
      "+": 23,
      ",": 24,
      "-": 25,
      ".": 26,
      "/": 27,
      "0": 28,
      "1": 29,
      "2": 30,
      "3": 31,
      "4": 32,
      "5": 33,
      "6": 34,
      "7": 35,
      "8": 36,
      "9": 37,
      ":": 38,
      ";": 39,
      "<": 40,
      "=": 41,
      ">": 42,
      "?": 43,
      "@": 44,
      "A": 45,
      "B": 46,
      "C": 47,
      "D": 48,
      "E": 49,
      "F": 50,
      "G": 51,
      "H": 52,
      "I": 53,
      "J": 54,
      "K": 55,
      "L": 56,
      "M": 57,
      "N": 58,
      "O": 59,
      "P": 60,
      "Q": 61,
      "R": 62,
      "S": 63,
      "T": 64,
      "U": 65,
      "V": 66,
      "W": 67,
      "X": 68,
      "Y": 69,
      "Z": 70,
      "[": 71,
      "]": 72,
      "^": 73,
      "_": 74,
      "`": 75,
      "a": 76,
      "b": 77,
      "c": 78,
      "d": 79,
      "e": 80,
      "f": 81,
      "g": 82,
      "h": 83,
      "i": 84,
      "j": 85,
      "k": 86,
      "l": 87,
      "m": 88,
      "n": 89,
      "o": 90,
      "p": 91,
      "q": 92,
      "r": 93,
      "s": 94,
      "t": 95,
      "u": 96,
      "v": 97,
      "w": 98,
      "x": 99,
      "y": 100,
      "z": 101,
      "{": 102,
      "|": 103,
      "}": 104,
      "~": 105,
      "¡": 106,
      "¢": 107,
      "£": 108,
      "¦": 109,
      "©": 110,
      "«": 111,
      "­": 112,
      "±": 113,
      "³": 114,
      "´": 115,
      "¶": 116,
      "»": 117,
      "¼": 118,
      "½": 119,
      "¾": 120,
      "Â": 121,
      "Ã": 122,
      "×": 123,
      "â": 124,
      "ç": 125,
      "è": 126,
      "é": 127,
      "ñ": 128,
      "÷": 129,
      "œ": 130,
      "Š": 131,
      "˜": 132,
      "А": 133,
      "​": 134,
      "–": 135,
      "‘": 136,
      "’": 137,
      "“": 138,
      "”": 139,
      "•": 140,
      "‰": 141,
      "‹": 142,
      "€": 143,
      "™": 144,
      "−": 145,
      "√": 146,
      "##h": 147,
      "##e": 148,
      "##a": 149,
      "##t": 150,
      "##s": 151,
      "##u": 152,
      "##l": 153,
      "##y": 154,
      "##i": 155,
      "##n": 156,
      "##g": 157,
      "##r": 158,
      "##v": 159,
      "##o": 160,
      "##d": 161,
      "##c": 162,
      "##p": 163,
      "##m": 164,
      "##b": 165,
      "##k": 166,
      "##w": 167,
      "##x": 168,
      "##â": 169,
      "##q": 170,
      "##f": 171,
      "##M": 172,
      "##C": 173,
      "##H": 174,
      "##A": 175,
      "##S": 176,
      "##E": 177,
      "##J": 178,
      "##z": 179,
      "##O": 180,
      "##<": 181,
      "##(": 182,
      "##N": 183,
      "##I": 184,
      "##G": 185,
      "##T": 186,
      "##P": 187,
      "##+": 188,
      "##j": 189,
      "##W": 190,
      "##=": 191,
      "##L": 192,
      "##$": 193,
      "##.": 194,
      "##K": 195,
      "##!": 196,
      "##\"": 197,
      "##B": 198,
      "##R": 199,
      "##F": 200,
      "##-": 201,
      "##)": 202,
      "##Y": 203,
      "##'": 204,
      "##,": 205,
      "##D": 206,
      "##U": 207,
      "##V": 208,
      "##?": 209,
      "##Ã": 210,
      "##é": 211,
      "##*": 212,
      "##Z": 213,
      "##¦": 214,
      "##`": 215,
      "##Â": 216,
      "##%": 217,
      "##Q": 218,
      "##/": 219,
      "##½": 220,
      "##˜": 221,
      "##:": 222,
      "##”": 223,
      "##ñ": 224,
      "##¢": 225,
      "##>": 226,
      "###": 227,
      "##]": 228,
      "##è": 229,
      "##[": 230,
      "##X": 231,
      "##“": 232,
      "##™": 233,
      "##•": 234,
      "##‹": 235,
      "##‰": 236,
      "##ç": 237,
      "##he": 238,
      "##nd": 239,
      "the": 240,
      "##ed": 241,
      "and": 242,
      "##er": 243,
      "to": 244,
      "wa": 245,
      "##in": 246,
      "##ou": 247,
      "##re": 248,
      "was": 249,
      "##om": 250,
      "##ay": 251,
      "The": 252,
      "##ar": 253,
      "##ing": 254,
      "##il": 255,
      "##it": 256,
      "##at": 257,
      "##id": 258,
      "ha": 259,
      "##en": 260,
      "##an": 261,
      "##is": 262,
      "sa": 263,
      "##or": 264,
      "##im": 265,
      "##on": 266,
      "he": 267,
      "th": 268,
      "it": 269,
      "##es": 270,
      "##ut": 271,
      "##ll": 272,
      "##et": 273,
      "her": 274,
      "##le": 275,
      "He": 276,
      "##ot": 277,
      "##ir": 278,
      "She": 279,
      "in": 280,
      "##ow": 281,
      "They": 282,
      "##ck": 283,
      "##ld": 284,
      "##oo": 285,
      "be": 286,
      "##ig": 287,
      "st": 288,
      "##am": 289,
      "of": 290,
      "##ce": 291,
      "said": 292,
      "##ily": 293,
      "she": 294,
      "##pp": 295,
      "##ith": 296,
      "##ve": 297,
      "with": 298,
      "on": 299,
      "On": 300,
      "##ri": 301,
      "so": 302,
      "Lily": 303,
      "his": 304,
      "##ked": 305,
      "##ery": 306,
      "pl": 307,
      "##ad": 308,
      "day": 309,
      "##nt": 310,
      "you": 311,
      "##ke": 312,
      "that": 313,
      "up": 314,
      "##el": 315,
      "had": 316,
      "for": 317,
      "##st": 318,
      "play": 319,
      "they": 320,
      "##ch": 321,
      "##ent": 322,
      "mom": 323,
      "##ould": 324,
      "##un": 325,
      "##my": 326,
      "happ": 327,
      "li": 328,
      "##itt": 329,
      "##al": 330,
      "##her": 331,
      "sh": 332,
      "want": 333,
      "##ly": 334,
      "##se": 335,
      "do": 336,
      "##all": 337,
      "##ound": 338,
      "tim": 339,
      "It": 340,
      "##end": 341,
      "wh": 342,
      "##ome": 343,
      "very": 344,
      "there": 345,
      "time": 346,
      "##ittle": 347,
      "ne": 348,
      "##ht": 349,
      "not": 350,
      "little": 351,
      "is": 352,
      "happy": 353,
      "##ra": 354,
      "big": 355,
      "sm": 356,
      "but": 357,
      "as": 358,
      "an": 359,
      "##ack": 360,
      "##riend": 361,
      "saw": 362,
      "friend": 363,
      "re": 364,
      "##ry": 365,
      "##ter": 366,
      "##ake": 367,
      "One": 368,
      "##ore": 369,
      "##ec": 370,
      "##ere": 371,
      "Tim": 372,
      ".\"": 373,
      "##ved": 374,
      "##ug": 375,
      "Once": 376,
      "were": 377,
      "loo": 378,
      "lo": 379,
      "!\"": 380,
      "##ur": 381,
      "bo": 382,
      "him": 383,
      "##ee": 384,
      "##ide": 385,
      "##ill": 386,
      "##ver": 387,
      "too": 388,
      "go": 389,
      "##irl": 390,
      "##ard": 391,
      "girl": 392,
      "are": 393,
      "upon": 394,
      "wanted": 395,
      "sp": 396,
      "at": 397,
      "out": 398,
      "##ul": 399,
      "them": 400,
      "##ind": 401,
      "##way": 402,
      "Tom": 403,
      "could": 404,
      "did": 405,
      "##hen": 406,
      "their": 407,
      "##ain": 408,
      "##ted": 409,
      "smil": 410,
      "have": 411,
      "Ben": 412,
      "ex": 413,
      "##rom": 414,
      "##um": 415,
      "##hed": 416,
      "##ic": 417,
      "ar": 418,
      "went": 419,
      "But": 420,
      "##ear": 421,
      "all": 422,
      "can": 423,
      "##ight": 424,
      "##lp": 425,
      "##hing": 426,
      "##ful": 427,
      "friends": 428,
      "##one": 429,
      "nam": 430,
      "##ood": 431,
      "kn": 432,
      "help": 433,
      "##ark": 434,
      "##very": 435,
      "cl": 436,
      "back": 437,
      "man": 438,
      "ca": 439,
      "?\"": 440,
      "fun": 441,
      "Timmy": 442,
      "##op": 443,
      "##oug": 444,
      "star": 445,
      "no": 446,
      "al": 447,
      "sc": 448,
      "named": 449,
      "##ick": 450,
      "##ea": 451,
      "say": 452,
      "loved": 453,
      "##side": 454,
      "##elt": 455,
      "You": 456,
      "smiled": 457,
      "felt": 458,
      "around": 459,
      "fe": 460,
      "##ame": 461,
      "asked": 462,
      "toy": 463,
      "##omet": 464,
      "ro": 465,
      "looked": 466,
      "br": 467,
      "##get": 468,
      "##ure": 469,
      "would": 470,
      "like": 471,
      "some": 472,
      "see": 473,
      "##ird": 474,
      "boy": 475,
      "##ong": 476,
      "me": 477,
      "##est": 478,
      "Mom": 479,
      "co": 480,
      "wor": 481,
      "somet": 482,
      "bird": 483,
      "##ade": 484,
      "##dd": 485,
      "##ings": 486,
      "ag": 487,
      "fa": 488,
      "##king": 489,
      "##ss": 490,
      "##ie": 491,
      "##ag": 492,
      "##ree": 493,
      "make": 494,
      "what": 495,
      "##gether": 496,
      "car": 497,
      "##own": 498,
      "##ice": 499,
      "away": 500,
      "started": 501,
      "ran": 502,
      "made": 503,
      "Th": 504,
      "##oud": 505,
      "mu": 506,
      "something": 507,
      "together": 508,
      "##ach": 509,
      "##ited": 510,
      "from": 511,
      "we": 512,
      "##ther": 513,
      ",\"": 514,
      "park": 515,
      "pr": 516,
      "la": 517,
      "ch": 518,
      "new": 519,
      "exc": 520,
      "##NS": 521,
      "other": 522,
      "sad": 523,
      "##ook": 524,
      "put": 525,
      "##out": 526,
      "home": 527,
      "then": 528,
      "says": 529,
      "again": 530,
      "when": 531,
      "scar": 532,
      "who": 533,
      "dec": 534,
      "fl": 535,
      "get": 536,
      "hug": 537,
      "found": 538,
      "##ried": 539,
      "##ought": 540,
      "##pl": 541,
      "##pped": 542,
      "good": 543,
      "wal": 544,
      "##ally": 545,
      "ab": 546,
      "##ab": 547,
      "##ell": 548,
      "playing": 549,
      "sw": 550,
      "got": 551,
      "every": 552,
      "Su": 553,
      "##ous": 554,
      "excited": 555,
      "##ro": 556,
      "things": 557,
      "decid": 558,
      "than": 559,
      "##ers": 560,
      "##uck": 561,
      "##ess": 562,
      "Sam": 563,
      "decided": 564,
      "one": 565,
      "bec": 566,
      "bl": 567,
      "find": 568,
      "##ep": 569,
      "liked": 570,
      "came": 571,
      "##as": 572,
      "##us": 573,
      "##ny": 574,
      "will": 575,
      "##ax": 576,
      "##ouse": 577,
      "down": 578,
      "##ust": 579,
      ">>": 580,
      "So": 581,
      "scared": 582,
      "##na": 583,
      "dog": 584,
      "An": 585,
      "##ara": 586,
      "care": 587,
      "gr": 588,
      "your": 589,
      "feel": 590,
      "pa": 591,
      "##ist": 592,
      "dad": 593,
      "[/": 594,
      "more": 595,
      "##ways": 596,
      "gra": 597,
      "po": 598,
      "didn": 599,
      "##ant": 600,
      "took": 601,
      "Max": 602,
      "always": 603,
      "old": 604,
      "We": 605,
      "##ned": 606,
      "Sara": 607,
      "lot": 608,
      "mommy": 609,
      "about": 610,
      "how": 611,
      "##ew": 612,
      "##eci": 613,
      "##nder": 614,
      "ball": 615,
      "tree": 616,
      "When": 617,
      "my": 618,
      "look": 619,
      "outside": 620,
      "##ite": 621,
      "##ise": 622,
      "##ched": 623,
      "Anna": 624,
      "##to": 625,
      "toys": 626,
      "thought": 627,
      "##ened": 628,
      "lear": 629,
      "##our": 630,
      "much": 631,
      "tw": 632,
      "Jo": 633,
      "##fter": 634,
      "take": 635,
      "speci": 636,
      "special": 637,
      "ho": 638,
      "##ff": 639,
      "pre": 640,
      "each": 641,
      "know": 642,
      "many": 643,
      "##ull": 644,
      "##ive": 645,
      "##ave": 646,
      "##ty": 647,
      "##ged": 648,
      "knew": 649,
      "cat": 650,
      "laug": 651,
      "##dden": 652,
      "Wh": 653,
      "##reat": 654,
      "Her": 655,
      "##ob": 656,
      "##ma": 657,
      "any": 658,
      "Every": 659,
      "ta": 660,
      "##ish": 661,
      "##ion": 662,
      "##ddenly": 663,
      "Jack": 664,
      "show": 665,
      "sor": 666,
      "##au": 667,
      "tr": 668,
      "sl": 669,
      "##ven": 670,
      "##ang": 671,
      "##ber": 672,
      "or": 673,
      "run": 674,
      "house": 675,
      "##ink": 676,
      "##ue": 677,
      "mo": 678,
      "##ia": 679,
      "into": 680,
      "##ause": 681,
      "sk": 682,
      "water": 683,
      "Then": 684,
      "op": 685,
      "need": 686,
      "gave": 687,
      "sun": 688,
      "eat": 689,
      "hand": 690,
      "en": 691,
      "clo": 692,
      "##other": 693,
      "##ate": 694,
      "because": 695,
      "inside": 696,
      "if": 697,
      "tried": 698,
      "over": 699,
      "couldn": 700,
      "##ft": 701,
      "told": 702,
      "##ank": 703,
      "proud": 704,
      "##ump": 705,
      "never": 706,
      "sorry": 707,
      "com": 708,
      "this": 709,
      "qu": 710,
      "expl": 711,
      "heard": 712,
      "box": 713,
      "pick": 714,
      "Suddenly": 715,
      "room": 716,
      "se": 717,
      "played": 718,
      "##dy": 719,
      "From": 720,
      "##iz": 721,
      "##etter": 722,
      "##oth": 723,
      "##kes": 724,
      "##ile": 725,
      "off": 726,
      "str": 727,
      "##here": 728,
      "His": 729,
      "long": 730,
      "bu": 731,
      "wat": 732,
      "just": 733,
      "pret": 734,
      "##are": 735,
      "##fe": 736,
      "pe": 737,
      "##em": 738,
      "TH": 739,
      "##eep": 740,
      "##IN": 741,
      "##ER": 742,
      "And": 743,
      "##INK": 744,
      "ANS": 745,
      "INS": 746,
      "##WER": 747,
      "THINK": 748,
      "ANSWER": 749,
      "INST": 750,
      "hugged": 751,
      "small": 752,
      "##uc": 753,
      "##ving": 754,
      "##ough": 755,
      "fo": 756,
      "<<": 757,
      "Mia": 758,
      "nice": 759,
      "##ine": 760,
      "##ild": 761,
      "Let": 762,
      "ma": 763,
      "has": 764,
      "unt": 765,
      "by": 766,
      "##ies": 767,
      "##ace": 768,
      "##ort": 769,
      "bear": 770,
      "##imal": 771,
      "until": 772,
      "animal": 773,
      "##les": 774,
      "##sel": 775,
      "##bb": 776,
      "try": 777,
      "end": 778,
      "##ves": 779,
      "us": 780,
      "learned": 781,
      "bea": 782,
      "##gry": 783,
      "ad": 784,
      "##ning": 785,
      "better": 786,
      "flow": 787,
      "im": 788,
      "That": 789,
      "##urt": 790,
      "call": 791,
      "kind": 792,
      "##vent": 793,
      "dre": 794,
      "cle": 795,
      "##ady": 796,
      "##and": 797,
      "love": 798,
      "best": 799,
      "even": 800,
      "##oy": 801,
      "sn": 802,
      "##urp": 803,
      "bra": 804,
      "##arden": 805,
      "garden": 806,
      "thanked": 807,
      "sky": 808,
      "beaut": 809,
      "fi": 810,
      "##hes": 811,
      "##ap": 812,
      "che": 813,
      "fast": 814,
      "cu": 815,
      "don": 816,
      "##self": 817,
      "two": 818,
      "fam": 819,
      "##th": 820,
      "careful": 821,
      "laughed": 822,
      "lots": 823,
      "jump": 824,
      "Joh": 825,
      "##lew": 826,
      "rem": 827,
      "John": 828,
      "gl": 829,
      "##iny": 830,
      "way": 831,
      "loud": 832,
      "beauti": 833,
      "le": 834,
      "##ople": 835,
      "still": 836,
      "##ct": 837,
      "beautiful": 838,
      "What": 839,
      "##wn": 840,
      "##ool": 841,
      "come": 842,
      "Mommy": 843,
      "hard": 844,
      "animals": 845,
      "di": 846,
      "##by": 847,
      "list": 848,
      "people": 849,
      "##able": 850,
      "##fore": 851,
      "book": 852,
      "stay": 853,
      "Yes": 854,
      "After": 855,
      "both": 856,
      "lea": 857,
      "wo": 858,
      "col": 859,
      "##qu": 860,
      "fin": 861,
      "su": 862,
      "As": 863,
      "under": 864,
      "safe": 865,
      "hurt": 866,
      "##igh": 867,
      "##ase": 868,
      "family": 869,
      "clos": 870,
      "##ane": 871,
      "##ip": 872,
      "lived": 873,
      "its": 874,
      "##ect": 875,
      "let": 876,
      "Can": 877,
      "brave": 878,
      "year": 879,
      "imp": 880,
      "red": 881,
      "##ept": 882,
      "##ished": 883,
      "bad": 884,
      "flew": 885,
      "Luc": 886,
      "con": 887,
      "kept": 888,
      "##xt": 889,
      "doll": 890,
      "Lucy": 891,
      "walked": 892,
      "##urpr": 893,
      "stor": 894,
      "##ock": 895,
      "##led": 896,
      "surpr": 897,
      "Bob": 898,
      "called": 899,
      "now": 900,
      "should": 901,
      "##be": 902,
      "soon": 903,
      "fly": 904,
      "fore": 905,
      "##ge": 906,
      "##kay": 907,
      "##ised": 908,
      "before": 909,
      "going": 910,
      "rock": 911,
      "##eet": 912,
      "tur": 913,
      "pic": 914,
      "clean": 915,
      "far": 916,
      "per": 917,
      "##irst": 918,
      "share": 919,
      "angry": 920,
      "keep": 921,
      "Thank": 922,
      "##illy": 923,
      "##ummy": 924,
      "advent": 925,
      "opened": 926,
      "##art": 927,
      "fr": 928,
      "wind": 929,
      "##age": 930,
      "door": 931,
      "pretty": 932,
      "real": 933,
      "ground": 934,
      "sto": 935,
      "dra": 936,
      "Dad": 937,
      "shiny": 938,
      "##dded": 939,
      "explore": 940,
      "id": 941,
      "No": 942,
      "noise": 943,
      "idea": 944,
      "##so": 945,
      "un": 946,
      "also": 947,
      "next": 948,
      "ey": 949,
      "color": 950,
      "feeling": 951,
      "cry": 952,
      "tre": 953,
      "thr": 954,
      "war": 955,
      "##ting": 956,
      "while": 957,
      "picked": 958,
      "##<<": 959,
      "##thing": 960,
      "##ied": 961,
      "after": 962,
      "walking": 963,
      "##imb": 964,
      "bed": 965,
      "app": 966,
      "##ount": 967,
      "climb": 968,
      "##iss": 969,
      "€™": 970,
      "gi": 971,
      "##ks": 972,
      "##ture": 973,
      "smile": 974,
      "##iced": 975,
      "##ious": 976,
      "##day": 977,
      "tra": 978,
      "pu": 979,
      "Sp": 980,
      "adventure": 981,
      "food": 982,
      "wr": 983,
      "diff": 984,
      "looking": 985,
      "does": 986,
      "being": 987,
      "del": 988,
      "##joy": 989,
      "give": 990,
      "##ream": 991,
      "fish": 992,
      "##ught": 993,
      "truck": 994,
      "blue": 995,
      "dis": 996,
      "picture": 997,
      "stopped": 998,
      "nodded": 999,
      "##per": 1000,
      "##ember": 1001,
      "ac": 1002,
      "wait": 1003,
      "mean": 1004,
      "eyes": 1005,
      "ever": 1006,
      "enjoy": 1007,
      "noticed": 1008,
      "great": 1009,
      "own": 1010,
      "quick": 1011,
      "rain": 1012,
      "##maz": 1013,
      "tow": 1014,
      "three": 1015,
      "In": 1016,
      "first": 1017,
      "##ized": 1018,
      "amaz": 1019,
      "jo": 1020,
      "store": 1021,
      "flowers": 1022,
      "##aybe": 1023,
      "remember": 1024,
      "vo": 1025,
      "am": 1026,
      "repl": 1027,
      "bro": 1028,
      "think": 1029,
      "listen": 1030,
      "everyone": 1031,
      "##bit": 1032,
      "forest": 1033,
      "##gan": 1034,
      "squ": 1035,
      "work": 1036,
      "gre": 1037,
      "##ons": 1038,
      "hands": 1039,
      "##abbit": 1040,
      "import": 1041,
      "near": 1042,
      "differ": 1043,
      "showed": 1044,
      "mon": 1045,
      "##ac": 1046,
      "##ance": 1047,
      "watch": 1048,
      "strong": 1049,
      "Sue": 1050,
      "##llow": 1051,
      "##ble": 1052,
      "wonder": 1053,
      "slide": 1054,
      "bright": 1055,
      "rabbit": 1056,
      "Spot": 1057,
      "use": 1058,
      "important": 1059,
      "head": 1060,
      "##bbed": 1061,
      "Do": 1062,
      "child": 1063,
      "##ange": 1064,
      "##co": 1065,
      "This": 1066,
      "stick": 1067,
      "quickly": 1068,
      "right": 1069,
      "watched": 1070,
      "There": 1071,
      "##ey": 1072,
      "Jane": 1073,
      "tal": 1074,
      "cook": 1075,
      "mor": 1076,
      "been": 1077,
      "##bye": 1078,
      "sound": 1079,
      "where": 1080,
      "sure": 1081,
      "replied": 1082,
      "place": 1083,
      "boat": 1084,
      "dress": 1085,
      "follow": 1086,
      "tou": 1087,
      "yell": 1088,
      "Sarah": 1089,
      "became": 1090,
      "okay": 1091,
      "##sh": 1092,
      "different": 1093,
      "high": 1094,
      "goodbye": 1095,
      "tea": 1096,
      "##lease": 1097,
      "mag": 1098,
      "##anc": 1099,
      "walk": 1100,
      "cont": 1101,
      "night": 1102,
      "face": 1103,
      "closer": 1104,
      "##lly": 1105,
      "warm": 1106,
      "Look": 1107,
      "years": 1108,
      "curi": 1109,
      "tot": 1110,
      "voice": 1111,
      "total": 1112,
      "##ired": 1113,
      "pain": 1114,
      "##leep": 1115,
      "Everyone": 1116,
      "forg": 1117,
      "##ached": 1118,
      "bel": 1119,
      "hop": 1120,
      "cake": 1121,
      "our": 1122,
      "only": 1123,
      "tell": 1124,
      "bus": 1125,
      "##ered": 1126,
      "curious": 1127,
      "##itc": 1128,
      "##orn": 1129,
      "open": 1130,
      "fav": 1131,
      "##more": 1132,
      "anymore": 1133,
      "butter": 1134,
      "##ndma": 1135,
      "bre": 1136,
      "Maybe": 1137,
      "dr": 1138,
      "brother": 1139,
      "grabbed": 1140,
      "shar": 1141,
      "tri": 1142,
      "buy": 1143,
      "kid": 1144,
      "##oney": 1145,
      "sand": 1146,
      "How": 1147,
      "birds": 1148,
      "##llo": 1149,
      "ate": 1150,
      "bit": 1151,
      "block": 1152,
      "pull": 1153,
      "flo": 1154,
      "##rent": 1155,
      "##ath": 1156,
      "helped": 1157,
      "sweet": 1158,
      "cra": 1159,
      "##ary": 1160,
      "rest": 1161,
      "fell": 1162,
      "##ila": 1163,
      "##unny": 1164,
      "jumped": 1165,
      "less": 1166,
      "grass": 1167,
      "sing": 1168,
      "##isy": 1169,
      "cr": 1170,
      "happened": 1171,
      "##itchen": 1172,
      "##ppy": 1173,
      "kitchen": 1174,
      "left": 1175,
      "##ins": 1176,
      "through": 1177,
      "fire": 1178,
      "num": 1179,
      "game": 1180,
      "reached": 1181,
      "here": 1182,
      "stop": 1183,
      "Lila": 1184,
      "realized": 1185,
      "glad": 1186,
      "Don": 1187,
      "##ater": 1188,
      "story": 1189,
      "having": 1190,
      "used": 1191,
      "min": 1192,
      "##ather": 1193,
      "fill": 1194,
      "parent": 1195,
      "##lf": 1196,
      "beh": 1197,
      "hear": 1198,
      "yummy": 1199,
      "##ully": 1200,
      "##zy": 1201,
      "##ards": 1202,
      "sees": 1203,
      "ready": 1204,
      "began": 1205,
      "##outed": 1206,
      "mum": 1207,
      "prin": 1208,
      "##where": 1209,
      "really": 1210,
      "hour": 1211,
      "mess": 1212,
      "himself": 1213,
      "bag": 1214,
      "draw": 1215,
      "Joe": 1216,
      "soft": 1217,
      "##ren": 1218,
      "making": 1219,
      "Fin": 1220,
      "cut": 1221,
      "##fully": 1222,
      "world": 1223,
      "##ation": 1224,
      "##ken": 1225,
      "shouted": 1226,
      "##oon": 1227,
      "magic": 1228,
      "tired": 1229,
      "stu": 1230,
      "read": 1231,
      "favor": 1232,
      "##imes": 1233,
      "lady": 1234,
      "##ster": 1235,
      "Now": 1236,
      "done": 1237,
      "kids": 1238,
      "underst": 1239,
      "cla": 1240,
      "hat": 1241,
      "##air": 1242,
      "favorite": 1243,
      "thing": 1244,
      "cars": 1245,
      "learn": 1246,
      "seen": 1247,
      "Tommy": 1248,
      "another": 1249,
      "duck": 1250,
      "If": 1251,
      "fix": 1252,
      "##iver": 1253,
      "waved": 1254,
      "##olly": 1255,
      "Sally": 1256,
      "##mer": 1257,
      "##ient": 1258,
      "parents": 1259,
      "##bo": 1260,
      "coming": 1261,
      "pond": 1262,
      "top": 1263,
      "butterf": 1264,
      "catch": 1265,
      "full": 1266,
      "sho": 1267,
      "creat": 1268,
      "flower": 1269,
      "tast": 1270,
      "perf": 1271,
      "delic": 1272,
      "bunny": 1273,
      "##ak": 1274,
      "trees": 1275,
      "dri": 1276,
      "worry": 1277,
      "why": 1278,
      "swim": 1279,
      "prom": 1280,
      "##ens": 1281,
      "funny": 1282,
      "set": 1283,
      "green": 1284,
      "mouse": 1285,
      "name": 1286,
      "number": 1287,
      "At": 1288,
      "##rel": 1289,
      "##ich": 1290,
      "par": 1291,
      "worked": 1292,
      "fro": 1293,
      "light": 1294,
      "pretend": 1295,
      "turn": 1296,
      "cool": 1297,
      "pus": 1298,
      "touch": 1299,
      "ru": 1300,
      "books": 1301,
      "dro": 1302,
      "din": 1303,
      "##aisy": 1304,
      "##aby": 1305,
      "spot": 1306,
      "hold": 1307,
      "##eddy": 1308,
      "##ely": 1309,
      "floor": 1310,
      "Em": 1311,
      "hair": 1312,
      "surprise": 1313,
      "looks": 1314,
      "tall": 1315,
      "needed": 1316,
      "running": 1317,
      "yellow": 1318,
      "cried": 1319,
      "wood": 1320,
      "Wow": 1321,
      "hopped": 1322,
      "##ike": 1323,
      "smell": 1324,
      "sleep": 1325,
      "remembered": 1326,
      "bow": 1327,
      "##ued": 1328,
      "##ined": 1329,
      "paper": 1330,
      "slow": 1331,
      "wear": 1332,
      "window": 1333,
      "blocks": 1334,
      "Billy": 1335,
      "##ssed": 1336,
      "behind": 1337,
      "dark": 1338,
      "Benny": 1339,
      "lesson": 1340,
      "happily": 1341,
      "sat": 1342,
      "Jim": 1343,
      "lost": 1344,
      "finished": 1345,
      "carefully": 1346,
      "doing": 1347,
      "\".": 1348,
      "children": 1349,
      "cand": 1350,
      "ear": 1351,
      "minut": 1352,
      "hole": 1353,
      "ice": 1354,
      "sec": 1355,
      "cold": 1356,
      "air": 1357,
      "wished": 1358,
      "surprised": 1359,
      "Finally": 1360,
      "move": 1361,
      "##ts": 1362,
      "held": 1363,
      "enjoyed": 1364,
      "butterfly": 1365,
      "Daisy": 1366,
      "arri": 1367,
      "ste": 1368,
      "mar": 1369,
      "able": 1370,
      "anything": 1371,
      "dream": 1372,
      "laugh": 1373,
      "thank": 1374,
      "pi": 1375,
      "##ger": 1376,
      "frog": 1377,
      "build": 1378,
      "poin": 1379,
      "herself": 1380,
      "##ield": 1381,
      "##ence": 1382,
      "swing": 1383,
      "likes": 1384,
      "To": 1385,
      "rel": 1386,
      "##aught": 1387,
      "fair": 1388,
      "delicious": 1389,
      "Jen": 1390,
      "Molly": 1391,
      "##ott": 1392,
      "hot": 1393,
      "hill": 1394,
      "wrong": 1395,
      "##cess": 1396,
      "followed": 1397,
      "cream": 1398,
      "contin": 1399,
      "wants": 1400,
      "hun": 1401,
      "##reed": 1402,
      "baby": 1403,
      "Gra": 1404,
      "##os": 1405,
      "close": 1406,
      "filled": 1407,
      "hid": 1408,
      "##ner": 1409,
      "##ds": 1410,
      "friendly": 1411,
      "money": 1412,
      "arrived": 1413,
      "bar": 1414,
      "cast": 1415,
      "cost": 1416,
      "$<<": 1417,
      "##ret": 1418,
      "mat": 1419,
      "res": 1420,
      "dir": 1421,
      "wonderful": 1422,
      "snow": 1423,
      "arm": 1424,
      "##room": 1425,
      "ll": 1426,
      "leaves": 1427,
      "gone": 1428,
      "bug": 1429,
      "tight": 1430,
      "might": 1431,
      "understand": 1432,
      "##av": 1433,
      "yes": 1434,
      "el": 1435,
      "cookies": 1436,
      "song": 1437,
      "gu": 1438,
      "count": 1439,
      "wall": 1440,
      "##ets": 1441,
      "##ries": 1442,
      "enough": 1443,
      "##ross": 1444,
      "fur": 1445,
      "table": 1446,
      "else": 1447,
      "colors": 1448,
      "##anger": 1449,
      "pat": 1450,
      "morning": 1451,
      "gent": 1452,
      "##irrel": 1453,
      "met": 1454,
      "Amy": 1455,
      "please": 1456,
      "vis": 1457,
      "continued": 1458,
      "##oup": 1459,
      "broken": 1460,
      "Hello": 1461,
      "stayed": 1462,
      "few": 1463,
      "someone": 1464,
      "finally": 1465,
      "sig": 1466,
      "wee": 1467,
      "lion": 1468,
      "hours": 1469,
      "##gs": 1470,
      "getting": 1471,
      "squirrel": 1472,
      "makes": 1473,
      "agreed": 1474,
      "plan": 1475,
      "Jill": 1476,
      "pink": 1477,
      "##ng": 1478,
      "mother": 1479,
      "##uff": 1480,
      "amazing": 1481,
      "ju": 1482,
      "cup": 1483,
      "##ask": 1484,
      "scary": 1485,
      "forgot": 1486,
      "##eces": 1487,
      "mil": 1488,
      "white": 1489,
      "perfect": 1490,
      "pieces": 1491,
      "##row": 1492,
      "trying": 1493,
      "moment": 1494,
      "minutes": 1495,
      "##rot": 1496,
      "dinner": 1497,
      "##red": 1498,
      "castle": 1499,
      "##ames": 1500,
      "roll": 1501,
      "grandma": 1502,
      "##amp": 1503,
      "##ister": 1504,
      "beach": 1505,
      "brought": 1506,
      "puppy": 1507,
      "##oom": 1508,
      "turned": 1509,
      "spl": 1510,
      "clot": 1511,
      "sail": 1512,
      "mus": 1513,
      "##der": 1514,
      "others": 1515,
      "ask": 1516,
      "##ated": 1517,
      "##ond": 1518,
      "##ama": 1519,
      "hungry": 1520,
      "pictures": 1521,
      "##man": 1522,
      "fight": 1523,
      "wasn": 1524,
      "Why": 1525,
      "climbed": 1526,
      "##ast": 1527,
      "##gon": 1528,
      "wet": 1529,
      "sometimes": 1530,
      "joy": 1531,
      "##oring": 1532,
      "daddy": 1533,
      "fall": 1534,
      "strange": 1535,
      "clothes": 1536,
      "##uffy": 1537,
      "OK": 1538,
      "##eter": 1539,
      "listened": 1540,
      "##ling": 1541,
      "##pping": 1542,
      "##rew": 1543,
      "everything": 1544,
      "pen": 1545,
      "All": 1546,
      "spark": 1547,
      "##ever": 1548,
      "ride": 1549,
      "pie": 1550,
      "break": 1551,
      "bott": 1552,
      "miss": 1553,
      "sear": 1554,
      "=<<": 1555,
      "danc": 1556,
      "##orm": 1557,
      "grow": 1558,
      "##ctor": 1559,
      "days": 1560,
      "##ucky": 1561,
      "Soon": 1562,
      "##ower": 1563,
      "pol": 1564,
      "visit": 1565,
      "deep": 1566,
      "won": 1567,
      "amazed": 1568,
      "tail": 1569,
      "##ix": 1570,
      "woods": 1571,
      "smiles": 1572,
      "sit": 1573,
      "side": 1574,
      "##key": 1575,
      "treat": 1576,
      "comp": 1577,
      "##sp": 1578,
      "alone": 1579,
      "ow": 1580,
      "waited": 1581,
      "talk": 1582,
      "lake": 1583,
      "##me": 1584,
      "coll": 1585,
      "##ol": 1586,
      "sister": 1587,
      "St": 1588,
      "music": 1589,
      "##elc": 1590,
      "##ope": 1591,
      "cho": 1592,
      "##zz": 1593,
      "leave": 1594,
      "Mr": 1595,
      "field": 1596,
      "##chool": 1597,
      "land": 1598,
      "danger": 1599,
      "pulled": 1600,
      "##uit": 1601,
      "em": 1602,
      "party": 1603,
      "##ained": 1604,
      "##ph": 1605,
      "sea": 1606,
      "Fl": 1607,
      "pack": 1608,
      "candy": 1609,
      "cloud": 1610,
      "de": 1611,
      "inc": 1612,
      "same": 1613,
      "silly": 1614,
      "flying": 1615,
      "##med": 1616,
      "fox": 1617,
      "##ugg": 1618,
      "school": 1619,
      "towards": 1620,
      "##asure": 1621,
      "must": 1622,
      "pet": 1623,
      "##ash": 1624,
      "##unch": 1625,
      "hide": 1626,
      "Come": 1627,
      "##thy": 1628,
      "shared": 1629,
      "##ents": 1630,
      "race": 1631,
      "belie": 1632,
      "Daddy": 1633,
      "promised": 1634,
      "##igg": 1635,
      "##cle": 1636,
      "Mama": 1637,
      "runs": 1638,
      "teddy": 1639,
      "pot": 1640,
      "owner": 1641,
      "bigger": 1642,
      "##ually": 1643,
      "##sw": 1644,
      "plant": 1645,
      "ra": 1646,
      "asks": 1647,
      "answ": 1648,
      "Mary": 1649,
      "job": 1650,
      "reach": 1651,
      "##ased": 1652,
      "ele": 1653,
      "blank": 1654,
      "shap": 1655,
      "slowly": 1656,
      "##ire": 1657,
      "such": 1658,
      "##ored": 1659,
      "worried": 1660,
      "##ze": 1661,
      "##ises": 1662,
      "Oh": 1663,
      "##iet": 1664,
      "faster": 1665,
      "treasure": 1666,
      "nap": 1667,
      "moral": 1668,
      "dance": 1669,
      "river": 1670,
      "magical": 1671,
      "##avy": 1672,
      "living": 1673,
      "##icy": 1674,
      "grate": 1675,
      "pea": 1676,
      "most": 1677,
      "snack": 1678,
      "att": 1679,
      "Just": 1680,
      "colorful": 1681,
      "black": 1682,
      "acc": 1683,
      "thinks": 1684,
      "grateful": 1685,
      "quiet": 1686,
      "fruit": 1687,
      "paint": 1688,
      "dolls": 1689,
      "bike": 1690,
      "train": 1691,
      "farmer": 1692,
      "everywhere": 1693,
      "##used": 1694,
      "bought": 1695,
      "win": 1696,
      "##ming": 1697,
      "join": 1698,
      "##app": 1699,
      "across": 1700,
      "welc": 1701,
      "##cket": 1702,
      "carrot": 1703,
      "monster": 1704,
      "##vel": 1705,
      "##ract": 1706,
      "##outh": 1707,
      "helping": 1708,
      "Jimmy": 1709,
      "start": 1710,
      "##set": 1711,
      "spr": 1712,
      "words": 1713,
      "pers": 1714,
      "##ment": 1715,
      "ve": 1716,
      "##eak": 1717,
      "teac": 1718,
      "Okay": 1719,
      "stepped": 1720,
      "takes": 1721,
      "hig": 1722,
      "bowl": 1723,
      "mouth": 1724,
      "Sure": 1725,
      "broke": 1726,
      "##less": 1727,
      "smart": 1728,
      "##fort": 1729,
      "princess": 1730,
      "heal": 1731,
      "wouldn": 1732,
      "bee": 1733,
      "##ord": 1734,
      "Emma": 1735,
      "dangerous": 1736,
      "bask": 1737,
      "scream": 1738,
      "mix": 1739,
      "disapp": 1740,
      "Mum": 1741,
      "##eared": 1742,
      "kiss": 1743,
      "heavy": 1744,
      "##ors": 1745,
      "games": 1746,
      "##br": 1747,
      "crying": 1748,
      "buck": 1749,
      "town": 1750,
      "doctor": 1751,
      "believe": 1752,
      "##iting": 1753,
      "bath": 1754,
      "eating": 1755,
      "##cked": 1756,
      "neigh": 1757,
      "dragon": 1758,
      "closed": 1759,
      "##ions": 1760,
      "##de": 1761,
      "threw": 1762,
      "butt": 1763,
      "##ass": 1764,
      "neighb": 1765,
      "##ipped": 1766,
      "week": 1767,
      "balloon": 1768,
      "dirty": 1769,
      "Al": 1770,
      "stuck": 1771,
      "teacher": 1772,
      "cray": 1773,
      "chair": 1774,
      "##ows": 1775,
      "feet": 1776,
      "monkey": 1777,
      "stand": 1778,
      "bite": 1779,
      "dist": 1780,
      "today": 1781,
      "free": 1782,
      "higher": 1783,
      "basket": 1784,
      "sign": 1785,
      "past": 1786,
      "brown": 1787,
      "##ier": 1788,
      "##ney": 1789,
      "blanket": 1790,
      "longer": 1791,
      "heart": 1792,
      "twins": 1793,
      "cheered": 1794,
      "Grandma": 1795,
      "times": 1796,
      "hit": 1797,
      "dry": 1798,
      "without": 1799,
      "Tw": 1800,
      "eg": 1801,
      "Inside": 1802,
      "drove": 1803,
      "##ventually": 1804,
      "shoes": 1805,
      "cour": 1806,
      "##ity": 1807,
      "corn": 1808,
      "tower": 1809,
      "fairy": 1810,
      "##ces": 1811,
      "clapped": 1812,
      "yard": 1813,
      "##ident": 1814,
      "suddenly": 1815,
      "drink": 1816,
      "ph": 1817,
      "jar": 1818,
      "smo": 1819,
      "te": 1820,
      "wings": 1821,
      "which": 1822,
      "gift": 1823,
      "inst": 1824,
      "Please": 1825,
      "jour": 1826,
      "##orrow": 1827,
      "fence": 1828,
      "hoped": 1829,
      "##ead": 1830,
      "apple": 1831,
      "apples": 1832,
      "pushed": 1833,
      "Hi": 1834,
      "gentle": 1835,
      "piece": 1836,
      "Fluffy": 1837,
      "along": 1838,
      "whe": 1839,
      "feels": 1840,
      "course": 1841,
      "happen": 1842,
      "bring": 1843,
      "lunch": 1844,
      "forget": 1845,
      "##ountain": 1846,
      "shop": 1847,
      "lon": 1848,
      "pay": 1849,
      "##pe": 1850,
      "swings": 1851,
      "##og": 1852,
      "caught": 1853,
      "spent": 1854,
      "##col": 1855,
      "sang": 1856,
      "##ward": 1857,
      "explained": 1858,
      "singing": 1859,
      "lonely": 1860,
      "adventures": 1861,
      "taking": 1862,
      "neck": 1863,
      "welcome": 1864,
      "plac": 1865,
      "tom": 1866,
      "##itting": 1867,
      "##sc": 1868,
      "round": 1869,
      "owl": 1870,
      "swam": 1871,
      "young": 1872,
      "moved": 1873,
      "##ible": 1874,
      "stars": 1875,
      "##yard": 1876,
      "upset": 1877,
      "##phant": 1878,
      "bat": 1879,
      "part": 1880,
      "cal": 1881,
      "noises": 1882,
      "stories": 1883,
      "Sammy": 1884,
      "spend": 1885,
      "late": 1886,
      "backyard": 1887,
      "stre": 1888,
      "dropped": 1889,
      "turns": 1890,
      "orange": 1891,
      "trou": 1892,
      "rocks": 1893,
      "##oun": 1894,
      "elephant": 1895,
      "##bs": 1896,
      "accident": 1897,
      "mark": 1898,
      "œI": 1899,
      "exploring": 1900,
      "des": 1901,
      "Their": 1902,
      "pig": 1903,
      "inv": 1904,
      "soup": 1905,
      "mail": 1906,
      "pocket": 1907,
      "farm": 1908,
      "##ush": 1909,
      "##ose": 1910,
      "seemed": 1911,
      "tiny": 1912,
      "##fused": 1913,
      "Re": 1914,
      "juice": 1915,
      "belong": 1916,
      "naught": 1917,
      "well": 1918,
      "shook": 1919,
      "naughty": 1920,
      "Ch": 1921,
      "##ball": 1922,
      "wise": 1923,
      "nearby": 1924,
      "relie": 1925,
      "Later": 1926,
      "##ocked": 1927,
      "key": 1928,
      "##ail": 1929,
      "though": 1930,
      "hugs": 1931,
      "ben": 1932,
      "##ining": 1933,
      "woke": 1934,
      "wish": 1935,
      "needs": 1936,
      "purp": 1937,
      "##cks": 1938,
      "##els": 1939,
      "inter": 1940,
      "##aughter": 1941,
      "Be": 1942,
      "busy": 1943,
      "##ese": 1944,
      "##cy": 1945,
      "With": 1946,
      "trip": 1947,
      "cou": 1948,
      "ret": 1949,
      "##irth": 1950,
      "cover": 1951,
      "street": 1952,
      "##gn": 1953,
      "spo": 1954,
      "carry": 1955,
      "##ung": 1956,
      "rainb": 1957,
      "##idge": 1958,
      "purple": 1959,
      "##irthday": 1960,
      "##pt": 1961,
      "hello": 1962,
      "bucket": 1963,
      "secret": 1964,
      "huge": 1965,
      "fit": 1966,
      "##anch": 1967,
      "##ceful": 1968,
      "##ittens": 1969,
      "branch": 1970,
      "arms": 1971,
      "Go": 1972,
      "forever": 1973,
      "daughter": 1974,
      "shapes": 1975,
      "retur": 1976,
      "##fish": 1977,
      "##izz": 1978,
      "letter": 1979,
      "nest": 1980,
      "sick": 1981,
      "resp": 1982,
      "af": 1983,
      "##read": 1984,
      "person": 1985,
      "swimming": 1986,
      "second": 1987,
      "milk": 1988,
      "cir": 1989,
      "sandw": 1990,
      "nose": 1991,
      "life": 1992,
      "half": 1993,
      "boun": 1994,
      "##shine": 1995,
      "colour": 1996,
      "relieved": 1997,
      "pri": 1998,
      "##ching": 1999,
      "journey": 2000,
      "##irt": 2001,
      "ant": 2002,
      "gives": 2003,
      "wondered": 2004,
      "whist": 2005,
      "sitting": 2006,
      "My": 2007,
      "ent": 2008,
      "patient": 2009,
      "##ost": 2010,
      "birthday": 2011,
      "##andy": 2012,
      "nothing": 2013,
      "craw": 2014,
      "mine": 2015,
      "##ped": 2016,
      "##ize": 2017,
      "prob": 2018,
      "exciting": 2019,
      "band": 2020,
      "shell": 2021,
      "kite": 2022,
      "##ult": 2023,
      "sunshine": 2024,
      "last": 2025,
      "bread": 2026,
      "coat": 2027,
      "driver": 2028,
      "Jenny": 2029,
      "Tweet": 2030,
      "##raid": 2031,
      "mad": 2032,
      "comes": 2033,
      "sell": 2034,
      "afraid": 2035,
      "##ert": 2036,
      "disco": 2037,
      "onto": 2038,
      "creature": 2039,
      "##oph": 2040,
      "##ove": 2041,
      "bottle": 2042,
      "##itch": 2043,
      "sold": 2044,
      "accidentally": 2045,
      "throw": 2046,
      "Ell": 2047,
      "touched": 2048,
      "king": 2049,
      "##als": 2050,
      "har": 2051,
      "cheese": 2052,
      "##itten": 2053,
      "##unt": 2054,
      "holding": 2055,
      "power": 2056,
      "wom": 2057,
      "laughing": 2058,
      "##board": 2059,
      "rainbow": 2060,
      "instead": 2061,
      "wra": 2062,
      "##lem": 2063,
      "cute": 2064,
      "##ness": 2065,
      "pres": 2066,
      "hor": 2067,
      "ce": 2068,
      "sounds": 2069,
      "##sy": 2070,
      "exp": 2071,
      "wide": 2072,
      "cave": 2073,
      "add": 2074,
      "problem": 2075,
      "road": 2076,
      "gigg": 2077,
      "fing": 2078,
      "sunny": 2079,
      "Emily": 2080,
      "gather": 2081,
      "watching": 2082,
      "bench": 2083,
      "cozy": 2084,
      "##aur": 2085,
      "quest": 2086,
      "collect": 2087,
      "Of": 2088,
      "##adow": 2089,
      "ap": 2090,
      "later": 2091,
      "mist": 2092,
      "##ages": 2093,
      "interest": 2094,
      "pop": 2095,
      "pract": 2096,
      "whole": 2097,
      "foot": 2098,
      "bur": 2099,
      "class": 2100,
      "pointed": 2101,
      "searched": 2102,
      "lucky": 2103,
      "ser": 2104,
      "##fortable": 2105,
      "smiling": 2106,
      "promise": 2107,
      "eas": 2108,
      "##arge": 2109,
      "##ub": 2110,
      "storm": 2111,
      "Good": 2112,
      "pudd": 2113,
      "kick": 2114,
      "crayons": 2115,
      "##bled": 2116,
      "anyone": 2117,
      "##gged": 2118,
      "stud": 2119,
      "ducks": 2120,
      "woman": 2121,
      "rope": 2122,
      "tasty": 2123,
      "##isa": 2124,
      "spin": 2125,
      "roar": 2126,
      "Together": 2127,
      "##fl": 2128,
      "adm": 2129,
      "spid": 2130,
      "##ular": 2131,
      "talked": 2132,
      "sal": 2133,
      "breat": 2134,
      "##ches": 2135,
      "ba": 2136,
      "plane": 2137,
      "##ete": 2138,
      "sharp": 2139,
      "suc": 2140,
      "bush": 2141,
      "healthy": 2142,
      "Somet": 2143,
      "##ipp": 2144,
      "grand": 2145,
      "hope": 2146,
      "act": 2147,
      "zoom": 2148,
      "imag": 2149,
      "sur": 2150,
      "button": 2151,
      "shining": 2152,
      "Ann": 2153,
      "##owed": 2154,
      "##round": 2155,
      "##ato": 2156,
      "mach": 2157,
      "##ones": 2158,
      "interesting": 2159,
      "chick": 2160,
      "val": 2161,
      "##ale": 2162,
      "##ont": 2163,
      "supp": 2164,
      "clouds": 2165,
      "honey": 2166,
      "saf": 2167,
      "##pa": 2168,
      "neighbor": 2169,
      "lay": 2170,
      "##ears": 2171,
      "lovely": 2172,
      "chocol": 2173,
      "Hey": 2174,
      "tick": 2175,
      "Lisa": 2176,
      "rec": 2177,
      "meet": 2178,
      "clever": 2179,
      "puts": 2180,
      "pro": 2181,
      "seat": 2182,
      "building": 2183,
      "prot": 2184,
      "organ": 2185,
      "zoo": 2186,
      "shout": 2187,
      "matter": 2188,
      "pill": 2189,
      "trouble": 2190,
      "smelled": 2191,
      "compl": 2192,
      "spotted": 2193,
      "Mittens": 2194,
      "horse": 2195,
      "vill": 2196,
      "med": 2197,
      "pizz": 2198,
      "four": 2199,
      "##eb": 2200,
      "Mar": 2201,
      "front": 2202,
      "pass": 2203,
      "pile": 2204,
      "goes": 2205,
      "Jake": 2206,
      "##oose": 2207,
      "##epend": 2208,
      "rolled": 2209,
      "giant": 2210,
      "##eas": 2211,
      "feather": 2212,
      "spoon": 2213,
      "cheer": 2214,
      "path": 2215,
      "puzz": 2216,
      "##cean": 2217,
      "appeared": 2218,
      "##la": 2219,
      "hon": 2220,
      "ocean": 2221,
      "shr": 2222,
      "tasted": 2223,
      "discover": 2224,
      "miles": 2225,
      "##lex": 2226,
      "loves": 2227,
      "answer": 2228,
      "stra": 2229,
      "meas": 2230,
      "danced": 2231,
      "ban": 2232,
      "tun": 2233,
      "large": 2234,
      "thin": 2235,
      "##fted": 2236,
      "snowman": 2237,
      "wearing": 2238,
      "##amed": 2239,
      "eag": 2240,
      "card": 2241,
      "##erly": 2242,
      "finish": 2243,
      "##akes": 2244,
      "places": 2245,
      "ob": 2246,
      "phone": 2247,
      "write": 2248,
      "asleep": 2249,
      "##nic": 2250,
      "pool": 2251,
      "Peter": 2252,
      "wild": 2253,
      "mud": 2254,
      "drive": 2255,
      "snake": 2256,
      "impre": 2257,
      "picnic": 2258,
      "##bar": 2259,
      "mountain": 2260,
      "##dge": 2261,
      "œW": 2262,
      "lad": 2263,
      "chocolate": 2264,
      "##itty": 2265,
      "sack": 2266,
      "corner": 2267,
      "mind": 2268,
      "cow": 2269,
      "cookie": 2270,
      "banan": 2271,
      "worm": 2272,
      "slid": 2273,
      "bubb": 2274,
      "screamed": 2275,
      "splas": 2276,
      "live": 2277,
      "rob": 2278,
      "save": 2279,
      "oven": 2280,
      "dirt": 2281,
      "Where": 2282,
      "spider": 2283,
      "Sometimes": 2284,
      "gets": 2285,
      "Bu": 2286,
      "bark": 2287,
      "Mummy": 2288,
      "shirt": 2289,
      "gently": 2290,
      "pour": 2291,
      "bell": 2292,
      "pound": 2293,
      "confused": 2294,
      "eggs": 2295,
      "means": 2296,
      "delight": 2297,
      "machine": 2298,
      "ign": 2299,
      "month": 2300,
      "remind": 2301,
      "Are": 2302,
      "furry": 2303,
      "embar": 2304,
      "lit": 2305,
      "ring": 2306,
      "##ife": 2307,
      "eventually": 2308,
      "helpful": 2309,
      "whenever": 2310,
      "ladder": 2311,
      "embarra": 2312,
      "talking": 2313,
      "coin": 2314,
      "couch": 2315,
      "##elly": 2316,
      "tid": 2317,
      "step": 2318,
      "songs": 2319,
      "faces": 2320,
      "group": 2321,
      "respect": 2322,
      "wave": 2323,
      "smooth": 2324,
      "blew": 2325,
      "##ected": 2326,
      "##ates": 2327,
      "paw": 2328,
      "push": 2329,
      "pizza": 2330,
      "Johnny": 2331,
      "waiting": 2332,
      "Sus": 2333,
      "##ator": 2334,
      "sol": 2335,
      "tries": 2336,
      "tool": 2337,
      "calm": 2338,
      "pretended": 2339,
      "Mark": 2340,
      "seed": 2341,
      "treats": 2342,
      "##ian": 2343,
      "##unk": 2344,
      "spread": 2345,
      "While": 2346,
      "spray": 2347,
      "hum": 2348,
      "stret": 2349,
      "shy": 2350,
      "##lebr": 2351,
      "veget": 2352,
      "##ables": 2353,
      "fold": 2354,
      "carrots": 2355,
      "celebr": 2356,
      "teet": 2357,
      "teeth": 2358,
      "Little": 2359,
      "Everywhere": 2360,
      "protect": 2361,
      "forgive": 2362,
      "coo": 2363,
      "##ten": 2364,
      "boxes": 2365,
      "legs": 2366,
      "hiding": 2367,
      "emp": 2368,
      "ash": 2369,
      "tomorrow": 2370,
      "empty": 2371,
      "village": 2372,
      "sel": 2373,
      "Br": 2374,
      "lem": 2375,
      "plants": 2376,
      "neckl": 2377,
      "##ime": 2378,
      "fixed": 2379,
      "Teddy": 2380,
      "these": 2381,
      "ple": 2382,
      "forward": 2383,
      "fighting": 2384,
      "rac": 2385,
      "cloth": 2386,
      "robot": 2387,
      "##erry": 2388,
      "##urse": 2389,
      "gold": 2390,
      "kitten": 2391,
      "pin": 2392,
      "cann": 2393,
      "seek": 2394,
      "chased": 2395,
      "gen": 2396,
      "rude": 2397,
      "bugs": 2398,
      "sheep": 2399,
      "##den": 2400,
      "string": 2401,
      "tidy": 2402,
      "Some": 2403,
      "##oin": 2404,
      "grew": 2405,
      "##iger": 2406,
      "leaf": 2407,
      "barked": 2408,
      "knee": 2409,
      "amount": 2410,
      "wore": 2411,
      "embarrassed": 2412,
      "cannot": 2413,
      "gas": 2414,
      "##box": 2415,
      "##ony": 2416,
      "pee": 2417,
      "Here": 2418,
      "deter": 2419,
      "puddle": 2420,
      "Le": 2421,
      "peaceful": 2422,
      "##ina": 2423,
      "whistle": 2424,
      "wash": 2425,
      "taste": 2426,
      "Alice": 2427,
      "tightly": 2428,
      "##eed": 2429,
      "grab": 2430,
      "##ungle": 2431,
      "distance": 2432,
      "net": 2433,
      "##uts": 2434,
      "int": 2435,
      "##airs": 2436,
      "selfish": 2437,
      "stone": 2438,
      "##ancy": 2439,
      "##scap": 2440,
      "stir": 2441,
      "team": 2442,
      "##cil": 2443,
      "creative": 2444,
      "jungle": 2445,
      "determ": 2446,
      "sour": 2447,
      "##bers": 2448,
      "wip": 2449,
      "twice": 2450,
      "decor": 2451,
      "clear": 2452,
      "dogs": 2453,
      "Even": 2454,
      "plate": 2455,
      "present": 2456,
      "av": 2457,
      "##ground": 2458,
      "fig": 2459,
      "trust": 2460,
      "TV": 2461,
      "##ince": 2462,
      "##cer": 2463,
      "spicy": 2464,
      "pencil": 2465,
      "knocked": 2466,
      "shelf": 2467,
      "sparkly": 2468,
      "disappoin": 2469,
      "uni": 2470,
      "##dle": 2471,
      "##umpy": 2472,
      "##uce": 2473,
      "##let": 2474,
      "meadow": 2475,
      "expens": 2476,
      "jumping": 2477,
      "Stop": 2478,
      "bal": 2479,
      "balls": 2480,
      "sticks": 2481,
      "##most": 2482,
      "line": 2483,
      "##kin": 2484,
      "meant": 2485,
      "maybe": 2486,
      "whis": 2487,
      "Help": 2488,
      "Each": 2489,
      "##ps": 2490,
      "moon": 2491,
      "carried": 2492,
      "##ying": 2493,
      "Today": 2494,
      "missed": 2495,
      "students": 2496,
      "##ano": 2497,
      "mov": 2498,
      "landed": 2499,
      "hidden": 2500,
      "sandwich": 2501,
      "##ustr": 2502,
      "snacks": 2503,
      "sna": 2504,
      "almost": 2505,
      "splash": 2506,
      "cro": 2507,
      "bedroom": 2508,
      "gener": 2509,
      "knowing": 2510,
      "gun": 2511,
      "pan": 2512,
      "myster": 2513,
      "returned": 2514,
      "breath": 2515,
      "honest": 2516,
      "jelly": 2517,
      "œT": 2518,
      "disappointed": 2519,
      "stood": 2520,
      "glass": 2521,
      "sharing": 2522,
      "fear": 2523,
      "tells": 2524,
      "saved": 2525,
      "##hat": 2526,
      "Rex": 2527,
      "necklace": 2528,
      "##wor": 2529,
      "hears": 2530,
      "##ual": 2531,
      "feed": 2532,
      "van": 2533,
      "prince": 2534,
      "Fr": 2535,
      "Me": 2536,
      "shore": 2537,
      "working": 2538,
      "gray": 2539,
      "##gy": 2540,
      "reg": 2541,
      "##oons": 2542,
      "frustr": 2543,
      "##era": 2544,
      "Who": 2545,
      "rocket": 2546,
      "standing": 2547,
      "jew": 2548,
      "##cles": 2549,
      "test": 2550,
      "square": 2551,
      "fancy": 2552,
      "pounds": 2553,
      "drew": 2554,
      "Bl": 2555,
      "taken": 2556,
      "##ital": 2557,
      "understood": 2558,
      "thankful": 2559,
      "success": 2560,
      "mysterious": 2561,
      "##gly": 2562,
      "expensive": 2563,
      "##pper": 2564,
      "messy": 2565,
      "gathered": 2566,
      "puzzle": 2567,
      "ugly": 2568,
      "Leo": 2569,
      "fil": 2570,
      "mot": 2571,
      "##flower": 2572,
      "##iff": 2573,
      "sleepy": 2574,
      "##vous": 2575,
      "frustrated": 2576,
      "taught": 2577,
      "hosp": 2578,
      "##ested": 2579,
      "yelled": 2580,
      "##iness": 2581,
      "##pack": 2582,
      "boys": 2583,
      "Susie": 2584,
      "passed": 2585,
      "spoil": 2586,
      "##uring": 2587,
      "teach": 2588,
      "hospital": 2589,
      "twirl": 2590,
      "ord": 2591,
      "##light": 2592,
      "ship": 2593,
      "leg": 2594,
      "wolf": 2595,
      "sco": 2596,
      "vegetables": 2597,
      "##orry": 2598,
      "exam": 2599,
      "powerful": 2600,
      "##hin": 2601,
      "##owing": 2602,
      "##erp": 2603,
      "walks": 2604,
      "ext": 2605,
      "crab": 2606,
      "##iddle": 2607,
      "police": 2608,
      "determined": 2609,
      "questions": 2610,
      "remain": 2611,
      "rece": 2612,
      "easy": 2613,
      "rad": 2614,
      "hel": 2615,
      "##itter": 2616,
      "comfortable": 2617,
      "stuff": 2618,
      "deer": 2619,
      "waves": 2620,
      "##ote": 2621,
      "ner": 2622,
      "##illar": 2623,
      "mummy": 2624,
      "excite": 2625,
      "generous": 2626,
      "##eal": 2627,
      "hur": 2628,
      "bags": 2629,
      "ashamed": 2630,
      "##que": 2631,
      "flag": 2632,
      "change": 2633,
      "gar": 2634,
      "bridge": 2635,
      "poor": 2636,
      "lemon": 2637,
      "œY": 2638,
      "often": 2639,
      "caterp": 2640,
      "##osaur": 2641,
      "match": 2642,
      "caterpillar": 2643,
      "Sorry": 2644,
      "fruits": 2645,
      "lift": 2646,
      "nervous": 2647,
      "##ser": 2648,
      "##we": 2649,
      "dancing": 2650,
      "packed": 2651,
      "cri": 2652,
      "##izzy": 2653,
      "extra": 2654,
      "gate": 2655,
      "Pa": 2656,
      "escap": 2657,
      "##illed": 2658,
      "##ots": 2659,
      "ones": 2660,
      "answered": 2661,
      "rid": 2662,
      "excitement": 2663,
      "##ops": 2664,
      "whisper": 2665,
      "dinosaur": 2666,
      "cries": 2667,
      "vase": 2668,
      "straw": 2669,
      "pir": 2670,
      "middle": 2671,
      "father": 2672,
      "pleased": 2673,
      "##ices": 2674,
      "bone": 2675,
      "knight": 2676,
      "nods": 2677,
      "jog": 2678,
      "##ueen": 2679,
      "polite": 2680,
      "scr": 2681,
      "##aff": 2682,
      "##bles": 2683,
      "##oof": 2684,
      "chest": 2685,
      "clown": 2686,
      "##iv": 2687,
      "flut": 2688,
      "##ella": 2689,
      "sighed": 2690,
      "bored": 2691,
      "fis": 2692,
      "##aking": 2693,
      "relax": 2694,
      "Mrs": 2695,
      "Kitty": 2696,
      "true": 2697,
      "equ": 2698,
      "soar": 2699,
      "##ready": 2700,
      "##ans": 2701,
      "tank": 2702,
      "already": 2703,
      "finger": 2704,
      "weak": 2705,
      "chew": 2706,
      "wander": 2707,
      "##ating": 2708,
      "##selves": 2709,
      "asking": 2710,
      "drum": 2711,
      "##aged": 2712,
      "balloons": 2713,
      "closet": 2714,
      "dest": 2715,
      "##issors": 2716,
      "bathroom": 2717,
      "Pete": 2718,
      "scissors": 2719,
      "scarf": 2720,
      "##ecially": 2721,
      "##specially": 2722,
      "boring": 2723,
      "sug": 2724,
      "tent": 2725,
      "##arl": 2726,
      "grumpy": 2727,
      "hopping": 2728,
      "Bobby": 2729,
      "smelly": 2730,
      "ref": 2731,
      "medic": 2732,
      "playground": 2733,
      "bake": 2734,
      "##oop": 2735,
      "##ushed": 2736,
      "Your": 2737,
      "figure": 2738,
      "##ron": 2739,
      "hang": 2740,
      "especially": 2741,
      "sugar": 2742,
      "added": 2743,
      "yourself": 2744,
      "##body": 2745,
      "##ced": 2746,
      "stones": 2747,
      "giggled": 2748,
      "sight": 2749,
      "wis": 2750,
      "ind": 2751,
      "wagged": 2752,
      "tears": 2753,
      "Give": 2754,
      "mem": 2755,
      "Dan": 2756,
      "cards": 2757,
      "drawing": 2758,
      "Mandy": 2759,
      "##pes": 2760,
      "First": 2761,
      "##ars": 2762,
      "lazy": 2763,
      "lead": 2764,
      "paid": 2765,
      "content": 2766,
      "mel": 2767,
      "tie": 2768,
      "become": 2769,
      "pray": 2770,
      "wheel": 2771,
      "œL": 2772,
      "kissed": 2773,
      "mir": 2774,
      "pages": 2775,
      "##ume": 2776,
      "sailed": 2777,
      "##ym": 2778,
      "lock": 2779,
      "medicine": 2780,
      "feathers": 2781,
      "mic": 2782,
      "cart": 2783,
      "eld": 2784,
      "covered": 2785,
      "End": 2786,
      "sil": 2787,
      "mistake": 2788,
      "picks": 2789,
      "ham": 2790,
      "lying": 2791,
      "once": 2792,
      "shoot": 2793,
      "splashed": 2794,
      "Blue": 2795,
      "cross": 2796,
      "lose": 2797,
      "##ealous": 2798,
      "body": 2799,
      "check": 2800,
      "##ination": 2801,
      "jealous": 2802,
      "ok": 2803,
      "wrote": 2804,
      "coins": 2805,
      "moving": 2806,
      "soap": 2807,
      "##ory": 2808,
      "strawber": 2809,
      "Eventually": 2810,
      "clap": 2811,
      "garage": 2812,
      "=$": 2813,
      "##ror": 2814,
      "drank": 2815,
      "See": 2816,
      "boss": 2817,
      "crown": 2818,
      "fluffy": 2819,
      "##port": 2820,
      "##land": 2821,
      "skipped": 2822,
      "##arry": 2823,
      "measure": 2824,
      "Fred": 2825,
      "movie": 2826,
      "cur": 2827,
      "calling": 2828,
      "egg": 2829,
      "discovered": 2830,
      "Dave": 2831,
      "thick": 2832,
      "cage": 2833,
      "queen": 2834,
      "##fast": 2835,
      "rub": 2836,
      "##ache": 2837,
      "disappeared": 2838,
      "board": 2839,
      "ruined": 2840,
      "chicken": 2841,
      "Paul": 2842,
      "char": 2843,
      "breakfast": 2844,
      "##ses": 2845,
      "fake": 2846,
      "Ella": 2847,
      "borrow": 2848,
      "By": 2849,
      "juicy": 2850,
      "##igin": 2851,
      "eye": 2852,
      "points": 2853,
      "dish": 2854,
      "##ately": 2855,
      "##ject": 2856,
      "norm": 2857,
      "banana": 2858,
      "##ging": 2859,
      "##illi": 2860,
      "brush": 2861,
      "glue": 2862,
      "perform": 2863,
      "dig": 2864,
      "incred": 2865,
      "goat": 2866,
      "joke": 2867,
      "branc": 2868,
      "pair": 2869,
      "branches": 2870,
      "unus": 2871,
      "sweetie": 2872,
      "sugg": 2873,
      "colourful": 2874,
      "unusual": 2875,
      "pump": 2876,
      "speed": 2877,
      "map": 2878,
      "motor": 2879,
      "tape": 2880,
      "origin": 2881,
      "decide": 2882,
      "famous": 2883,
      "adventur": 2884,
      "=$<<": 2885,
      "cher": 2886,
      "price": 2887,
      "##ature": 2888,
      "realised": 2889,
      "Brown": 2890,
      "tag": 2891,
      "##keep": 2892,
      "##ured": 2893,
      "giving": 2894,
      "fine": 2895,
      "##hip": 2896,
      "##lies": 2897,
      "##yal": 2898,
      "noisy": 2899,
      "bottom": 2900,
      "elderly": 2901,
      "mod": 2902,
      "shows": 2903,
      "licked": 2904,
      "ang": 2905,
      "Rose": 2906,
      "tiger": 2907,
      "comb": 2908,
      "offered": 2909,
      "third": 2910,
      "##umbled": 2911,
      "cleaned": 2912,
      "market": 2913,
      "mirror": 2914,
      "horn": 2915,
      "weeks": 2916,
      "knife": 2917,
      "eager": 2918,
      "happening": 2919,
      "towel": 2920,
      "Alex": 2921,
      "##ilt": 2922,
      "mighty": 2923,
      "incredible": 2924,
      "bubbles": 2925,
      "rat": 2926,
      "adventurous": 2927,
      "Sh": 2928,
      "turt": 2929,
      "##bby": 2930,
      "crawled": 2931,
      "compet": 2932,
      "painting": 2933,
      "record": 2934,
      "Mike": 2935,
      "libr": 2936,
      "word": 2937,
      "trucks": 2938,
      "shark": 2939,
      "city": 2940,
      "ter": 2941,
      "five": 2942,
      "hunt": 2943,
      "managed": 2944,
      "##esday": 2945,
      "loyal": 2946,
      "##ddy": 2947,
      "yours": 2948,
      "Ducky": 2949,
      "##imp": 2950,
      "organized": 2951,
      "normal": 2952,
      "rare": 2953,
      "wand": 2954,
      "?\".": 2955,
      "sword": 2956,
      "pillow": 2957,
      "##ud": 2958,
      "against": 2959,
      "fridge": 2960,
      "##olog": 2961,
      "*.": 2962,
      "##ti": 2963,
      "stamp": 2964,
      "unique": 2965,
      "balance": 2966,
      "toug": 2967,
      "hats": 2968,
      "Bella": 2969,
      "bloom": 2970,
      "favour": 2971,
      "##keeper": 2972,
      "##reen": 2973,
      "whale": 2974,
      "lamp": 2975,
      "louder": 2976,
      "brothers": 2977,
      "rep": 2978,
      "marbles": 2979,
      "enjoying": 2980,
      "nod": 2981,
      "##mb": 2982,
      "guess": 2983,
      "##imed": 2984,
      "##ants": 2985,
      "favourite": 2986,
      "##anged": 2987,
      "##uggled": 2988,
      "tomato": 2989,
      "island": 2990,
      "those": 2991,
      "##ips": 2992,
      "##appy": 2993,
      "kindness": 2994,
      "diffic": 2995,
      "impressed": 2996,
      "using": 2997,
      "walls": 2998,
      "jewel": 2999,
      "fat": 3000,
      "wrapped": 3001,
      "##work": 3002,
      "Ne": 3003,
      "cam": 3004,
      "dizzy": 3005,
      "fright": 3006,
      "buttons": 3007,
      "fool": 3008,
      "##ouses": 3009,
      "jack": 3010,
      "spun": 3011,
      "ears": 3012,
      "competit": 3013,
      "grown": 3014,
      "Whenever": 3015,
      "safely": 3016,
      "shake": 3017,
      "squee": 3018,
      "minute": 3019,
      "barn": 3020,
      "difficult": 3021,
      "shells": 3022,
      "arg": 3023,
      "travel": 3024,
      "acce": 3025,
      "space": 3026,
      "tough": 3027,
      "original": 3028,
      "happiness": 3029,
      "learning": 3030,
      "##rag": 3031,
      "office": 3032,
      "##emo": 3033,
      "circles": 3034,
      "hero": 3035,
      "loudly": 3036,
      "belonged": 3037,
      "flash": 3038,
      "apolog": 3039,
      "Nemo": 3040,
      "log": 3041,
      "seeds": 3042,
      "##zed": 3043,
      "wagon": 3044,
      "frown": 3045,
      "rich": 3046,
      "##ipe": 3047,
      "tunn": 3048,
      "bald": 3049,
      "cups": 3050,
      "Cl": 3051,
      "##head": 3052,
      "ber": 3053,
      "##io": 3054,
      "kinds": 3055,
      "cleaning": 3056,
      "son": 3057,
      "##edient": 3058,
      "weird": 3059,
      "desig": 3060,
      "depend": 3061,
      "hose": 3062,
      "mixed": 3063,
      "harm": 3064,
      "stream": 3065,
      "berries": 3066,
      "comput": 3067,
      "cheerful": 3068,
      "foolish": 3069,
      "gall": 3070,
      "search": 3071,
      "stri": 3072,
      "chase": 3073,
      "slipped": 3074,
      "pointing": 3075,
      "fre": 3076,
      "above": 3077,
      "hurts": 3078,
      "bet": 3079,
      "choose": 3080,
      "smoke": 3081,
      "Ow": 3082,
      "Andy": 3083,
      "crack": 3084,
      "clay": 3085,
      "Well": 3086,
      "##wards": 3087,
      "Will": 3088,
      "pil": 3089,
      "rough": 3090,
      "##ress": 3091,
      "twig": 3092,
      "disc": 3093,
      "dreams": 3094,
      "guit": 3095,
      "##omed": 3096,
      "Ge": 3097,
      "counted": 3098,
      "##bborn": 3099,
      "invited": 3100,
      "post": 3101,
      "##ola": 3102,
      "houses": 3103,
      "dollars": 3104,
      "joined": 3105,
      "magn": 3106,
      "costs": 3107,
      "obedient": 3108,
      "##ines": 3109,
      "##orge": 3110,
      "stubborn": 3111,
      "pean": 3112,
      "nosy": 3113,
      "lifted": 3114,
      "unl": 3115,
      "frightened": 3116,
      "weal": 3117,
      "smaller": 3118,
      "pebb": 3119,
      "brilli": 3120,
      "order": 3121,
      "valu": 3122,
      "##gl": 3123,
      "chas": 3124,
      "roof": 3125,
      "##ric": 3126,
      "dolp": 3127,
      "dreamed": 3128,
      "moms": 3129,
      "saying": 3130,
      "skin": 3131,
      "icy": 3132,
      "pal": 3133,
      "##iable": 3134,
      "##arn": 3135,
      "##atter": 3136,
      "cab": 3137,
      "useful": 3138,
      "circle": 3139,
      "Next": 3140,
      "brilliant": 3141,
      "edge": 3142,
      "rode": 3143,
      "Joey": 3144,
      "potato": 3145,
      "suit": 3146,
      "gem": 3147,
      "scare": 3148,
      "tools": 3149,
      "bitter": 3150,
      "proudly": 3151,
      "study": 3152,
      "##ns": 3153,
      "reliable": 3154,
      "escape": 3155,
      "##alk": 3156,
      "knows": 3157,
      "inches": 3158,
      "yog": 3159,
      "deliver": 3160,
      "sounded": 3161,
      "James": 3162,
      "stronger": 3163,
      "Grand": 3164,
      "dough": 3165,
      "jam": 3166,
      "##ience": 3167,
      "bushes": 3168,
      "falls": 3169,
      "cabin": 3170,
      "yarn": 3171,
      "##cient": 3172,
      "thoughtful": 3173,
      "crayon": 3174,
      "cats": 3175,
      "fier": 3176,
      "Ellie": 3177,
      "practice": 3178,
      "##laimed": 3179,
      "parrot": 3180,
      "grandpa": 3181,
      "cheap": 3182,
      "stickers": 3183,
      "##ibb": 3184,
      "exclaimed": 3185,
      "dependable": 3186,
      "shape": 3187,
      "spoiled": 3188,
      "independ": 3189,
      "quar": 3190,
      "built": 3191,
      "##iew": 3192,
      "bossy": 3193,
      "cere": 3194,
      "ancient": 3195,
      "explored": 3196,
      "turtle": 3197,
      "Pat": 3198,
      "Bobo": 3199,
      "##ention": 3200,
      "law": 3201,
      "##oby": 3202,
      "chose": 3203,
      "terri": 3204,
      "low": 3205,
      "fountain": 3206,
      "frag": 3207,
      "tummy": 3208,
      "tooth": 3209,
      "tele": 3210,
      "guitar": 3211,
      "fierce": 3212,
      "enorm": 3213,
      "##iches": 3214,
      "harder": 3215,
      "reminded": 3216,
      "George": 3217,
      "enormous": 3218,
      "Bill": 3219,
      "stumbled": 3220,
      "##rage": 3221,
      "Soph": 3222,
      "##oppy": 3223,
      "swe": 3224,
      "Kim": 3225,
      "Lola": 3226,
      "rul": 3227,
      "laughs": 3228,
      "##amond": 3229,
      "envel": 3230,
      "Tweety": 3231,
      "helps": 3232,
      "œLet": 3233,
      "##son": 3234,
      "beet": 3235,
      "suggested": 3236,
      "##gest": 3237,
      "salad": 3238,
      "valuable": 3239,
      "##corn": 3240,
      "wake": 3241,
      "lights": 3242,
      "##anges": 3243,
      "pumpkin": 3244,
      "##isted": 3245,
      "picking": 3246,
      "diamond": 3247,
      "raced": 3248,
      "camera": 3249,
      "##ories": 3250,
      "notice": 3251,
      "lab": 3252,
      "Toby": 3253,
      "lean": 3254,
      "delighted": 3255,
      "prize": 3256,
      "sauce": 3257,
      "computer": 3258,
      "independent": 3259,
      "Rob": 3260,
      "fresh": 3261,
      "changed": 3262,
      "showing": 3263,
      "popcorn": 3264,
      "cudd": 3265,
      "regular": 3266,
      "math": 3267,
      "fragile": 3268,
      "shel": 3269,
      "seem": 3270,
      "prep": 3271,
      "bounce": 3272,
      "ways": 3273,
      "##ither": 3274,
      "shone": 3275,
      "fingers": 3276,
      "bull": 3277,
      "pants": 3278,
      "##dom": 3279,
      "excitedly": 3280,
      "angel": 3281,
      "weigh": 3282,
      "trunk": 3283,
      "painted": 3284,
      "sandwiches": 3285,
      "solve": 3286,
      "successful": 3287,
      "wealthy": 3288,
      "brightly": 3289,
      "##inary": 3290,
      "cereal": 3291,
      "##com": 3292,
      "##kn": 3293,
      "stairs": 3294,
      "themselves": 3295,
      "load": 3296,
      "enc": 3297,
      "numbers": 3298,
      "driving": 3299,
      "admired": 3300,
      "view": 3301,
      "ing": 3302,
      "arrow": 3303,
      "metal": 3304,
      "##aw": 3305,
      "##any": 3306,
      "##ffee": 3307,
      "gum": 3308,
      "##vice": 3309,
      "cone": 3310,
      "biggest": 3311,
      "leaving": 3312,
      "birdie": 3313,
      "ten": 3314,
      "thirst": 3315,
      "tunnel": 3316,
      "phot": 3317,
      "hay": 3318,
      "##up": 3319,
      "resc": 3320,
      "rushed": 3321,
      "mole": 3322,
      "goose": 3323,
      "##time": 3324,
      "##irp": 3325,
      "meal": 3326,
      "sum": 3327,
      "poured": 3328,
      "library": 3329,
      "march": 3330,
      "Grandpa": 3331,
      "brace": 3332,
      "dove": 3333,
      "kicked": 3334,
      "##uth": 3335,
      "clock": 3336,
      "yet": 3337,
      "##und": 3338,
      "##ado": 3339,
      "Grace": 3340,
      "remaining": 3341,
      "##redient": 3342,
      "searching": 3343,
      "ingredient": 3344,
      "swan": 3345,
      "##cod": 3346,
      "carrying": 3347,
      "value": 3348,
      "##known": 3349,
      "##rell": 3350,
      "finding": 3351,
      "vol": 3352,
      "wheels": 3353,
      "flour": 3354,
      "##ween": 3355,
      "##vious": 3356,
      "spinning": 3357,
      "cop": 3358,
      "stove": 3359,
      "reward": 3360,
      "coffee": 3361,
      "forth": 3362,
      "Sm": 3363,
      "Since": 3364,
      "older": 3365,
      "handle": 3366,
      "reading": 3367,
      "beetle": 3368,
      "wire": 3369,
      "dreaming": 3370,
      "stat": 3371,
      "clum": 3372,
      "serious": 3373,
      "nurse": 3374,
      "unknown": 3375,
      "scrat": 3376,
      "thirsty": 3377,
      "##under": 3378,
      "ending": 3379,
      "flashlight": 3380,
      "dull": 3381,
      "toast": 3382,
      "allowed": 3383,
      "compass": 3384,
      "bill": 3385,
      "washed": 3386,
      "crocod": 3387,
      "Jerry": 3388,
      "pasta": 3389,
      "##pid": 3390,
      "steal": 3391,
      "stupid": 3392,
      "split": 3393,
      "between": 3394,
      "base": 3395,
      "tem": 3396,
      "worth": 3397,
      "dead": 3398,
      "wrap": 3399,
      "playful": 3400,
      "pup": 3401,
      "holds": 3402,
      "##ilty": 3403,
      "##uct": 3404,
      "guilty": 3405,
      "recei": 3406,
      "flute": 3407,
      "cows": 3408,
      "doesn": 3409,
      "blueber": 3410,
      "wiped": 3411,
      "avo": 3412,
      "Would": 3413,
      "##llip": 3414,
      "station": 3415,
      "telling": 3416,
      "delicate": 3417,
      "restaur": 3418,
      "umb": 3419,
      "##ision": 3420,
      "locked": 3421,
      "beak": 3422,
      "boats": 3423,
      "umbrell": 3424,
      "growing": 3425,
      "ingredients": 3426,
      "mis": 3427,
      "bees": 3428,
      "clumsy": 3429,
      "For": 3430,
      "aunt": 3431,
      "##apped": 3432,
      "##iday": 3433,
      "graceful": 3434,
      "liz": 3435,
      "careless": 3436,
      "patter": 3437,
      "screen": 3438,
      "sniff": 3439,
      "hairy": 3440,
      "whispered": 3441,
      "mill": 3442,
      "moder": 3443,
      "earth": 3444,
      "pow": 3445,
      "##illa": 3446,
      "nicely": 3447,
      "stops": 3448,
      "Un": 3449,
      "bump": 3450,
      "acorn": 3451,
      "print": 3452,
      "peeked": 3453,
      "Sn": 3454,
      "lollip": 3455,
      "missing": 3456,
      "persist": 3457,
      "note": 3458,
      "desk": 3459,
      "return": 3460,
      "size": 3461,
      "snee": 3462,
      "##ict": 3463,
      "##gth": 3464,
      "thunder": 3465,
      "envelope": 3466,
      "terrible": 3467,
      "handed": 3468,
      "jacket": 3469,
      "pige": 3470,
      "surf": 3471,
      "tax": 3472,
      "rose": 3473,
      "sudden": 3474,
      "mailbox": 3475,
      "compassion": 3476,
      "Polly": 3477,
      "##fa": 3478,
      "oranges": 3479,
      "placed": 3480,
      "popular": 3481,
      "imagined": 3482,
      "restaurant": 3483,
      "##ikes": 3484,
      "sparkled": 3485,
      "modern": 3486,
      "aftern": 3487,
      "nail": 3488,
      "stranger": 3489,
      "warned": 3490,
      "letters": 3491,
      "jolly": 3492,
      "tire": 3493,
      "coco": 3494,
      "uncom": 3495,
      "##ations": 3496,
      "pirate": 3497,
      "cap": 3498,
      "Is": 3499,
      "friendship": 3500,
      "##robe": 3501,
      "trump": 3502,
      "impress": 3503,
      "##illie": 3504,
      "hammer": 3505,
      "!\".": 3506,
      "##oomy": 3507,
      "Before": 3508,
      "camp": 3509,
      "guard": 3510,
      "cooking": 3511,
      "shiver": 3512,
      "Harry": 3513,
      "goal": 3514,
      "oun": 3515,
      "counting": 3516,
      "patch": 3517,
      "tied": 3518,
      "##oe": 3519,
      "##ugged": 3520,
      "uncomfortable": 3521,
      "spilled": 3522,
      "afternoon": 3523,
      "hoop": 3524,
      "##tter": 3525,
      "##ared": 3526,
      "question": 3527,
      "helm": 3528,
      "Sandy": 3529,
      "wing": 3530,
      "scatter": 3531,
      "perm": 3532,
      "incre": 3533,
      "thinking": 3534,
      "flex": 3535,
      "jug": 3536,
      "##urch": 3537,
      "create": 3538,
      "nuts": 3539,
      "refused": 3540,
      "attic": 3541,
      "##rn": 3542,
      "penny": 3543,
      "crocodile": 3544,
      "pepper": 3545,
      "butterflies": 3546,
      "early": 3547,
      "dust": 3548,
      "eng": 3549,
      "Millie": 3550,
      "destro": 3551,
      "sink": 3552,
      "##nda": 3553,
      "advice": 3554,
      "uncle": 3555,
      "rubbed": 3556,
      "twirled": 3557,
      "witch": 3558,
      "sleeping": 3559,
      "neighbour": 3560,
      "persistent": 3561,
      "era": 3562,
      "##het": 3563,
      "Or": 3564,
      "##ellig": 3565,
      "given": 3566,
      "package": 3567,
      "crawl": 3568,
      "œWhat": 3569,
      "scale": 3570,
      "celebrate": 3571,
      "intellig": 3572,
      "œLetâ": 3573,
      "sorts": 3574,
      "sett": 3575,
      "windows": 3576,
      "##ges": 3577,
      "trap": 3578,
      "Therefore": 3579,
      "Maria": 3580,
      "umbrella": 3581,
      "weight": 3582,
      "chance": 3583,
      "sunflower": 3584,
      "sent": 3585,
      "send": 3586,
      "stage": 3587,
      "exper": 3588,
      "barber": 3589,
      "object": 3590,
      "fan": 3591,
      "otter": 3592,
      "anx": 3593,
      "##aghet": 3594,
      "spring": 3595,
      "##aghetti": 3596,
      "bri": 3597,
      "bent": 3598,
      "squash": 3599,
      "œIt": 3600,
      "chasing": 3601,
      "flexible": 3602,
      "starts": 3603,
      "peace": 3604,
      "rug": 3605,
      "mush": 3606,
      "lizard": 3607,
      "Bye": 3608,
      "nut": 3609,
      "vide": 3610,
      "spaghetti": 3611,
      "Sophie": 3612,
      "trumpet": 3613,
      "##hood": 3614,
      "slides": 3615,
      "knock": 3616,
      "beauty": 3617,
      "towers": 3618,
      "anxious": 3619,
      "nature": 3620,
      "shut": 3621,
      "steps": 3622,
      "gasped": 3623,
      "harmless": 3624,
      "zip": 3625,
      "crazy": 3626,
      "creatures": 3627,
      "sub": 3628,
      "##ebra": 3629,
      "scoot": 3630,
      "encou": 3631,
      "tickets": 3632,
      "impressive": 3633,
      "stack": 3634,
      "agree": 3635,
      "humble": 3636,
      "ordinary": 3637,
      "shocked": 3638,
      "carp": 3639,
      "##ebook": 3640,
      "notebook": 3641,
      "truth": 3642,
      "snuggled": 3643,
      "##cano": 3644,
      "opens": 3645,
      "itself": 3646,
      "pale": 3647,
      "Everything": 3648,
      "couldnâ": 3649,
      "contain": 3650,
      "shield": 3651,
      "short": 3652,
      "shoe": 3653,
      "ahead": 3654,
      "aw": 3655,
      "##iraff": 3656,
      "super": 3657,
      "Tweetie": 3658,
      "cush": 3659,
      "disg": 3660,
      "gro": 3661,
      "zebra": 3662,
      "leop": 3663,
      "collected": 3664,
      "##orant": 3665,
      "hung": 3666,
      "further": 3667,
      "brighter": 3668,
      "statue": 3669,
      "trash": 3670,
      "crane": 3671,
      "piano": 3672,
      "disgust": 3673,
      "##host": 3674,
      "football": 3675,
      "silver": 3676,
      "##res": 3677,
      "jumps": 3678,
      "impat": 3679,
      "badly": 3680,
      "batht": 3681,
      "dolphin": 3682,
      "drawer": 3683,
      "Annie": 3684,
      "Bear": 3685,
      "Jul": 3686,
      "men": 3687,
      "bathtub": 3688,
      "Bet": 3689,
      "dug": 3690,
      "neat": 3691,
      "art": 3692,
      "muff": 3693,
      "twist": 3694,
      "charming": 3695,
      "enth": 3696,
      "practiced": 3697,
      "bicy": 3698,
      "trick": 3699,
      "cupboard": 3700,
      "spoke": 3701,
      "ignorant": 3702,
      "giraff": 3703,
      "ghost": 3704,
      "##gu": 3705,
      "sadly": 3706,
      "magnet": 3707,
      "##arian": 3708,
      "anywhere": 3709,
      "gifted": 3710,
      "collar": 3711,
      "Charl": 3712,
      "courage": 3713,
      "fu": 3714,
      "tray": 3715,
      "impro": 3716,
      "stretched": 3717,
      "impatient": 3718,
      "Pe": 3719,
      "cact": 3720,
      "carto": 3721,
      "attract": 3722,
      "destroy": 3723,
      "intelligent": 3724,
      "enthus": 3725,
      "melon": 3726,
      "volcano": 3727,
      "may": 3728,
      "pear": 3729,
      "##pers": 3730,
      "drop": 3731,
      "led": 3732,
      "names": 3733,
      "mushroom": 3734,
      "rice": 3735,
      "ener": 3736,
      "fearful": 3737,
      "cocoa": 3738,
      "##eaf": 3739,
      "hipp": 3740,
      "cooked": 3741,
      "incl": 3742,
      "engine": 3743,
      "aid": 3744,
      "##epar": 3745,
      "trave": 3746,
      "##iest": 3747,
      "meat": 3748,
      "compassionate": 3749,
      "Tr": 3750,
      "purse": 3751,
      "##gie": 3752,
      "salt": 3753,
      "jet": 3754,
      "separ": 3755,
      "##isk": 3756,
      "seal": 3757,
      "gloomy": 3758,
      "competitive": 3759,
      "pebble": 3760,
      "##ceed": 3761,
      "cactus": 3762,
      "pigeon": 3763,
      "jeep": 3764,
      "##stri": 3765,
      "blow": 3766,
      "hurry": 3767,
      "nowhere": 3768,
      "candle": 3769,
      "Buddy": 3770,
      "avail": 3771,
      "shine": 3772,
      "restless": 3773,
      "complete": 3774,
      "œYes": 3775,
      "bracelet": 3776,
      "sofa": 3777,
      "cricket": 3778,
      "spell": 3779,
      "admire": 3780,
      "dess": 3781,
      "deaf": 3782,
      "fork": 3783,
      "chickens": 3784,
      "pretending": 3785,
      "received": 3786,
      "##ccol": 3787,
      "turkey": 3788,
      "Ste": 3789,
      "hunter": 3790,
      "disgusting": 3791,
      "shaking": 3792,
      "reco": 3793,
      "Jess": 3794,
      "Kate": 3795,
      "Ros": 3796,
      "pony": 3797,
      "##az": 3798,
      "elev": 3799,
      "sweater": 3800,
      "##ccoli": 3801,
      "envious": 3802,
      "Ru": 3803,
      "anyway": 3804,
      "##ems": 3805,
      "Tony": 3806,
      "available": 3807,
      "beep": 3808,
      "backpack": 3809,
      "##opus": 3810,
      "starting": 3811,
      "##ief": 3812,
      "##ctopus": 3813,
      "decorate": 3814,
      "##ci": 3815,
      "carpet": 3816,
      "##aroo": 3817,
      "##angaroo": 3818,
      "raven": 3819,
      "##cycle": 3820,
      "point": 3821,
      "wheat": 3822,
      "track": 3823,
      "score": 3824,
      "##ophone": 3825,
      "riding": 3826,
      "attractive": 3827,
      "torn": 3828,
      "basketball": 3829,
      "ol": 3830,
      "##ipping": 3831,
      "##cing": 3832,
      "hed": 3833,
      "octopus": 3834,
      "##erable": 3835,
      "##uli": 3836,
      "switch": 3837,
      "bandage": 3838,
      "miserable": 3839,
      "leopard": 3840,
      "Mag": 3841,
      "nobody": 3842,
      "chain": 3843,
      "evening": 3844,
      "bananas": 3845,
      "##use": 3846,
      "##vide": 3847,
      "hall": 3848,
      "club": 3849,
      "unpack": 3850,
      "pengu": 3851,
      "waff": 3852,
      "Red": 3853,
      "kangaroo": 3854,
      "ins": 3855,
      "Brownie": 3856,
      "hedge": 3857,
      "aver": 3858,
      "oy": 3859,
      "cryst": 3860,
      "vine": 3861,
      "laser": 3862,
      "slices": 3863,
      "broccoli": 3864,
      "triang": 3865,
      "elevator": 3866,
      "repe": 3867,
      "gallons": 3868,
      "golf": 3869,
      "helpless": 3870,
      "country": 3871,
      "paws": 3872,
      "barrel": 3873,
      "distant": 3874,
      "rules": 3875,
      "Hen": 3876,
      "gor": 3877,
      "ostri": 3878,
      "troph": 3879,
      "thread": 3880,
      "alert": 3881,
      "filthy": 3882,
      "dessert": 3883,
      "ax": 3884,
      "oat": 3885,
      "mug": 3886,
      "grapes": 3887,
      "sym": 3888,
      "sticker": 3889,
      "Smith": 3890,
      "ounces": 3891,
      "bicycle": 3892,
      "curt": 3893,
      "curtain": 3894,
      "vi": 3895,
      "##ccer": 3896,
      "skip": 3897,
      "explain": 3898,
      "giggle": 3899,
      "œThat": 3900,
      "helmet": 3901,
      "Pap": 3902,
      "bul": 3903,
      "hive": 3904,
      "jokes": 3905,
      "avoc": 3906,
      "##inking": 3907,
      "parade": 3908,
      "design": 3909,
      "summer": 3910,
      "hippo": 3911,
      "stared": 3912,
      "pressed": 3913,
      "leash": 3914,
      "succeed": 3915,
      "bikes": 3916,
      "soccer": 3917,
      "clapping": 3918,
      "rolling": 3919,
      "lively": 3920,
      "page": 3921,
      "finds": 3922,
      "frame": 3923,
      "dishes": 3924,
      "##bol": 3925,
      "sle": 3926,
      "shelter": 3927,
      "ribb": 3928,
      "case": 3929,
      "visited": 3930,
      "symbol": 3931,
      "pun": 3932,
      "axe": 3933,
      "melt": 3934,
      "##ubby": 3935,
      "requ": 3936,
      "harsh": 3937,
      "##orable": 3938,
      "happier": 3939,
      "spir": 3940,
      "quite": 3941,
      "ended": 3942,
      "cooler": 3943,
      "chairs": 3944,
      "bears": 3945,
      "ants": 3946,
      "pilot": 3947,
      "bin": 3948,
      "hook": 3949,
      "œM": 3950,
      "##ef": 3951,
      "##night": 3952,
      "##zzy": 3953,
      "organize": 3954,
      "Did": 3955,
      "either": 3956,
      "##urb": 3957,
      "##umb": 3958,
      "micr": 3959,
      "Bunny": 3960,
      "during": 3961,
      "##erc": 3962,
      "bounced": 3963,
      "Charlie": 3964,
      "Rache": 3965,
      "##chan": 3966,
      "laund": 3967,
      "##otten": 3968,
      "soldier": 3969,
      "Ro": 3970,
      "rod": 3971,
      "holes": 3972,
      "wallet": 3973,
      "treasures": 3974,
      "Henry": 3975,
      "##aks": 3976,
      "##irts": 3977,
      "painter": 3978,
      "scooter": 3979,
      "iron": 3980,
      "resist": 3981,
      "apart": 3982,
      "Lilly": 3983,
      "Yay": 3984,
      "##ison": 3985,
      "message": 3986,
      "polish": 3987,
      "disturb": 3988,
      "colours": 3989,
      "stuffed": 3990,
      "Rachel": 3991,
      "tu": 3992,
      "##stairs": 3993,
      "Thus": 3994,
      "needle": 3995,
      "adorable": 3996,
      "pushing": 3997,
      "spends": 3998,
      "support": 3999,
      "stirred": 4000,
      "gorilla": 4001,
      "cord": 4002,
      "por": 4003,
      "##iling": 4004,
      "girls": 4005,
      "cauli": 4006,
      "univer": 4007,
      "recogn": 4008,
      "ur": 4009,
      "##ium": 4010,
      "somewhere": 4011,
      "bottles": 4012,
      "roared": 4013,
      "radio": 4014,
      "wishes": 4015,
      "repair": 4016,
      "Papa": 4017,
      "microphone": 4018,
      "modest": 4019,
      "ostrich": 4020,
      "trophy": 4021,
      "cushion": 4022,
      "laundry": 4023,
      "##sing": 4024,
      "##elery": 4025,
      "##astic": 4026,
      "allig": 4027,
      "comf": 4028,
      "Car": 4029,
      "chubby": 4030,
      "Not": 4031,
      "onion": 4032,
      "pulls": 4033,
      "lions": 4034,
      "appl": 4035,
      "trains": 4036,
      "forgave": 4037,
      "shouts": 4038,
      "theater": 4039,
      "Whisk": 4040,
      "eats": 4041,
      "monkeys": 4042,
      "stretch": 4043,
      "Whiskers": 4044,
      "obs": 4045,
      "drawings": 4046,
      "costume": 4047,
      "Snow": 4048,
      "Bun": 4049,
      "These": 4050,
      "exerc": 4051,
      "didnâ": 4052,
      "listening": 4053,
      "peach": 4054,
      "luck": 4055,
      "film": 4056,
      "##eer": 4057,
      "behave": 4058,
      "zoomed": 4059,
      "barking": 4060,
      "average": 4061,
      "##stic": 4062,
      "##olin": 4063,
      "crystal": 4064,
      "Kat": 4065,
      "May": 4066,
      "rhin": 4067,
      "thief": 4068,
      "##aled": 4069,
      "strawberry": 4070,
      "energy": 4071,
      "obser": 4072,
      "screw": 4073,
      "frogs": 4074,
      "shrimp": 4075,
      "learnt": 4076,
      "hairc": 4077,
      "scold": 4078,
      "mask": 4079,
      "pad": 4080,
      "hadn": 4081,
      "climbing": 4082,
      "ticket": 4083,
      "dive": 4084,
      "pipe": 4085,
      "##kelet": 4086,
      "checked": 4087,
      "lightning": 4088,
      "shopkeeper": 4089,
      "##render": 4090,
      "##enny": 4091,
      "##ooped": 4092,
      "cans": 4093,
      "sort": 4094,
      "glow": 4095
    },
    "merges": [
      [
        "##h",
        "##e"
      ],
      [
        "##n",
        "##d"
      ],
      [
        "t",
        "##he"
      ],
      [
        "##e",
        "##d"
      ],
      [
        "a",
        "##nd"
      ],
      [
        "##e",
        "##r"
      ],
      [
        "t",
        "##o"
      ],
      [
        "w",
        "##a"
      ],
      [
        "##i",
        "##n"
      ],
      [
        "##o",
        "##u"
      ],
      [
        "##r",
        "##e"
      ],
      [
        "wa",
        "##s"
      ],
      [
        "##o",
        "##m"
      ],
      [
        "##a",
        "##y"
      ],
      [
        "T",
        "##he"
      ],
      [
        "##a",
        "##r"
      ],
      [
        "##in",
        "##g"
      ],
      [
        "##i",
        "##l"
      ],
      [
        "##i",
        "##t"
      ],
      [
        "##a",
        "##t"
      ],
      [
        "##i",
        "##d"
      ],
      [
        "h",
        "##a"
      ],
      [
        "##e",
        "##n"
      ],
      [
        "##a",
        "##n"
      ],
      [
        "##i",
        "##s"
      ],
      [
        "s",
        "##a"
      ],
      [
        "##o",
        "##r"
      ],
      [
        "##i",
        "##m"
      ],
      [
        "##o",
        "##n"
      ],
      [
        "h",
        "##e"
      ],
      [
        "t",
        "##h"
      ],
      [
        "i",
        "##t"
      ],
      [
        "##e",
        "##s"
      ],
      [
        "##u",
        "##t"
      ],
      [
        "##l",
        "##l"
      ],
      [
        "##e",
        "##t"
      ],
      [
        "h",
        "##er"
      ],
      [
        "##l",
        "##e"
      ],
      [
        "H",
        "##e"
      ],
      [
        "##o",
        "##t"
      ],
      [
        "##i",
        "##r"
      ],
      [
        "S",
        "##he"
      ],
      [
        "i",
        "##n"
      ],
      [
        "##o",
        "##w"
      ],
      [
        "The",
        "##y"
      ],
      [
        "##c",
        "##k"
      ],
      [
        "##l",
        "##d"
      ],
      [
        "##o",
        "##o"
      ],
      [
        "b",
        "##e"
      ],
      [
        "##i",
        "##g"
      ],
      [
        "s",
        "##t"
      ],
      [
        "##a",
        "##m"
      ],
      [
        "o",
        "##f"
      ],
      [
        "##c",
        "##e"
      ],
      [
        "sa",
        "##id"
      ],
      [
        "##il",
        "##y"
      ],
      [
        "s",
        "##he"
      ],
      [
        "##p",
        "##p"
      ],
      [
        "##it",
        "##h"
      ],
      [
        "##v",
        "##e"
      ],
      [
        "w",
        "##ith"
      ],
      [
        "o",
        "##n"
      ],
      [
        "O",
        "##n"
      ],
      [
        "##r",
        "##i"
      ],
      [
        "s",
        "##o"
      ],
      [
        "L",
        "##ily"
      ],
      [
        "h",
        "##is"
      ],
      [
        "##k",
        "##ed"
      ],
      [
        "##er",
        "##y"
      ],
      [
        "p",
        "##l"
      ],
      [
        "##a",
        "##d"
      ],
      [
        "d",
        "##ay"
      ],
      [
        "##n",
        "##t"
      ],
      [
        "y",
        "##ou"
      ],
      [
        "##k",
        "##e"
      ],
      [
        "th",
        "##at"
      ],
      [
        "u",
        "##p"
      ],
      [
        "##e",
        "##l"
      ],
      [
        "ha",
        "##d"
      ],
      [
        "f",
        "##or"
      ],
      [
        "##s",
        "##t"
      ],
      [
        "pl",
        "##ay"
      ],
      [
        "the",
        "##y"
      ],
      [
        "##c",
        "##h"
      ],
      [
        "##en",
        "##t"
      ],
      [
        "m",
        "##om"
      ],
      [
        "##ou",
        "##ld"
      ],
      [
        "##u",
        "##n"
      ],
      [
        "##m",
        "##y"
      ],
      [
        "ha",
        "##pp"
      ],
      [
        "l",
        "##i"
      ],
      [
        "##it",
        "##t"
      ],
      [
        "##a",
        "##l"
      ],
      [
        "##he",
        "##r"
      ],
      [
        "s",
        "##h"
      ],
      [
        "wa",
        "##nt"
      ],
      [
        "##l",
        "##y"
      ],
      [
        "##s",
        "##e"
      ],
      [
        "d",
        "##o"
      ],
      [
        "##a",
        "##ll"
      ],
      [
        "##ou",
        "##nd"
      ],
      [
        "t",
        "##im"
      ],
      [
        "I",
        "##t"
      ],
      [
        "##e",
        "##nd"
      ],
      [
        "w",
        "##h"
      ],
      [
        "##om",
        "##e"
      ],
      [
        "v",
        "##ery"
      ],
      [
        "the",
        "##re"
      ],
      [
        "tim",
        "##e"
      ],
      [
        "##itt",
        "##le"
      ],
      [
        "n",
        "##e"
      ],
      [
        "##h",
        "##t"
      ],
      [
        "n",
        "##ot"
      ],
      [
        "l",
        "##ittle"
      ],
      [
        "i",
        "##s"
      ],
      [
        "happ",
        "##y"
      ],
      [
        "##r",
        "##a"
      ],
      [
        "b",
        "##ig"
      ],
      [
        "s",
        "##m"
      ],
      [
        "b",
        "##ut"
      ],
      [
        "a",
        "##s"
      ],
      [
        "a",
        "##n"
      ],
      [
        "##a",
        "##ck"
      ],
      [
        "##ri",
        "##end"
      ],
      [
        "sa",
        "##w"
      ],
      [
        "f",
        "##riend"
      ],
      [
        "r",
        "##e"
      ],
      [
        "##r",
        "##y"
      ],
      [
        "##t",
        "##er"
      ],
      [
        "##a",
        "##ke"
      ],
      [
        "On",
        "##e"
      ],
      [
        "##o",
        "##re"
      ],
      [
        "##e",
        "##c"
      ],
      [
        "##er",
        "##e"
      ],
      [
        "T",
        "##im"
      ],
      [
        ".",
        "##\""
      ],
      [
        "##v",
        "##ed"
      ],
      [
        "##u",
        "##g"
      ],
      [
        "On",
        "##ce"
      ],
      [
        "w",
        "##ere"
      ],
      [
        "l",
        "##oo"
      ],
      [
        "l",
        "##o"
      ],
      [
        "!",
        "##\""
      ],
      [
        "##u",
        "##r"
      ],
      [
        "b",
        "##o"
      ],
      [
        "h",
        "##im"
      ],
      [
        "##e",
        "##e"
      ],
      [
        "##id",
        "##e"
      ],
      [
        "##il",
        "##l"
      ],
      [
        "##v",
        "##er"
      ],
      [
        "to",
        "##o"
      ],
      [
        "g",
        "##o"
      ],
      [
        "##ir",
        "##l"
      ],
      [
        "##ar",
        "##d"
      ],
      [
        "g",
        "##irl"
      ],
      [
        "a",
        "##re"
      ],
      [
        "up",
        "##on"
      ],
      [
        "want",
        "##ed"
      ],
      [
        "s",
        "##p"
      ],
      [
        "a",
        "##t"
      ],
      [
        "o",
        "##ut"
      ],
      [
        "##u",
        "##l"
      ],
      [
        "the",
        "##m"
      ],
      [
        "##i",
        "##nd"
      ],
      [
        "##w",
        "##ay"
      ],
      [
        "T",
        "##om"
      ],
      [
        "c",
        "##ould"
      ],
      [
        "d",
        "##id"
      ],
      [
        "##he",
        "##n"
      ],
      [
        "the",
        "##ir"
      ],
      [
        "##a",
        "##in"
      ],
      [
        "##t",
        "##ed"
      ],
      [
        "sm",
        "##il"
      ],
      [
        "ha",
        "##ve"
      ],
      [
        "B",
        "##en"
      ],
      [
        "e",
        "##x"
      ],
      [
        "##r",
        "##om"
      ],
      [
        "##u",
        "##m"
      ],
      [
        "##he",
        "##d"
      ],
      [
        "##i",
        "##c"
      ],
      [
        "a",
        "##r"
      ],
      [
        "w",
        "##ent"
      ],
      [
        "B",
        "##ut"
      ],
      [
        "##e",
        "##ar"
      ],
      [
        "a",
        "##ll"
      ],
      [
        "c",
        "##an"
      ],
      [
        "##ig",
        "##ht"
      ],
      [
        "##l",
        "##p"
      ],
      [
        "##h",
        "##ing"
      ],
      [
        "##f",
        "##ul"
      ],
      [
        "friend",
        "##s"
      ],
      [
        "##on",
        "##e"
      ],
      [
        "n",
        "##am"
      ],
      [
        "##oo",
        "##d"
      ],
      [
        "k",
        "##n"
      ],
      [
        "he",
        "##lp"
      ],
      [
        "##ar",
        "##k"
      ],
      [
        "##v",
        "##ery"
      ],
      [
        "c",
        "##l"
      ],
      [
        "b",
        "##ack"
      ],
      [
        "m",
        "##an"
      ],
      [
        "c",
        "##a"
      ],
      [
        "?",
        "##\""
      ],
      [
        "f",
        "##un"
      ],
      [
        "Tim",
        "##my"
      ],
      [
        "##o",
        "##p"
      ],
      [
        "##ou",
        "##g"
      ],
      [
        "st",
        "##ar"
      ],
      [
        "n",
        "##o"
      ],
      [
        "a",
        "##l"
      ],
      [
        "s",
        "##c"
      ],
      [
        "nam",
        "##ed"
      ],
      [
        "##i",
        "##ck"
      ],
      [
        "##e",
        "##a"
      ],
      [
        "s",
        "##ay"
      ],
      [
        "lo",
        "##ved"
      ],
      [
        "##s",
        "##ide"
      ],
      [
        "##el",
        "##t"
      ],
      [
        "Y",
        "##ou"
      ],
      [
        "smil",
        "##ed"
      ],
      [
        "f",
        "##elt"
      ],
      [
        "ar",
        "##ound"
      ],
      [
        "f",
        "##e"
      ],
      [
        "##am",
        "##e"
      ],
      [
        "as",
        "##ked"
      ],
      [
        "to",
        "##y"
      ],
      [
        "##om",
        "##et"
      ],
      [
        "r",
        "##o"
      ],
      [
        "loo",
        "##ked"
      ],
      [
        "b",
        "##r"
      ],
      [
        "##g",
        "##et"
      ],
      [
        "##u",
        "##re"
      ],
      [
        "w",
        "##ould"
      ],
      [
        "li",
        "##ke"
      ],
      [
        "s",
        "##ome"
      ],
      [
        "s",
        "##ee"
      ],
      [
        "##ir",
        "##d"
      ],
      [
        "bo",
        "##y"
      ],
      [
        "##on",
        "##g"
      ],
      [
        "m",
        "##e"
      ],
      [
        "##es",
        "##t"
      ],
      [
        "M",
        "##om"
      ],
      [
        "c",
        "##o"
      ],
      [
        "w",
        "##or"
      ],
      [
        "s",
        "##omet"
      ],
      [
        "b",
        "##ird"
      ],
      [
        "##ad",
        "##e"
      ],
      [
        "##d",
        "##d"
      ],
      [
        "##ing",
        "##s"
      ],
      [
        "a",
        "##g"
      ],
      [
        "f",
        "##a"
      ],
      [
        "##k",
        "##ing"
      ],
      [
        "##s",
        "##s"
      ],
      [
        "##i",
        "##e"
      ],
      [
        "##a",
        "##g"
      ],
      [
        "##re",
        "##e"
      ],
      [
        "m",
        "##ake"
      ],
      [
        "wh",
        "##at"
      ],
      [
        "##get",
        "##her"
      ],
      [
        "c",
        "##ar"
      ],
      [
        "##ow",
        "##n"
      ],
      [
        "##i",
        "##ce"
      ],
      [
        "a",
        "##way"
      ],
      [
        "star",
        "##ted"
      ],
      [
        "r",
        "##an"
      ],
      [
        "m",
        "##ade"
      ],
      [
        "T",
        "##h"
      ],
      [
        "##ou",
        "##d"
      ],
      [
        "m",
        "##u"
      ],
      [
        "somet",
        "##hing"
      ],
      [
        "to",
        "##gether"
      ],
      [
        "##a",
        "##ch"
      ],
      [
        "##it",
        "##ed"
      ],
      [
        "f",
        "##rom"
      ],
      [
        "w",
        "##e"
      ],
      [
        "##t",
        "##her"
      ],
      [
        ",",
        "##\""
      ],
      [
        "p",
        "##ark"
      ],
      [
        "p",
        "##r"
      ],
      [
        "l",
        "##a"
      ],
      [
        "c",
        "##h"
      ],
      [
        "ne",
        "##w"
      ],
      [
        "ex",
        "##c"
      ],
      [
        "##N",
        "##S"
      ],
      [
        "o",
        "##ther"
      ],
      [
        "sa",
        "##d"
      ],
      [
        "##oo",
        "##k"
      ],
      [
        "p",
        "##ut"
      ],
      [
        "##ou",
        "##t"
      ],
      [
        "h",
        "##ome"
      ],
      [
        "the",
        "##n"
      ],
      [
        "say",
        "##s"
      ],
      [
        "ag",
        "##ain"
      ],
      [
        "w",
        "##hen"
      ],
      [
        "sc",
        "##ar"
      ],
      [
        "wh",
        "##o"
      ],
      [
        "d",
        "##ec"
      ],
      [
        "f",
        "##l"
      ],
      [
        "g",
        "##et"
      ],
      [
        "h",
        "##ug"
      ],
      [
        "f",
        "##ound"
      ],
      [
        "##ri",
        "##ed"
      ],
      [
        "##oug",
        "##ht"
      ],
      [
        "##p",
        "##l"
      ],
      [
        "##pp",
        "##ed"
      ],
      [
        "g",
        "##ood"
      ],
      [
        "wa",
        "##l"
      ],
      [
        "##all",
        "##y"
      ],
      [
        "a",
        "##b"
      ],
      [
        "##a",
        "##b"
      ],
      [
        "##e",
        "##ll"
      ],
      [
        "play",
        "##ing"
      ],
      [
        "s",
        "##w"
      ],
      [
        "g",
        "##ot"
      ],
      [
        "e",
        "##very"
      ],
      [
        "S",
        "##u"
      ],
      [
        "##ou",
        "##s"
      ],
      [
        "exc",
        "##ited"
      ],
      [
        "##r",
        "##o"
      ],
      [
        "th",
        "##ings"
      ],
      [
        "dec",
        "##id"
      ],
      [
        "th",
        "##an"
      ],
      [
        "##er",
        "##s"
      ],
      [
        "##u",
        "##ck"
      ],
      [
        "##es",
        "##s"
      ],
      [
        "S",
        "##am"
      ],
      [
        "decid",
        "##ed"
      ],
      [
        "on",
        "##e"
      ],
      [
        "be",
        "##c"
      ],
      [
        "b",
        "##l"
      ],
      [
        "f",
        "##ind"
      ],
      [
        "##e",
        "##p"
      ],
      [
        "li",
        "##ked"
      ],
      [
        "c",
        "##ame"
      ],
      [
        "##a",
        "##s"
      ],
      [
        "##u",
        "##s"
      ],
      [
        "##n",
        "##y"
      ],
      [
        "w",
        "##ill"
      ],
      [
        "##a",
        "##x"
      ],
      [
        "##ou",
        "##se"
      ],
      [
        "d",
        "##own"
      ],
      [
        "##u",
        "##st"
      ],
      [
        ">",
        "##>"
      ],
      [
        "S",
        "##o"
      ],
      [
        "scar",
        "##ed"
      ],
      [
        "##n",
        "##a"
      ],
      [
        "do",
        "##g"
      ],
      [
        "A",
        "##n"
      ],
      [
        "##ar",
        "##a"
      ],
      [
        "ca",
        "##re"
      ],
      [
        "g",
        "##r"
      ],
      [
        "you",
        "##r"
      ],
      [
        "fe",
        "##el"
      ],
      [
        "p",
        "##a"
      ],
      [
        "##is",
        "##t"
      ],
      [
        "d",
        "##ad"
      ],
      [
        "[",
        "##/"
      ],
      [
        "m",
        "##ore"
      ],
      [
        "##way",
        "##s"
      ],
      [
        "g",
        "##ra"
      ],
      [
        "p",
        "##o"
      ],
      [
        "did",
        "##n"
      ],
      [
        "##an",
        "##t"
      ],
      [
        "too",
        "##k"
      ],
      [
        "M",
        "##ax"
      ],
      [
        "al",
        "##ways"
      ],
      [
        "o",
        "##ld"
      ],
      [
        "W",
        "##e"
      ],
      [
        "##n",
        "##ed"
      ],
      [
        "S",
        "##ara"
      ],
      [
        "l",
        "##ot"
      ],
      [
        "mom",
        "##my"
      ],
      [
        "ab",
        "##out"
      ],
      [
        "h",
        "##ow"
      ],
      [
        "##e",
        "##w"
      ],
      [
        "##ec",
        "##i"
      ],
      [
        "##nd",
        "##er"
      ],
      [
        "b",
        "##all"
      ],
      [
        "t",
        "##ree"
      ],
      [
        "W",
        "##hen"
      ],
      [
        "m",
        "##y"
      ],
      [
        "loo",
        "##k"
      ],
      [
        "out",
        "##side"
      ],
      [
        "##it",
        "##e"
      ],
      [
        "##is",
        "##e"
      ],
      [
        "##c",
        "##hed"
      ],
      [
        "An",
        "##na"
      ],
      [
        "##t",
        "##o"
      ],
      [
        "toy",
        "##s"
      ],
      [
        "th",
        "##ought"
      ],
      [
        "##en",
        "##ed"
      ],
      [
        "l",
        "##ear"
      ],
      [
        "##ou",
        "##r"
      ],
      [
        "mu",
        "##ch"
      ],
      [
        "t",
        "##w"
      ],
      [
        "J",
        "##o"
      ],
      [
        "##f",
        "##ter"
      ],
      [
        "t",
        "##ake"
      ],
      [
        "sp",
        "##eci"
      ],
      [
        "speci",
        "##al"
      ],
      [
        "h",
        "##o"
      ],
      [
        "##f",
        "##f"
      ],
      [
        "p",
        "##re"
      ],
      [
        "e",
        "##ach"
      ],
      [
        "kn",
        "##ow"
      ],
      [
        "man",
        "##y"
      ],
      [
        "##u",
        "##ll"
      ],
      [
        "##i",
        "##ve"
      ],
      [
        "##a",
        "##ve"
      ],
      [
        "##t",
        "##y"
      ],
      [
        "##g",
        "##ed"
      ],
      [
        "kn",
        "##ew"
      ],
      [
        "c",
        "##at"
      ],
      [
        "la",
        "##ug"
      ],
      [
        "##dd",
        "##en"
      ],
      [
        "W",
        "##h"
      ],
      [
        "##re",
        "##at"
      ],
      [
        "H",
        "##er"
      ],
      [
        "##o",
        "##b"
      ],
      [
        "##m",
        "##a"
      ],
      [
        "an",
        "##y"
      ],
      [
        "E",
        "##very"
      ],
      [
        "t",
        "##a"
      ],
      [
        "##is",
        "##h"
      ],
      [
        "##i",
        "##on"
      ],
      [
        "##dden",
        "##ly"
      ],
      [
        "J",
        "##ack"
      ],
      [
        "sh",
        "##ow"
      ],
      [
        "s",
        "##or"
      ],
      [
        "##a",
        "##u"
      ],
      [
        "t",
        "##r"
      ],
      [
        "s",
        "##l"
      ],
      [
        "##v",
        "##en"
      ],
      [
        "##an",
        "##g"
      ],
      [
        "##b",
        "##er"
      ],
      [
        "o",
        "##r"
      ],
      [
        "r",
        "##un"
      ],
      [
        "h",
        "##ouse"
      ],
      [
        "##in",
        "##k"
      ],
      [
        "##u",
        "##e"
      ],
      [
        "m",
        "##o"
      ],
      [
        "##i",
        "##a"
      ],
      [
        "in",
        "##to"
      ],
      [
        "##au",
        "##se"
      ],
      [
        "s",
        "##k"
      ],
      [
        "wa",
        "##ter"
      ],
      [
        "The",
        "##n"
      ],
      [
        "o",
        "##p"
      ],
      [
        "ne",
        "##ed"
      ],
      [
        "g",
        "##ave"
      ],
      [
        "s",
        "##un"
      ],
      [
        "e",
        "##at"
      ],
      [
        "ha",
        "##nd"
      ],
      [
        "e",
        "##n"
      ],
      [
        "cl",
        "##o"
      ],
      [
        "##ot",
        "##her"
      ],
      [
        "##at",
        "##e"
      ],
      [
        "bec",
        "##ause"
      ],
      [
        "in",
        "##side"
      ],
      [
        "i",
        "##f"
      ],
      [
        "t",
        "##ried"
      ],
      [
        "o",
        "##ver"
      ],
      [
        "could",
        "##n"
      ],
      [
        "##f",
        "##t"
      ],
      [
        "to",
        "##ld"
      ],
      [
        "##an",
        "##k"
      ],
      [
        "pr",
        "##oud"
      ],
      [
        "##um",
        "##p"
      ],
      [
        "ne",
        "##ver"
      ],
      [
        "sor",
        "##ry"
      ],
      [
        "c",
        "##om"
      ],
      [
        "th",
        "##is"
      ],
      [
        "q",
        "##u"
      ],
      [
        "ex",
        "##pl"
      ],
      [
        "he",
        "##ard"
      ],
      [
        "bo",
        "##x"
      ],
      [
        "p",
        "##ick"
      ],
      [
        "Su",
        "##ddenly"
      ],
      [
        "ro",
        "##om"
      ],
      [
        "s",
        "##e"
      ],
      [
        "play",
        "##ed"
      ],
      [
        "##d",
        "##y"
      ],
      [
        "F",
        "##rom"
      ],
      [
        "##i",
        "##z"
      ],
      [
        "##et",
        "##ter"
      ],
      [
        "##ot",
        "##h"
      ],
      [
        "##k",
        "##es"
      ],
      [
        "##il",
        "##e"
      ],
      [
        "of",
        "##f"
      ],
      [
        "st",
        "##r"
      ],
      [
        "##he",
        "##re"
      ],
      [
        "H",
        "##is"
      ],
      [
        "l",
        "##ong"
      ],
      [
        "b",
        "##u"
      ],
      [
        "wa",
        "##t"
      ],
      [
        "j",
        "##ust"
      ],
      [
        "pre",
        "##t"
      ],
      [
        "##a",
        "##re"
      ],
      [
        "##f",
        "##e"
      ],
      [
        "p",
        "##e"
      ],
      [
        "##e",
        "##m"
      ],
      [
        "T",
        "##H"
      ],
      [
        "##ee",
        "##p"
      ],
      [
        "##I",
        "##N"
      ],
      [
        "##E",
        "##R"
      ],
      [
        "A",
        "##nd"
      ],
      [
        "##IN",
        "##K"
      ],
      [
        "A",
        "##NS"
      ],
      [
        "I",
        "##NS"
      ],
      [
        "##W",
        "##ER"
      ],
      [
        "TH",
        "##INK"
      ],
      [
        "ANS",
        "##WER"
      ],
      [
        "INS",
        "##T"
      ],
      [
        "hug",
        "##ged"
      ],
      [
        "sm",
        "##all"
      ],
      [
        "##u",
        "##c"
      ],
      [
        "##v",
        "##ing"
      ],
      [
        "##oug",
        "##h"
      ],
      [
        "f",
        "##o"
      ],
      [
        "<",
        "##<"
      ],
      [
        "M",
        "##ia"
      ],
      [
        "n",
        "##ice"
      ],
      [
        "##in",
        "##e"
      ],
      [
        "##il",
        "##d"
      ],
      [
        "L",
        "##et"
      ],
      [
        "m",
        "##a"
      ],
      [
        "ha",
        "##s"
      ],
      [
        "u",
        "##nt"
      ],
      [
        "b",
        "##y"
      ],
      [
        "##i",
        "##es"
      ],
      [
        "##a",
        "##ce"
      ],
      [
        "##or",
        "##t"
      ],
      [
        "be",
        "##ar"
      ],
      [
        "##im",
        "##al"
      ],
      [
        "unt",
        "##il"
      ],
      [
        "an",
        "##imal"
      ],
      [
        "##l",
        "##es"
      ],
      [
        "##s",
        "##el"
      ],
      [
        "##b",
        "##b"
      ],
      [
        "t",
        "##ry"
      ],
      [
        "e",
        "##nd"
      ],
      [
        "##v",
        "##es"
      ],
      [
        "u",
        "##s"
      ],
      [
        "lear",
        "##ned"
      ],
      [
        "be",
        "##a"
      ],
      [
        "##g",
        "##ry"
      ],
      [
        "a",
        "##d"
      ],
      [
        "##n",
        "##ing"
      ],
      [
        "b",
        "##etter"
      ],
      [
        "fl",
        "##ow"
      ],
      [
        "i",
        "##m"
      ],
      [
        "Th",
        "##at"
      ],
      [
        "##ur",
        "##t"
      ],
      [
        "c",
        "##all"
      ],
      [
        "k",
        "##ind"
      ],
      [
        "##v",
        "##ent"
      ],
      [
        "d",
        "##re"
      ],
      [
        "c",
        "##le"
      ],
      [
        "##ad",
        "##y"
      ],
      [
        "##a",
        "##nd"
      ],
      [
        "lo",
        "##ve"
      ],
      [
        "b",
        "##est"
      ],
      [
        "e",
        "##ven"
      ],
      [
        "##o",
        "##y"
      ],
      [
        "s",
        "##n"
      ],
      [
        "##ur",
        "##p"
      ],
      [
        "b",
        "##ra"
      ],
      [
        "##ard",
        "##en"
      ],
      [
        "g",
        "##arden"
      ],
      [
        "than",
        "##ked"
      ],
      [
        "sk",
        "##y"
      ],
      [
        "bea",
        "##ut"
      ],
      [
        "f",
        "##i"
      ],
      [
        "##he",
        "##s"
      ],
      [
        "##a",
        "##p"
      ],
      [
        "c",
        "##he"
      ],
      [
        "fa",
        "##st"
      ],
      [
        "c",
        "##u"
      ],
      [
        "d",
        "##on"
      ],
      [
        "##sel",
        "##f"
      ],
      [
        "tw",
        "##o"
      ],
      [
        "f",
        "##am"
      ],
      [
        "##t",
        "##h"
      ],
      [
        "care",
        "##ful"
      ],
      [
        "laug",
        "##hed"
      ],
      [
        "lot",
        "##s"
      ],
      [
        "j",
        "##ump"
      ],
      [
        "Jo",
        "##h"
      ],
      [
        "##le",
        "##w"
      ],
      [
        "re",
        "##m"
      ],
      [
        "Joh",
        "##n"
      ],
      [
        "g",
        "##l"
      ],
      [
        "##in",
        "##y"
      ],
      [
        "wa",
        "##y"
      ],
      [
        "l",
        "##oud"
      ],
      [
        "beaut",
        "##i"
      ],
      [
        "l",
        "##e"
      ],
      [
        "##op",
        "##le"
      ],
      [
        "st",
        "##ill"
      ],
      [
        "##c",
        "##t"
      ],
      [
        "beauti",
        "##ful"
      ],
      [
        "Wh",
        "##at"
      ],
      [
        "##w",
        "##n"
      ],
      [
        "##oo",
        "##l"
      ],
      [
        "c",
        "##ome"
      ],
      [
        "Mom",
        "##my"
      ],
      [
        "h",
        "##ard"
      ],
      [
        "animal",
        "##s"
      ],
      [
        "d",
        "##i"
      ],
      [
        "##b",
        "##y"
      ],
      [
        "l",
        "##ist"
      ],
      [
        "pe",
        "##ople"
      ],
      [
        "##ab",
        "##le"
      ],
      [
        "##f",
        "##ore"
      ],
      [
        "b",
        "##ook"
      ],
      [
        "st",
        "##ay"
      ],
      [
        "Y",
        "##es"
      ],
      [
        "A",
        "##fter"
      ],
      [
        "b",
        "##oth"
      ],
      [
        "l",
        "##ea"
      ],
      [
        "w",
        "##o"
      ],
      [
        "co",
        "##l"
      ],
      [
        "##q",
        "##u"
      ],
      [
        "f",
        "##in"
      ],
      [
        "s",
        "##u"
      ],
      [
        "A",
        "##s"
      ],
      [
        "u",
        "##nder"
      ],
      [
        "sa",
        "##fe"
      ],
      [
        "h",
        "##urt"
      ],
      [
        "##ig",
        "##h"
      ],
      [
        "##a",
        "##se"
      ],
      [
        "fam",
        "##ily"
      ],
      [
        "clo",
        "##s"
      ],
      [
        "##an",
        "##e"
      ],
      [
        "##i",
        "##p"
      ],
      [
        "li",
        "##ved"
      ],
      [
        "it",
        "##s"
      ],
      [
        "##ec",
        "##t"
      ],
      [
        "l",
        "##et"
      ],
      [
        "C",
        "##an"
      ],
      [
        "bra",
        "##ve"
      ],
      [
        "y",
        "##ear"
      ],
      [
        "im",
        "##p"
      ],
      [
        "r",
        "##ed"
      ],
      [
        "##ep",
        "##t"
      ],
      [
        "##is",
        "##hed"
      ],
      [
        "b",
        "##ad"
      ],
      [
        "f",
        "##lew"
      ],
      [
        "L",
        "##uc"
      ],
      [
        "c",
        "##on"
      ],
      [
        "k",
        "##ept"
      ],
      [
        "##x",
        "##t"
      ],
      [
        "do",
        "##ll"
      ],
      [
        "Luc",
        "##y"
      ],
      [
        "wal",
        "##ked"
      ],
      [
        "##urp",
        "##r"
      ],
      [
        "st",
        "##or"
      ],
      [
        "##o",
        "##ck"
      ],
      [
        "##l",
        "##ed"
      ],
      [
        "s",
        "##urpr"
      ],
      [
        "B",
        "##ob"
      ],
      [
        "call",
        "##ed"
      ],
      [
        "n",
        "##ow"
      ],
      [
        "sh",
        "##ould"
      ],
      [
        "##b",
        "##e"
      ],
      [
        "so",
        "##on"
      ],
      [
        "f",
        "##ly"
      ],
      [
        "f",
        "##ore"
      ],
      [
        "##g",
        "##e"
      ],
      [
        "##k",
        "##ay"
      ],
      [
        "##is",
        "##ed"
      ],
      [
        "be",
        "##fore"
      ],
      [
        "go",
        "##ing"
      ],
      [
        "ro",
        "##ck"
      ],
      [
        "##e",
        "##et"
      ],
      [
        "t",
        "##ur"
      ],
      [
        "p",
        "##ic"
      ],
      [
        "cle",
        "##an"
      ],
      [
        "f",
        "##ar"
      ],
      [
        "p",
        "##er"
      ],
      [
        "##ir",
        "##st"
      ],
      [
        "sh",
        "##are"
      ],
      [
        "an",
        "##gry"
      ],
      [
        "k",
        "##eep"
      ],
      [
        "Th",
        "##ank"
      ],
      [
        "##il",
        "##ly"
      ],
      [
        "##um",
        "##my"
      ],
      [
        "ad",
        "##vent"
      ],
      [
        "op",
        "##ened"
      ],
      [
        "##ar",
        "##t"
      ],
      [
        "f",
        "##r"
      ],
      [
        "w",
        "##ind"
      ],
      [
        "##ag",
        "##e"
      ],
      [
        "do",
        "##or"
      ],
      [
        "pret",
        "##ty"
      ],
      [
        "re",
        "##al"
      ],
      [
        "gr",
        "##ound"
      ],
      [
        "st",
        "##o"
      ],
      [
        "d",
        "##ra"
      ],
      [
        "D",
        "##ad"
      ],
      [
        "sh",
        "##iny"
      ],
      [
        "##dd",
        "##ed"
      ],
      [
        "expl",
        "##ore"
      ],
      [
        "i",
        "##d"
      ],
      [
        "N",
        "##o"
      ],
      [
        "no",
        "##ise"
      ],
      [
        "id",
        "##ea"
      ],
      [
        "##s",
        "##o"
      ],
      [
        "u",
        "##n"
      ],
      [
        "al",
        "##so"
      ],
      [
        "ne",
        "##xt"
      ],
      [
        "e",
        "##y"
      ],
      [
        "col",
        "##or"
      ],
      [
        "feel",
        "##ing"
      ],
      [
        "c",
        "##ry"
      ],
      [
        "t",
        "##re"
      ],
      [
        "th",
        "##r"
      ],
      [
        "wa",
        "##r"
      ],
      [
        "##t",
        "##ing"
      ],
      [
        "wh",
        "##ile"
      ],
      [
        "pick",
        "##ed"
      ],
      [
        "##<",
        "##<"
      ],
      [
        "##t",
        "##hing"
      ],
      [
        "##i",
        "##ed"
      ],
      [
        "a",
        "##fter"
      ],
      [
        "wal",
        "##king"
      ],
      [
        "##im",
        "##b"
      ],
      [
        "b",
        "##ed"
      ],
      [
        "a",
        "##pp"
      ],
      [
        "##ou",
        "##nt"
      ],
      [
        "cl",
        "##imb"
      ],
      [
        "##is",
        "##s"
      ],
      [
        "€",
        "##™"
      ],
      [
        "g",
        "##i"
      ],
      [
        "##k",
        "##s"
      ],
      [
        "##t",
        "##ure"
      ],
      [
        "smil",
        "##e"
      ],
      [
        "##ic",
        "##ed"
      ],
      [
        "##i",
        "##ous"
      ],
      [
        "##d",
        "##ay"
      ],
      [
        "t",
        "##ra"
      ],
      [
        "p",
        "##u"
      ],
      [
        "S",
        "##p"
      ],
      [
        "advent",
        "##ure"
      ],
      [
        "f",
        "##ood"
      ],
      [
        "w",
        "##r"
      ],
      [
        "di",
        "##ff"
      ],
      [
        "loo",
        "##king"
      ],
      [
        "do",
        "##es"
      ],
      [
        "be",
        "##ing"
      ],
      [
        "d",
        "##el"
      ],
      [
        "##j",
        "##oy"
      ],
      [
        "g",
        "##ive"
      ],
      [
        "##re",
        "##am"
      ],
      [
        "f",
        "##ish"
      ],
      [
        "##ug",
        "##ht"
      ],
      [
        "tr",
        "##uck"
      ],
      [
        "bl",
        "##ue"
      ],
      [
        "d",
        "##is"
      ],
      [
        "pic",
        "##ture"
      ],
      [
        "sto",
        "##pped"
      ],
      [
        "no",
        "##dded"
      ],
      [
        "##p",
        "##er"
      ],
      [
        "##em",
        "##ber"
      ],
      [
        "a",
        "##c"
      ],
      [
        "wa",
        "##it"
      ],
      [
        "me",
        "##an"
      ],
      [
        "ey",
        "##es"
      ],
      [
        "e",
        "##ver"
      ],
      [
        "en",
        "##joy"
      ],
      [
        "not",
        "##iced"
      ],
      [
        "g",
        "##reat"
      ],
      [
        "o",
        "##wn"
      ],
      [
        "qu",
        "##ick"
      ],
      [
        "r",
        "##ain"
      ],
      [
        "##ma",
        "##z"
      ],
      [
        "to",
        "##w"
      ],
      [
        "th",
        "##ree"
      ],
      [
        "I",
        "##n"
      ],
      [
        "f",
        "##irst"
      ],
      [
        "##iz",
        "##ed"
      ],
      [
        "a",
        "##maz"
      ],
      [
        "j",
        "##o"
      ],
      [
        "st",
        "##ore"
      ],
      [
        "flow",
        "##ers"
      ],
      [
        "##ay",
        "##be"
      ],
      [
        "rem",
        "##ember"
      ],
      [
        "v",
        "##o"
      ],
      [
        "a",
        "##m"
      ],
      [
        "re",
        "##pl"
      ],
      [
        "br",
        "##o"
      ],
      [
        "th",
        "##ink"
      ],
      [
        "list",
        "##en"
      ],
      [
        "every",
        "##one"
      ],
      [
        "##b",
        "##it"
      ],
      [
        "fore",
        "##st"
      ],
      [
        "##g",
        "##an"
      ],
      [
        "s",
        "##qu"
      ],
      [
        "wor",
        "##k"
      ],
      [
        "g",
        "##re"
      ],
      [
        "##on",
        "##s"
      ],
      [
        "hand",
        "##s"
      ],
      [
        "##ab",
        "##bit"
      ],
      [
        "imp",
        "##ort"
      ],
      [
        "ne",
        "##ar"
      ],
      [
        "diff",
        "##er"
      ],
      [
        "show",
        "##ed"
      ],
      [
        "m",
        "##on"
      ],
      [
        "##a",
        "##c"
      ],
      [
        "##an",
        "##ce"
      ],
      [
        "wat",
        "##ch"
      ],
      [
        "str",
        "##ong"
      ],
      [
        "Su",
        "##e"
      ],
      [
        "##ll",
        "##ow"
      ],
      [
        "##b",
        "##le"
      ],
      [
        "wo",
        "##nder"
      ],
      [
        "sl",
        "##ide"
      ],
      [
        "br",
        "##ight"
      ],
      [
        "r",
        "##abbit"
      ],
      [
        "Sp",
        "##ot"
      ],
      [
        "u",
        "##se"
      ],
      [
        "import",
        "##ant"
      ],
      [
        "he",
        "##ad"
      ],
      [
        "##bb",
        "##ed"
      ],
      [
        "D",
        "##o"
      ],
      [
        "ch",
        "##ild"
      ],
      [
        "##ang",
        "##e"
      ],
      [
        "##c",
        "##o"
      ],
      [
        "Th",
        "##is"
      ],
      [
        "st",
        "##ick"
      ],
      [
        "quick",
        "##ly"
      ],
      [
        "r",
        "##ight"
      ],
      [
        "wat",
        "##ched"
      ],
      [
        "The",
        "##re"
      ],
      [
        "##e",
        "##y"
      ],
      [
        "J",
        "##ane"
      ],
      [
        "t",
        "##al"
      ],
      [
        "c",
        "##ook"
      ],
      [
        "m",
        "##or"
      ],
      [
        "be",
        "##en"
      ],
      [
        "##by",
        "##e"
      ],
      [
        "s",
        "##ound"
      ],
      [
        "w",
        "##here"
      ],
      [
        "s",
        "##ure"
      ],
      [
        "repl",
        "##ied"
      ],
      [
        "pl",
        "##ace"
      ],
      [
        "bo",
        "##at"
      ],
      [
        "dre",
        "##ss"
      ],
      [
        "fo",
        "##llow"
      ],
      [
        "to",
        "##u"
      ],
      [
        "y",
        "##ell"
      ],
      [
        "Sara",
        "##h"
      ],
      [
        "bec",
        "##ame"
      ],
      [
        "o",
        "##kay"
      ],
      [
        "##s",
        "##h"
      ],
      [
        "differ",
        "##ent"
      ],
      [
        "h",
        "##igh"
      ],
      [
        "good",
        "##bye"
      ],
      [
        "t",
        "##ea"
      ],
      [
        "##le",
        "##ase"
      ],
      [
        "m",
        "##ag"
      ],
      [
        "##an",
        "##c"
      ],
      [
        "wal",
        "##k"
      ],
      [
        "con",
        "##t"
      ],
      [
        "n",
        "##ight"
      ],
      [
        "fa",
        "##ce"
      ],
      [
        "clos",
        "##er"
      ],
      [
        "##ll",
        "##y"
      ],
      [
        "war",
        "##m"
      ],
      [
        "L",
        "##ook"
      ],
      [
        "year",
        "##s"
      ],
      [
        "cu",
        "##ri"
      ],
      [
        "to",
        "##t"
      ],
      [
        "vo",
        "##ice"
      ],
      [
        "tot",
        "##al"
      ],
      [
        "##ir",
        "##ed"
      ],
      [
        "p",
        "##ain"
      ],
      [
        "##le",
        "##ep"
      ],
      [
        "Every",
        "##one"
      ],
      [
        "for",
        "##g"
      ],
      [
        "##a",
        "##ched"
      ],
      [
        "be",
        "##l"
      ],
      [
        "h",
        "##op"
      ],
      [
        "c",
        "##ake"
      ],
      [
        "o",
        "##ur"
      ],
      [
        "on",
        "##ly"
      ],
      [
        "t",
        "##ell"
      ],
      [
        "b",
        "##us"
      ],
      [
        "##er",
        "##ed"
      ],
      [
        "curi",
        "##ous"
      ],
      [
        "##it",
        "##c"
      ],
      [
        "##or",
        "##n"
      ],
      [
        "op",
        "##en"
      ],
      [
        "fa",
        "##v"
      ],
      [
        "##m",
        "##ore"
      ],
      [
        "any",
        "##more"
      ],
      [
        "but",
        "##ter"
      ],
      [
        "##nd",
        "##ma"
      ],
      [
        "b",
        "##re"
      ],
      [
        "M",
        "##aybe"
      ],
      [
        "d",
        "##r"
      ],
      [
        "br",
        "##other"
      ],
      [
        "gra",
        "##bbed"
      ],
      [
        "sh",
        "##ar"
      ],
      [
        "t",
        "##ri"
      ],
      [
        "bu",
        "##y"
      ],
      [
        "k",
        "##id"
      ],
      [
        "##one",
        "##y"
      ],
      [
        "sa",
        "##nd"
      ],
      [
        "H",
        "##ow"
      ],
      [
        "bird",
        "##s"
      ],
      [
        "##ll",
        "##o"
      ],
      [
        "at",
        "##e"
      ],
      [
        "b",
        "##it"
      ],
      [
        "bl",
        "##ock"
      ],
      [
        "p",
        "##ull"
      ],
      [
        "fl",
        "##o"
      ],
      [
        "##re",
        "##nt"
      ],
      [
        "##at",
        "##h"
      ],
      [
        "help",
        "##ed"
      ],
      [
        "sw",
        "##eet"
      ],
      [
        "c",
        "##ra"
      ],
      [
        "##ar",
        "##y"
      ],
      [
        "r",
        "##est"
      ],
      [
        "fe",
        "##ll"
      ],
      [
        "##il",
        "##a"
      ],
      [
        "##un",
        "##ny"
      ],
      [
        "jump",
        "##ed"
      ],
      [
        "l",
        "##ess"
      ],
      [
        "gra",
        "##ss"
      ],
      [
        "s",
        "##ing"
      ],
      [
        "##is",
        "##y"
      ],
      [
        "c",
        "##r"
      ],
      [
        "happ",
        "##ened"
      ],
      [
        "##itc",
        "##hen"
      ],
      [
        "##pp",
        "##y"
      ],
      [
        "k",
        "##itchen"
      ],
      [
        "le",
        "##ft"
      ],
      [
        "##in",
        "##s"
      ],
      [
        "thr",
        "##ough"
      ],
      [
        "fi",
        "##re"
      ],
      [
        "n",
        "##um"
      ],
      [
        "g",
        "##ame"
      ],
      [
        "re",
        "##ached"
      ],
      [
        "her",
        "##e"
      ],
      [
        "st",
        "##op"
      ],
      [
        "L",
        "##ila"
      ],
      [
        "real",
        "##ized"
      ],
      [
        "gl",
        "##ad"
      ],
      [
        "D",
        "##on"
      ],
      [
        "##at",
        "##er"
      ],
      [
        "stor",
        "##y"
      ],
      [
        "ha",
        "##ving"
      ],
      [
        "us",
        "##ed"
      ],
      [
        "m",
        "##in"
      ],
      [
        "##at",
        "##her"
      ],
      [
        "f",
        "##ill"
      ],
      [
        "pa",
        "##rent"
      ],
      [
        "##l",
        "##f"
      ],
      [
        "be",
        "##h"
      ],
      [
        "he",
        "##ar"
      ],
      [
        "y",
        "##ummy"
      ],
      [
        "##ull",
        "##y"
      ],
      [
        "##z",
        "##y"
      ],
      [
        "##ard",
        "##s"
      ],
      [
        "se",
        "##es"
      ],
      [
        "re",
        "##ady"
      ],
      [
        "be",
        "##gan"
      ],
      [
        "##ou",
        "##ted"
      ],
      [
        "m",
        "##um"
      ],
      [
        "pr",
        "##in"
      ],
      [
        "##w",
        "##here"
      ],
      [
        "re",
        "##ally"
      ],
      [
        "h",
        "##our"
      ],
      [
        "m",
        "##ess"
      ],
      [
        "him",
        "##self"
      ],
      [
        "b",
        "##ag"
      ],
      [
        "dra",
        "##w"
      ],
      [
        "Jo",
        "##e"
      ],
      [
        "so",
        "##ft"
      ],
      [
        "##re",
        "##n"
      ],
      [
        "ma",
        "##king"
      ],
      [
        "F",
        "##in"
      ],
      [
        "c",
        "##ut"
      ],
      [
        "##f",
        "##ully"
      ],
      [
        "wor",
        "##ld"
      ],
      [
        "##at",
        "##ion"
      ],
      [
        "##k",
        "##en"
      ],
      [
        "sh",
        "##outed"
      ],
      [
        "##o",
        "##on"
      ],
      [
        "mag",
        "##ic"
      ],
      [
        "t",
        "##ired"
      ],
      [
        "st",
        "##u"
      ],
      [
        "re",
        "##ad"
      ],
      [
        "fav",
        "##or"
      ],
      [
        "##im",
        "##es"
      ],
      [
        "l",
        "##ady"
      ],
      [
        "##st",
        "##er"
      ],
      [
        "N",
        "##ow"
      ],
      [
        "d",
        "##one"
      ],
      [
        "kid",
        "##s"
      ],
      [
        "under",
        "##st"
      ],
      [
        "cl",
        "##a"
      ],
      [
        "h",
        "##at"
      ],
      [
        "##a",
        "##ir"
      ],
      [
        "favor",
        "##ite"
      ],
      [
        "th",
        "##ing"
      ],
      [
        "car",
        "##s"
      ],
      [
        "lear",
        "##n"
      ],
      [
        "se",
        "##en"
      ],
      [
        "Tom",
        "##my"
      ],
      [
        "an",
        "##other"
      ],
      [
        "d",
        "##uck"
      ],
      [
        "I",
        "##f"
      ],
      [
        "fi",
        "##x"
      ],
      [
        "##i",
        "##ver"
      ],
      [
        "wa",
        "##ved"
      ],
      [
        "##o",
        "##lly"
      ],
      [
        "S",
        "##ally"
      ],
      [
        "##m",
        "##er"
      ],
      [
        "##i",
        "##ent"
      ],
      [
        "parent",
        "##s"
      ],
      [
        "##b",
        "##o"
      ],
      [
        "com",
        "##ing"
      ],
      [
        "po",
        "##nd"
      ],
      [
        "to",
        "##p"
      ],
      [
        "butter",
        "##f"
      ],
      [
        "cat",
        "##ch"
      ],
      [
        "f",
        "##ull"
      ],
      [
        "sh",
        "##o"
      ],
      [
        "c",
        "##reat"
      ],
      [
        "flow",
        "##er"
      ],
      [
        "ta",
        "##st"
      ],
      [
        "per",
        "##f"
      ],
      [
        "del",
        "##ic"
      ],
      [
        "b",
        "##unny"
      ],
      [
        "##a",
        "##k"
      ],
      [
        "tre",
        "##es"
      ],
      [
        "d",
        "##ri"
      ],
      [
        "wor",
        "##ry"
      ],
      [
        "wh",
        "##y"
      ],
      [
        "sw",
        "##im"
      ],
      [
        "p",
        "##rom"
      ],
      [
        "##en",
        "##s"
      ],
      [
        "fun",
        "##ny"
      ],
      [
        "s",
        "##et"
      ],
      [
        "gre",
        "##en"
      ],
      [
        "m",
        "##ouse"
      ],
      [
        "nam",
        "##e"
      ],
      [
        "num",
        "##ber"
      ],
      [
        "A",
        "##t"
      ],
      [
        "##re",
        "##l"
      ],
      [
        "##i",
        "##ch"
      ],
      [
        "p",
        "##ar"
      ],
      [
        "wor",
        "##ked"
      ],
      [
        "f",
        "##ro"
      ],
      [
        "l",
        "##ight"
      ],
      [
        "pret",
        "##end"
      ],
      [
        "tur",
        "##n"
      ],
      [
        "c",
        "##ool"
      ],
      [
        "p",
        "##us"
      ],
      [
        "tou",
        "##ch"
      ],
      [
        "r",
        "##u"
      ],
      [
        "book",
        "##s"
      ],
      [
        "d",
        "##ro"
      ],
      [
        "d",
        "##in"
      ],
      [
        "##a",
        "##isy"
      ],
      [
        "##ab",
        "##y"
      ],
      [
        "sp",
        "##ot"
      ],
      [
        "ho",
        "##ld"
      ],
      [
        "##ed",
        "##dy"
      ],
      [
        "##el",
        "##y"
      ],
      [
        "flo",
        "##or"
      ],
      [
        "E",
        "##m"
      ],
      [
        "ha",
        "##ir"
      ],
      [
        "surpr",
        "##ise"
      ],
      [
        "look",
        "##s"
      ],
      [
        "t",
        "##all"
      ],
      [
        "need",
        "##ed"
      ],
      [
        "run",
        "##ning"
      ],
      [
        "yell",
        "##ow"
      ],
      [
        "c",
        "##ried"
      ],
      [
        "w",
        "##ood"
      ],
      [
        "W",
        "##ow"
      ],
      [
        "ho",
        "##pped"
      ],
      [
        "##i",
        "##ke"
      ],
      [
        "sm",
        "##ell"
      ],
      [
        "s",
        "##leep"
      ],
      [
        "remember",
        "##ed"
      ],
      [
        "b",
        "##ow"
      ],
      [
        "##u",
        "##ed"
      ],
      [
        "##in",
        "##ed"
      ],
      [
        "pa",
        "##per"
      ],
      [
        "sl",
        "##ow"
      ],
      [
        "w",
        "##ear"
      ],
      [
        "wind",
        "##ow"
      ],
      [
        "block",
        "##s"
      ],
      [
        "B",
        "##illy"
      ],
      [
        "##ss",
        "##ed"
      ],
      [
        "beh",
        "##ind"
      ],
      [
        "d",
        "##ark"
      ],
      [
        "Ben",
        "##ny"
      ],
      [
        "less",
        "##on"
      ],
      [
        "happ",
        "##ily"
      ],
      [
        "s",
        "##at"
      ],
      [
        "J",
        "##im"
      ],
      [
        "lo",
        "##st"
      ],
      [
        "fin",
        "##ished"
      ],
      [
        "care",
        "##fully"
      ],
      [
        "do",
        "##ing"
      ],
      [
        "\"",
        "##."
      ],
      [
        "child",
        "##ren"
      ],
      [
        "ca",
        "##nd"
      ],
      [
        "e",
        "##ar"
      ],
      [
        "min",
        "##ut"
      ],
      [
        "ho",
        "##le"
      ],
      [
        "i",
        "##ce"
      ],
      [
        "s",
        "##ec"
      ],
      [
        "co",
        "##ld"
      ],
      [
        "a",
        "##ir"
      ],
      [
        "w",
        "##ished"
      ],
      [
        "surpr",
        "##ised"
      ],
      [
        "Fin",
        "##ally"
      ],
      [
        "mo",
        "##ve"
      ],
      [
        "##t",
        "##s"
      ],
      [
        "he",
        "##ld"
      ],
      [
        "enjoy",
        "##ed"
      ],
      [
        "butterf",
        "##ly"
      ],
      [
        "D",
        "##aisy"
      ],
      [
        "ar",
        "##ri"
      ],
      [
        "st",
        "##e"
      ],
      [
        "m",
        "##ar"
      ],
      [
        "ab",
        "##le"
      ],
      [
        "any",
        "##thing"
      ],
      [
        "dre",
        "##am"
      ],
      [
        "laug",
        "##h"
      ],
      [
        "than",
        "##k"
      ],
      [
        "p",
        "##i"
      ],
      [
        "##g",
        "##er"
      ],
      [
        "fro",
        "##g"
      ],
      [
        "bu",
        "##ild"
      ],
      [
        "po",
        "##in"
      ],
      [
        "her",
        "##self"
      ],
      [
        "##ie",
        "##ld"
      ],
      [
        "##en",
        "##ce"
      ],
      [
        "sw",
        "##ing"
      ],
      [
        "li",
        "##kes"
      ],
      [
        "T",
        "##o"
      ],
      [
        "r",
        "##el"
      ],
      [
        "##a",
        "##ught"
      ],
      [
        "fa",
        "##ir"
      ],
      [
        "delic",
        "##ious"
      ],
      [
        "J",
        "##en"
      ],
      [
        "M",
        "##olly"
      ],
      [
        "##ot",
        "##t"
      ],
      [
        "h",
        "##ot"
      ],
      [
        "h",
        "##ill"
      ],
      [
        "wr",
        "##ong"
      ],
      [
        "##c",
        "##ess"
      ],
      [
        "follow",
        "##ed"
      ],
      [
        "c",
        "##ream"
      ],
      [
        "cont",
        "##in"
      ],
      [
        "want",
        "##s"
      ],
      [
        "h",
        "##un"
      ],
      [
        "##re",
        "##ed"
      ],
      [
        "b",
        "##aby"
      ],
      [
        "G",
        "##ra"
      ],
      [
        "##o",
        "##s"
      ],
      [
        "clo",
        "##se"
      ],
      [
        "fill",
        "##ed"
      ],
      [
        "h",
        "##id"
      ],
      [
        "##n",
        "##er"
      ],
      [
        "##d",
        "##s"
      ],
      [
        "friend",
        "##ly"
      ],
      [
        "m",
        "##oney"
      ],
      [
        "arri",
        "##ved"
      ],
      [
        "b",
        "##ar"
      ],
      [
        "ca",
        "##st"
      ],
      [
        "co",
        "##st"
      ],
      [
        "$",
        "##<<"
      ],
      [
        "##re",
        "##t"
      ],
      [
        "m",
        "##at"
      ],
      [
        "r",
        "##es"
      ],
      [
        "d",
        "##ir"
      ],
      [
        "wonder",
        "##ful"
      ],
      [
        "sn",
        "##ow"
      ],
      [
        "ar",
        "##m"
      ],
      [
        "##ro",
        "##om"
      ],
      [
        "l",
        "##l"
      ],
      [
        "lea",
        "##ves"
      ],
      [
        "g",
        "##one"
      ],
      [
        "b",
        "##ug"
      ],
      [
        "t",
        "##ight"
      ],
      [
        "m",
        "##ight"
      ],
      [
        "underst",
        "##and"
      ],
      [
        "##a",
        "##v"
      ],
      [
        "y",
        "##es"
      ],
      [
        "e",
        "##l"
      ],
      [
        "cook",
        "##ies"
      ],
      [
        "s",
        "##ong"
      ],
      [
        "g",
        "##u"
      ],
      [
        "c",
        "##ount"
      ],
      [
        "wa",
        "##ll"
      ],
      [
        "##et",
        "##s"
      ],
      [
        "##ri",
        "##es"
      ],
      [
        "en",
        "##ough"
      ],
      [
        "##ro",
        "##ss"
      ],
      [
        "f",
        "##ur"
      ],
      [
        "t",
        "##able"
      ],
      [
        "el",
        "##se"
      ],
      [
        "color",
        "##s"
      ],
      [
        "##ang",
        "##er"
      ],
      [
        "p",
        "##at"
      ],
      [
        "mor",
        "##ning"
      ],
      [
        "g",
        "##ent"
      ],
      [
        "##ir",
        "##rel"
      ],
      [
        "m",
        "##et"
      ],
      [
        "A",
        "##my"
      ],
      [
        "p",
        "##lease"
      ],
      [
        "v",
        "##is"
      ],
      [
        "contin",
        "##ued"
      ],
      [
        "##ou",
        "##p"
      ],
      [
        "bro",
        "##ken"
      ],
      [
        "He",
        "##llo"
      ],
      [
        "stay",
        "##ed"
      ],
      [
        "fe",
        "##w"
      ],
      [
        "some",
        "##one"
      ],
      [
        "fin",
        "##ally"
      ],
      [
        "s",
        "##ig"
      ],
      [
        "w",
        "##ee"
      ],
      [
        "li",
        "##on"
      ],
      [
        "hour",
        "##s"
      ],
      [
        "##g",
        "##s"
      ],
      [
        "get",
        "##ting"
      ],
      [
        "squ",
        "##irrel"
      ],
      [
        "ma",
        "##kes"
      ],
      [
        "ag",
        "##reed"
      ],
      [
        "pl",
        "##an"
      ],
      [
        "J",
        "##ill"
      ],
      [
        "p",
        "##ink"
      ],
      [
        "##n",
        "##g"
      ],
      [
        "m",
        "##other"
      ],
      [
        "##u",
        "##ff"
      ],
      [
        "amaz",
        "##ing"
      ],
      [
        "j",
        "##u"
      ],
      [
        "cu",
        "##p"
      ],
      [
        "##as",
        "##k"
      ],
      [
        "scar",
        "##y"
      ],
      [
        "forg",
        "##ot"
      ],
      [
        "##ec",
        "##es"
      ],
      [
        "m",
        "##il"
      ],
      [
        "wh",
        "##ite"
      ],
      [
        "perf",
        "##ect"
      ],
      [
        "pi",
        "##eces"
      ],
      [
        "##r",
        "##ow"
      ],
      [
        "try",
        "##ing"
      ],
      [
        "mom",
        "##ent"
      ],
      [
        "minut",
        "##es"
      ],
      [
        "##r",
        "##ot"
      ],
      [
        "din",
        "##ner"
      ],
      [
        "##r",
        "##ed"
      ],
      [
        "cast",
        "##le"
      ],
      [
        "##am",
        "##es"
      ],
      [
        "ro",
        "##ll"
      ],
      [
        "gra",
        "##ndma"
      ],
      [
        "##am",
        "##p"
      ],
      [
        "##is",
        "##ter"
      ],
      [
        "be",
        "##ach"
      ],
      [
        "br",
        "##ought"
      ],
      [
        "pu",
        "##ppy"
      ],
      [
        "##o",
        "##om"
      ],
      [
        "tur",
        "##ned"
      ],
      [
        "sp",
        "##l"
      ],
      [
        "cl",
        "##ot"
      ],
      [
        "sa",
        "##il"
      ],
      [
        "mu",
        "##s"
      ],
      [
        "##d",
        "##er"
      ],
      [
        "other",
        "##s"
      ],
      [
        "as",
        "##k"
      ],
      [
        "##at",
        "##ed"
      ],
      [
        "##o",
        "##nd"
      ],
      [
        "##am",
        "##a"
      ],
      [
        "hun",
        "##gry"
      ],
      [
        "picture",
        "##s"
      ],
      [
        "##m",
        "##an"
      ],
      [
        "f",
        "##ight"
      ],
      [
        "was",
        "##n"
      ],
      [
        "Wh",
        "##y"
      ],
      [
        "climb",
        "##ed"
      ],
      [
        "##a",
        "##st"
      ],
      [
        "##g",
        "##on"
      ],
      [
        "w",
        "##et"
      ],
      [
        "somet",
        "##imes"
      ],
      [
        "j",
        "##oy"
      ],
      [
        "##or",
        "##ing"
      ],
      [
        "dad",
        "##dy"
      ],
      [
        "f",
        "##all"
      ],
      [
        "str",
        "##ange"
      ],
      [
        "clot",
        "##hes"
      ],
      [
        "##uff",
        "##y"
      ],
      [
        "O",
        "##K"
      ],
      [
        "##et",
        "##er"
      ],
      [
        "list",
        "##ened"
      ],
      [
        "##l",
        "##ing"
      ],
      [
        "##pp",
        "##ing"
      ],
      [
        "##re",
        "##w"
      ],
      [
        "every",
        "##thing"
      ],
      [
        "p",
        "##en"
      ],
      [
        "A",
        "##ll"
      ],
      [
        "sp",
        "##ark"
      ],
      [
        "##e",
        "##ver"
      ],
      [
        "r",
        "##ide"
      ],
      [
        "p",
        "##ie"
      ],
      [
        "bre",
        "##ak"
      ],
      [
        "b",
        "##ott"
      ],
      [
        "m",
        "##iss"
      ],
      [
        "s",
        "##ear"
      ],
      [
        "=",
        "##<<"
      ],
      [
        "d",
        "##anc"
      ],
      [
        "##or",
        "##m"
      ],
      [
        "gr",
        "##ow"
      ],
      [
        "##ct",
        "##or"
      ],
      [
        "day",
        "##s"
      ],
      [
        "##uck",
        "##y"
      ],
      [
        "So",
        "##on"
      ],
      [
        "##ow",
        "##er"
      ],
      [
        "po",
        "##l"
      ],
      [
        "vis",
        "##it"
      ],
      [
        "d",
        "##eep"
      ],
      [
        "w",
        "##on"
      ],
      [
        "amaz",
        "##ed"
      ],
      [
        "ta",
        "##il"
      ],
      [
        "##i",
        "##x"
      ],
      [
        "wood",
        "##s"
      ],
      [
        "smil",
        "##es"
      ],
      [
        "s",
        "##it"
      ],
      [
        "s",
        "##ide"
      ],
      [
        "##ke",
        "##y"
      ],
      [
        "t",
        "##reat"
      ],
      [
        "com",
        "##p"
      ],
      [
        "##s",
        "##p"
      ],
      [
        "al",
        "##one"
      ],
      [
        "o",
        "##w"
      ],
      [
        "wa",
        "##ited"
      ],
      [
        "tal",
        "##k"
      ],
      [
        "l",
        "##ake"
      ],
      [
        "##m",
        "##e"
      ],
      [
        "co",
        "##ll"
      ],
      [
        "##o",
        "##l"
      ],
      [
        "s",
        "##ister"
      ],
      [
        "S",
        "##t"
      ],
      [
        "mus",
        "##ic"
      ],
      [
        "##el",
        "##c"
      ],
      [
        "##op",
        "##e"
      ],
      [
        "ch",
        "##o"
      ],
      [
        "##z",
        "##z"
      ],
      [
        "lea",
        "##ve"
      ],
      [
        "M",
        "##r"
      ],
      [
        "f",
        "##ield"
      ],
      [
        "##ch",
        "##ool"
      ],
      [
        "la",
        "##nd"
      ],
      [
        "d",
        "##anger"
      ],
      [
        "pull",
        "##ed"
      ],
      [
        "##u",
        "##it"
      ],
      [
        "e",
        "##m"
      ],
      [
        "par",
        "##ty"
      ],
      [
        "##ain",
        "##ed"
      ],
      [
        "##p",
        "##h"
      ],
      [
        "s",
        "##ea"
      ],
      [
        "F",
        "##l"
      ],
      [
        "p",
        "##ack"
      ],
      [
        "cand",
        "##y"
      ],
      [
        "cl",
        "##oud"
      ],
      [
        "d",
        "##e"
      ],
      [
        "in",
        "##c"
      ],
      [
        "sa",
        "##me"
      ],
      [
        "s",
        "##illy"
      ],
      [
        "fly",
        "##ing"
      ],
      [
        "##m",
        "##ed"
      ],
      [
        "fo",
        "##x"
      ],
      [
        "##ug",
        "##g"
      ],
      [
        "s",
        "##chool"
      ],
      [
        "tow",
        "##ards"
      ],
      [
        "##as",
        "##ure"
      ],
      [
        "mu",
        "##st"
      ],
      [
        "p",
        "##et"
      ],
      [
        "##as",
        "##h"
      ],
      [
        "##un",
        "##ch"
      ],
      [
        "h",
        "##ide"
      ],
      [
        "C",
        "##ome"
      ],
      [
        "##th",
        "##y"
      ],
      [
        "shar",
        "##ed"
      ],
      [
        "##ent",
        "##s"
      ],
      [
        "r",
        "##ace"
      ],
      [
        "bel",
        "##ie"
      ],
      [
        "Dad",
        "##dy"
      ],
      [
        "prom",
        "##ised"
      ],
      [
        "##ig",
        "##g"
      ],
      [
        "##c",
        "##le"
      ],
      [
        "M",
        "##ama"
      ],
      [
        "run",
        "##s"
      ],
      [
        "t",
        "##eddy"
      ],
      [
        "p",
        "##ot"
      ],
      [
        "own",
        "##er"
      ],
      [
        "big",
        "##ger"
      ],
      [
        "##u",
        "##ally"
      ],
      [
        "##s",
        "##w"
      ],
      [
        "pl",
        "##ant"
      ],
      [
        "r",
        "##a"
      ],
      [
        "as",
        "##ks"
      ],
      [
        "an",
        "##sw"
      ],
      [
        "M",
        "##ary"
      ],
      [
        "j",
        "##ob"
      ],
      [
        "re",
        "##ach"
      ],
      [
        "##as",
        "##ed"
      ],
      [
        "e",
        "##le"
      ],
      [
        "bl",
        "##ank"
      ],
      [
        "sh",
        "##ap"
      ],
      [
        "slow",
        "##ly"
      ],
      [
        "##i",
        "##re"
      ],
      [
        "su",
        "##ch"
      ],
      [
        "##or",
        "##ed"
      ],
      [
        "wor",
        "##ried"
      ],
      [
        "##z",
        "##e"
      ],
      [
        "##is",
        "##es"
      ],
      [
        "O",
        "##h"
      ],
      [
        "##i",
        "##et"
      ],
      [
        "fast",
        "##er"
      ],
      [
        "tre",
        "##asure"
      ],
      [
        "n",
        "##ap"
      ],
      [
        "mor",
        "##al"
      ],
      [
        "d",
        "##ance"
      ],
      [
        "r",
        "##iver"
      ],
      [
        "magic",
        "##al"
      ],
      [
        "##av",
        "##y"
      ],
      [
        "li",
        "##ving"
      ],
      [
        "##ic",
        "##y"
      ],
      [
        "gr",
        "##ate"
      ],
      [
        "p",
        "##ea"
      ],
      [
        "mo",
        "##st"
      ],
      [
        "sn",
        "##ack"
      ],
      [
        "at",
        "##t"
      ],
      [
        "J",
        "##ust"
      ],
      [
        "color",
        "##ful"
      ],
      [
        "bl",
        "##ack"
      ],
      [
        "ac",
        "##c"
      ],
      [
        "think",
        "##s"
      ],
      [
        "grate",
        "##ful"
      ],
      [
        "qu",
        "##iet"
      ],
      [
        "fr",
        "##uit"
      ],
      [
        "pain",
        "##t"
      ],
      [
        "doll",
        "##s"
      ],
      [
        "b",
        "##ike"
      ],
      [
        "tra",
        "##in"
      ],
      [
        "far",
        "##mer"
      ],
      [
        "every",
        "##where"
      ],
      [
        "##us",
        "##ed"
      ],
      [
        "b",
        "##ought"
      ],
      [
        "w",
        "##in"
      ],
      [
        "##m",
        "##ing"
      ],
      [
        "jo",
        "##in"
      ],
      [
        "##a",
        "##pp"
      ],
      [
        "ac",
        "##ross"
      ],
      [
        "w",
        "##elc"
      ],
      [
        "##ck",
        "##et"
      ],
      [
        "car",
        "##rot"
      ],
      [
        "mon",
        "##ster"
      ],
      [
        "##ve",
        "##l"
      ],
      [
        "##ra",
        "##ct"
      ],
      [
        "##out",
        "##h"
      ],
      [
        "help",
        "##ing"
      ],
      [
        "Jim",
        "##my"
      ],
      [
        "star",
        "##t"
      ],
      [
        "##s",
        "##et"
      ],
      [
        "sp",
        "##r"
      ],
      [
        "wor",
        "##ds"
      ],
      [
        "p",
        "##ers"
      ],
      [
        "##m",
        "##ent"
      ],
      [
        "v",
        "##e"
      ],
      [
        "##ea",
        "##k"
      ],
      [
        "tea",
        "##c"
      ],
      [
        "O",
        "##kay"
      ],
      [
        "ste",
        "##pped"
      ],
      [
        "ta",
        "##kes"
      ],
      [
        "h",
        "##ig"
      ],
      [
        "bow",
        "##l"
      ],
      [
        "m",
        "##outh"
      ],
      [
        "S",
        "##ure"
      ],
      [
        "bro",
        "##ke"
      ],
      [
        "##l",
        "##ess"
      ],
      [
        "sm",
        "##art"
      ],
      [
        "##f",
        "##ort"
      ],
      [
        "prin",
        "##cess"
      ],
      [
        "he",
        "##al"
      ],
      [
        "would",
        "##n"
      ],
      [
        "be",
        "##e"
      ],
      [
        "##or",
        "##d"
      ],
      [
        "Em",
        "##ma"
      ],
      [
        "danger",
        "##ous"
      ],
      [
        "b",
        "##ask"
      ],
      [
        "sc",
        "##ream"
      ],
      [
        "m",
        "##ix"
      ],
      [
        "dis",
        "##app"
      ],
      [
        "M",
        "##um"
      ],
      [
        "##ear",
        "##ed"
      ],
      [
        "k",
        "##iss"
      ],
      [
        "he",
        "##avy"
      ],
      [
        "##or",
        "##s"
      ],
      [
        "g",
        "##ames"
      ],
      [
        "##b",
        "##r"
      ],
      [
        "cry",
        "##ing"
      ],
      [
        "b",
        "##uck"
      ],
      [
        "to",
        "##wn"
      ],
      [
        "do",
        "##ctor"
      ],
      [
        "belie",
        "##ve"
      ],
      [
        "##it",
        "##ing"
      ],
      [
        "b",
        "##ath"
      ],
      [
        "eat",
        "##ing"
      ],
      [
        "##ck",
        "##ed"
      ],
      [
        "ne",
        "##igh"
      ],
      [
        "dra",
        "##gon"
      ],
      [
        "clos",
        "##ed"
      ],
      [
        "##ion",
        "##s"
      ],
      [
        "##d",
        "##e"
      ],
      [
        "th",
        "##rew"
      ],
      [
        "but",
        "##t"
      ],
      [
        "##a",
        "##ss"
      ],
      [
        "neigh",
        "##b"
      ],
      [
        "##i",
        "##pped"
      ],
      [
        "wee",
        "##k"
      ],
      [
        "ball",
        "##oon"
      ],
      [
        "dir",
        "##ty"
      ],
      [
        "A",
        "##l"
      ],
      [
        "st",
        "##uck"
      ],
      [
        "teac",
        "##her"
      ],
      [
        "cr",
        "##ay"
      ],
      [
        "ch",
        "##air"
      ],
      [
        "##ow",
        "##s"
      ],
      [
        "fe",
        "##et"
      ],
      [
        "mon",
        "##key"
      ],
      [
        "st",
        "##and"
      ],
      [
        "b",
        "##ite"
      ],
      [
        "d",
        "##ist"
      ],
      [
        "to",
        "##day"
      ],
      [
        "f",
        "##ree"
      ],
      [
        "hig",
        "##her"
      ],
      [
        "bask",
        "##et"
      ],
      [
        "sig",
        "##n"
      ],
      [
        "pa",
        "##st"
      ],
      [
        "br",
        "##own"
      ],
      [
        "##i",
        "##er"
      ],
      [
        "##n",
        "##ey"
      ],
      [
        "blank",
        "##et"
      ],
      [
        "long",
        "##er"
      ],
      [
        "he",
        "##art"
      ],
      [
        "tw",
        "##ins"
      ],
      [
        "che",
        "##ered"
      ],
      [
        "Gra",
        "##ndma"
      ],
      [
        "tim",
        "##es"
      ],
      [
        "h",
        "##it"
      ],
      [
        "d",
        "##ry"
      ],
      [
        "with",
        "##out"
      ],
      [
        "T",
        "##w"
      ],
      [
        "e",
        "##g"
      ],
      [
        "In",
        "##side"
      ],
      [
        "dro",
        "##ve"
      ],
      [
        "##vent",
        "##ually"
      ],
      [
        "sho",
        "##es"
      ],
      [
        "c",
        "##our"
      ],
      [
        "##it",
        "##y"
      ],
      [
        "c",
        "##orn"
      ],
      [
        "tow",
        "##er"
      ],
      [
        "fair",
        "##y"
      ],
      [
        "##c",
        "##es"
      ],
      [
        "cla",
        "##pped"
      ],
      [
        "y",
        "##ard"
      ],
      [
        "##id",
        "##ent"
      ],
      [
        "su",
        "##ddenly"
      ],
      [
        "dr",
        "##ink"
      ],
      [
        "p",
        "##h"
      ],
      [
        "j",
        "##ar"
      ],
      [
        "sm",
        "##o"
      ],
      [
        "t",
        "##e"
      ],
      [
        "w",
        "##ings"
      ],
      [
        "wh",
        "##ich"
      ],
      [
        "gi",
        "##ft"
      ],
      [
        "in",
        "##st"
      ],
      [
        "P",
        "##lease"
      ],
      [
        "j",
        "##our"
      ],
      [
        "##or",
        "##row"
      ],
      [
        "f",
        "##ence"
      ],
      [
        "hop",
        "##ed"
      ],
      [
        "##e",
        "##ad"
      ],
      [
        "app",
        "##le"
      ],
      [
        "app",
        "##les"
      ],
      [
        "pus",
        "##hed"
      ],
      [
        "H",
        "##i"
      ],
      [
        "gent",
        "##le"
      ],
      [
        "pie",
        "##ce"
      ],
      [
        "Fl",
        "##uffy"
      ],
      [
        "al",
        "##ong"
      ],
      [
        "w",
        "##he"
      ],
      [
        "feel",
        "##s"
      ],
      [
        "cour",
        "##se"
      ],
      [
        "happ",
        "##en"
      ],
      [
        "br",
        "##ing"
      ],
      [
        "l",
        "##unch"
      ],
      [
        "for",
        "##get"
      ],
      [
        "##ount",
        "##ain"
      ],
      [
        "sh",
        "##op"
      ],
      [
        "l",
        "##on"
      ],
      [
        "p",
        "##ay"
      ],
      [
        "##p",
        "##e"
      ],
      [
        "sw",
        "##ings"
      ],
      [
        "##o",
        "##g"
      ],
      [
        "ca",
        "##ught"
      ],
      [
        "sp",
        "##ent"
      ],
      [
        "##co",
        "##l"
      ],
      [
        "s",
        "##ang"
      ],
      [
        "##w",
        "##ard"
      ],
      [
        "expl",
        "##ained"
      ],
      [
        "sing",
        "##ing"
      ],
      [
        "lon",
        "##ely"
      ],
      [
        "adventure",
        "##s"
      ],
      [
        "ta",
        "##king"
      ],
      [
        "ne",
        "##ck"
      ],
      [
        "welc",
        "##ome"
      ],
      [
        "pl",
        "##ac"
      ],
      [
        "to",
        "##m"
      ],
      [
        "##itt",
        "##ing"
      ],
      [
        "##s",
        "##c"
      ],
      [
        "r",
        "##ound"
      ],
      [
        "ow",
        "##l"
      ],
      [
        "sw",
        "##am"
      ],
      [
        "you",
        "##ng"
      ],
      [
        "mo",
        "##ved"
      ],
      [
        "##i",
        "##ble"
      ],
      [
        "star",
        "##s"
      ],
      [
        "##y",
        "##ard"
      ],
      [
        "up",
        "##set"
      ],
      [
        "##ph",
        "##ant"
      ],
      [
        "b",
        "##at"
      ],
      [
        "p",
        "##art"
      ],
      [
        "c",
        "##al"
      ],
      [
        "no",
        "##ises"
      ],
      [
        "stor",
        "##ies"
      ],
      [
        "Sam",
        "##my"
      ],
      [
        "sp",
        "##end"
      ],
      [
        "l",
        "##ate"
      ],
      [
        "back",
        "##yard"
      ],
      [
        "st",
        "##re"
      ],
      [
        "dro",
        "##pped"
      ],
      [
        "turn",
        "##s"
      ],
      [
        "or",
        "##ange"
      ],
      [
        "tr",
        "##ou"
      ],
      [
        "rock",
        "##s"
      ],
      [
        "##ou",
        "##n"
      ],
      [
        "ele",
        "##phant"
      ],
      [
        "##b",
        "##s"
      ],
      [
        "acc",
        "##ident"
      ],
      [
        "m",
        "##ark"
      ],
      [
        "œ",
        "##I"
      ],
      [
        "expl",
        "##oring"
      ],
      [
        "d",
        "##es"
      ],
      [
        "The",
        "##ir"
      ],
      [
        "p",
        "##ig"
      ],
      [
        "in",
        "##v"
      ],
      [
        "s",
        "##oup"
      ],
      [
        "ma",
        "##il"
      ],
      [
        "po",
        "##cket"
      ],
      [
        "far",
        "##m"
      ],
      [
        "##us",
        "##h"
      ],
      [
        "##o",
        "##se"
      ],
      [
        "see",
        "##med"
      ],
      [
        "t",
        "##iny"
      ],
      [
        "##f",
        "##used"
      ],
      [
        "R",
        "##e"
      ],
      [
        "ju",
        "##ice"
      ],
      [
        "bel",
        "##ong"
      ],
      [
        "n",
        "##aught"
      ],
      [
        "we",
        "##ll"
      ],
      [
        "sh",
        "##ook"
      ],
      [
        "naught",
        "##y"
      ],
      [
        "C",
        "##h"
      ],
      [
        "##b",
        "##all"
      ],
      [
        "w",
        "##ise"
      ],
      [
        "near",
        "##by"
      ],
      [
        "rel",
        "##ie"
      ],
      [
        "L",
        "##ater"
      ],
      [
        "##ock",
        "##ed"
      ],
      [
        "k",
        "##ey"
      ],
      [
        "##a",
        "##il"
      ],
      [
        "th",
        "##ough"
      ],
      [
        "hug",
        "##s"
      ],
      [
        "b",
        "##en"
      ],
      [
        "##in",
        "##ing"
      ],
      [
        "wo",
        "##ke"
      ],
      [
        "w",
        "##ish"
      ],
      [
        "need",
        "##s"
      ],
      [
        "p",
        "##urp"
      ],
      [
        "##ck",
        "##s"
      ],
      [
        "##el",
        "##s"
      ],
      [
        "in",
        "##ter"
      ],
      [
        "##aught",
        "##er"
      ],
      [
        "B",
        "##e"
      ],
      [
        "bus",
        "##y"
      ],
      [
        "##es",
        "##e"
      ],
      [
        "##c",
        "##y"
      ],
      [
        "W",
        "##ith"
      ],
      [
        "tri",
        "##p"
      ],
      [
        "c",
        "##ou"
      ],
      [
        "r",
        "##et"
      ],
      [
        "##ir",
        "##th"
      ],
      [
        "co",
        "##ver"
      ],
      [
        "stre",
        "##et"
      ],
      [
        "##g",
        "##n"
      ],
      [
        "sp",
        "##o"
      ],
      [
        "car",
        "##ry"
      ],
      [
        "##un",
        "##g"
      ],
      [
        "rain",
        "##b"
      ],
      [
        "##id",
        "##ge"
      ],
      [
        "purp",
        "##le"
      ],
      [
        "##irth",
        "##day"
      ],
      [
        "##p",
        "##t"
      ],
      [
        "he",
        "##llo"
      ],
      [
        "buck",
        "##et"
      ],
      [
        "sec",
        "##ret"
      ],
      [
        "hug",
        "##e"
      ],
      [
        "f",
        "##it"
      ],
      [
        "##an",
        "##ch"
      ],
      [
        "##ce",
        "##ful"
      ],
      [
        "##itt",
        "##ens"
      ],
      [
        "br",
        "##anch"
      ],
      [
        "arm",
        "##s"
      ],
      [
        "G",
        "##o"
      ],
      [
        "fore",
        "##ver"
      ],
      [
        "d",
        "##aughter"
      ],
      [
        "shap",
        "##es"
      ],
      [
        "ret",
        "##ur"
      ],
      [
        "##f",
        "##ish"
      ],
      [
        "##iz",
        "##z"
      ],
      [
        "l",
        "##etter"
      ],
      [
        "n",
        "##est"
      ],
      [
        "s",
        "##ick"
      ],
      [
        "res",
        "##p"
      ],
      [
        "a",
        "##f"
      ],
      [
        "##re",
        "##ad"
      ],
      [
        "pers",
        "##on"
      ],
      [
        "swim",
        "##ming"
      ],
      [
        "sec",
        "##ond"
      ],
      [
        "mil",
        "##k"
      ],
      [
        "c",
        "##ir"
      ],
      [
        "sand",
        "##w"
      ],
      [
        "no",
        "##se"
      ],
      [
        "li",
        "##fe"
      ],
      [
        "ha",
        "##lf"
      ],
      [
        "b",
        "##oun"
      ],
      [
        "##sh",
        "##ine"
      ],
      [
        "col",
        "##our"
      ],
      [
        "relie",
        "##ved"
      ],
      [
        "p",
        "##ri"
      ],
      [
        "##ch",
        "##ing"
      ],
      [
        "jour",
        "##ney"
      ],
      [
        "##ir",
        "##t"
      ],
      [
        "a",
        "##nt"
      ],
      [
        "gi",
        "##ves"
      ],
      [
        "wonder",
        "##ed"
      ],
      [
        "wh",
        "##ist"
      ],
      [
        "s",
        "##itting"
      ],
      [
        "M",
        "##y"
      ],
      [
        "e",
        "##nt"
      ],
      [
        "pat",
        "##ient"
      ],
      [
        "##o",
        "##st"
      ],
      [
        "b",
        "##irthday"
      ],
      [
        "##and",
        "##y"
      ],
      [
        "not",
        "##hing"
      ],
      [
        "cra",
        "##w"
      ],
      [
        "m",
        "##ine"
      ],
      [
        "##p",
        "##ed"
      ],
      [
        "##iz",
        "##e"
      ],
      [
        "pr",
        "##ob"
      ],
      [
        "exc",
        "##iting"
      ],
      [
        "b",
        "##and"
      ],
      [
        "she",
        "##ll"
      ],
      [
        "k",
        "##ite"
      ],
      [
        "##ul",
        "##t"
      ],
      [
        "sun",
        "##shine"
      ],
      [
        "la",
        "##st"
      ],
      [
        "bre",
        "##ad"
      ],
      [
        "co",
        "##at"
      ],
      [
        "dri",
        "##ver"
      ],
      [
        "Jen",
        "##ny"
      ],
      [
        "Tw",
        "##eet"
      ],
      [
        "##ra",
        "##id"
      ],
      [
        "m",
        "##ad"
      ],
      [
        "com",
        "##es"
      ],
      [
        "s",
        "##ell"
      ],
      [
        "af",
        "##raid"
      ],
      [
        "##er",
        "##t"
      ],
      [
        "dis",
        "##co"
      ],
      [
        "on",
        "##to"
      ],
      [
        "creat",
        "##ure"
      ],
      [
        "##op",
        "##h"
      ],
      [
        "##o",
        "##ve"
      ],
      [
        "bott",
        "##le"
      ],
      [
        "##it",
        "##ch"
      ],
      [
        "so",
        "##ld"
      ],
      [
        "accident",
        "##ally"
      ],
      [
        "thr",
        "##ow"
      ],
      [
        "E",
        "##ll"
      ],
      [
        "tou",
        "##ched"
      ],
      [
        "k",
        "##ing"
      ],
      [
        "##al",
        "##s"
      ],
      [
        "h",
        "##ar"
      ],
      [
        "che",
        "##ese"
      ],
      [
        "##itt",
        "##en"
      ],
      [
        "##u",
        "##nt"
      ],
      [
        "hold",
        "##ing"
      ],
      [
        "p",
        "##ower"
      ],
      [
        "w",
        "##om"
      ],
      [
        "laug",
        "##hing"
      ],
      [
        "##bo",
        "##ard"
      ],
      [
        "rainb",
        "##ow"
      ],
      [
        "inst",
        "##ead"
      ],
      [
        "w",
        "##ra"
      ],
      [
        "##le",
        "##m"
      ],
      [
        "cut",
        "##e"
      ],
      [
        "##n",
        "##ess"
      ],
      [
        "pre",
        "##s"
      ],
      [
        "h",
        "##or"
      ],
      [
        "c",
        "##e"
      ],
      [
        "sound",
        "##s"
      ],
      [
        "##s",
        "##y"
      ],
      [
        "ex",
        "##p"
      ],
      [
        "w",
        "##ide"
      ],
      [
        "ca",
        "##ve"
      ],
      [
        "a",
        "##dd"
      ],
      [
        "prob",
        "##lem"
      ],
      [
        "ro",
        "##ad"
      ],
      [
        "g",
        "##igg"
      ],
      [
        "f",
        "##ing"
      ],
      [
        "sun",
        "##ny"
      ],
      [
        "Em",
        "##ily"
      ],
      [
        "g",
        "##ather"
      ],
      [
        "watch",
        "##ing"
      ],
      [
        "ben",
        "##ch"
      ],
      [
        "co",
        "##zy"
      ],
      [
        "##a",
        "##ur"
      ],
      [
        "qu",
        "##est"
      ],
      [
        "coll",
        "##ect"
      ],
      [
        "O",
        "##f"
      ],
      [
        "##ad",
        "##ow"
      ],
      [
        "a",
        "##p"
      ],
      [
        "l",
        "##ater"
      ],
      [
        "m",
        "##ist"
      ],
      [
        "##ag",
        "##es"
      ],
      [
        "inter",
        "##est"
      ],
      [
        "p",
        "##op"
      ],
      [
        "p",
        "##ract"
      ],
      [
        "who",
        "##le"
      ],
      [
        "fo",
        "##ot"
      ],
      [
        "b",
        "##ur"
      ],
      [
        "cla",
        "##ss"
      ],
      [
        "poin",
        "##ted"
      ],
      [
        "sear",
        "##ched"
      ],
      [
        "l",
        "##ucky"
      ],
      [
        "s",
        "##er"
      ],
      [
        "##fort",
        "##able"
      ],
      [
        "smil",
        "##ing"
      ],
      [
        "prom",
        "##ise"
      ],
      [
        "e",
        "##as"
      ],
      [
        "##ar",
        "##ge"
      ],
      [
        "##u",
        "##b"
      ],
      [
        "stor",
        "##m"
      ],
      [
        "G",
        "##ood"
      ],
      [
        "pu",
        "##dd"
      ],
      [
        "k",
        "##ick"
      ],
      [
        "cray",
        "##ons"
      ],
      [
        "##b",
        "##led"
      ],
      [
        "any",
        "##one"
      ],
      [
        "##g",
        "##ged"
      ],
      [
        "stu",
        "##d"
      ],
      [
        "duck",
        "##s"
      ],
      [
        "wom",
        "##an"
      ],
      [
        "r",
        "##ope"
      ],
      [
        "tast",
        "##y"
      ],
      [
        "##is",
        "##a"
      ],
      [
        "sp",
        "##in"
      ],
      [
        "ro",
        "##ar"
      ],
      [
        "To",
        "##gether"
      ],
      [
        "##f",
        "##l"
      ],
      [
        "ad",
        "##m"
      ],
      [
        "sp",
        "##id"
      ],
      [
        "##ul",
        "##ar"
      ],
      [
        "tal",
        "##ked"
      ],
      [
        "sa",
        "##l"
      ],
      [
        "b",
        "##reat"
      ],
      [
        "##c",
        "##hes"
      ],
      [
        "b",
        "##a"
      ],
      [
        "pl",
        "##ane"
      ],
      [
        "##et",
        "##e"
      ],
      [
        "shar",
        "##p"
      ],
      [
        "s",
        "##uc"
      ],
      [
        "bus",
        "##h"
      ],
      [
        "heal",
        "##thy"
      ],
      [
        "S",
        "##omet"
      ],
      [
        "##i",
        "##pp"
      ],
      [
        "gra",
        "##nd"
      ],
      [
        "hop",
        "##e"
      ],
      [
        "a",
        "##ct"
      ],
      [
        "z",
        "##oom"
      ],
      [
        "im",
        "##ag"
      ],
      [
        "s",
        "##ur"
      ],
      [
        "butt",
        "##on"
      ],
      [
        "sh",
        "##ining"
      ],
      [
        "An",
        "##n"
      ],
      [
        "##ow",
        "##ed"
      ],
      [
        "##r",
        "##ound"
      ],
      [
        "##at",
        "##o"
      ],
      [
        "m",
        "##ach"
      ],
      [
        "##on",
        "##es"
      ],
      [
        "interest",
        "##ing"
      ],
      [
        "ch",
        "##ick"
      ],
      [
        "v",
        "##al"
      ],
      [
        "##a",
        "##le"
      ],
      [
        "##on",
        "##t"
      ],
      [
        "su",
        "##pp"
      ],
      [
        "cloud",
        "##s"
      ],
      [
        "h",
        "##oney"
      ],
      [
        "sa",
        "##f"
      ],
      [
        "##p",
        "##a"
      ],
      [
        "neighb",
        "##or"
      ],
      [
        "l",
        "##ay"
      ],
      [
        "##ear",
        "##s"
      ],
      [
        "love",
        "##ly"
      ],
      [
        "cho",
        "##col"
      ],
      [
        "He",
        "##y"
      ],
      [
        "t",
        "##ick"
      ],
      [
        "L",
        "##isa"
      ],
      [
        "re",
        "##c"
      ],
      [
        "me",
        "##et"
      ],
      [
        "cle",
        "##ver"
      ],
      [
        "put",
        "##s"
      ],
      [
        "pr",
        "##o"
      ],
      [
        "se",
        "##at"
      ],
      [
        "build",
        "##ing"
      ],
      [
        "pr",
        "##ot"
      ],
      [
        "or",
        "##gan"
      ],
      [
        "z",
        "##oo"
      ],
      [
        "sh",
        "##out"
      ],
      [
        "mat",
        "##ter"
      ],
      [
        "p",
        "##ill"
      ],
      [
        "trou",
        "##ble"
      ],
      [
        "smell",
        "##ed"
      ],
      [
        "com",
        "##pl"
      ],
      [
        "spot",
        "##ted"
      ],
      [
        "M",
        "##ittens"
      ],
      [
        "hor",
        "##se"
      ],
      [
        "v",
        "##ill"
      ],
      [
        "m",
        "##ed"
      ],
      [
        "p",
        "##izz"
      ],
      [
        "f",
        "##our"
      ],
      [
        "##e",
        "##b"
      ],
      [
        "M",
        "##ar"
      ],
      [
        "fr",
        "##ont"
      ],
      [
        "pa",
        "##ss"
      ],
      [
        "p",
        "##ile"
      ],
      [
        "go",
        "##es"
      ],
      [
        "J",
        "##ake"
      ],
      [
        "##oo",
        "##se"
      ],
      [
        "##ep",
        "##end"
      ],
      [
        "roll",
        "##ed"
      ],
      [
        "gi",
        "##ant"
      ],
      [
        "##ea",
        "##s"
      ],
      [
        "fe",
        "##ather"
      ],
      [
        "sp",
        "##oon"
      ],
      [
        "che",
        "##er"
      ],
      [
        "p",
        "##ath"
      ],
      [
        "pu",
        "##zz"
      ],
      [
        "##ce",
        "##an"
      ],
      [
        "app",
        "##eared"
      ],
      [
        "##l",
        "##a"
      ],
      [
        "h",
        "##on"
      ],
      [
        "o",
        "##cean"
      ],
      [
        "sh",
        "##r"
      ],
      [
        "tast",
        "##ed"
      ],
      [
        "disco",
        "##ver"
      ],
      [
        "mil",
        "##es"
      ],
      [
        "##le",
        "##x"
      ],
      [
        "lo",
        "##ves"
      ],
      [
        "answ",
        "##er"
      ],
      [
        "st",
        "##ra"
      ],
      [
        "m",
        "##eas"
      ],
      [
        "danc",
        "##ed"
      ],
      [
        "b",
        "##an"
      ],
      [
        "t",
        "##un"
      ],
      [
        "l",
        "##arge"
      ],
      [
        "th",
        "##in"
      ],
      [
        "##f",
        "##ted"
      ],
      [
        "snow",
        "##man"
      ],
      [
        "wear",
        "##ing"
      ],
      [
        "##am",
        "##ed"
      ],
      [
        "e",
        "##ag"
      ],
      [
        "c",
        "##ard"
      ],
      [
        "##er",
        "##ly"
      ],
      [
        "fin",
        "##ish"
      ],
      [
        "##a",
        "##kes"
      ],
      [
        "plac",
        "##es"
      ],
      [
        "o",
        "##b"
      ],
      [
        "ph",
        "##one"
      ],
      [
        "wr",
        "##ite"
      ],
      [
        "as",
        "##leep"
      ],
      [
        "##n",
        "##ic"
      ],
      [
        "p",
        "##ool"
      ],
      [
        "P",
        "##eter"
      ],
      [
        "w",
        "##ild"
      ],
      [
        "mu",
        "##d"
      ],
      [
        "dri",
        "##ve"
      ],
      [
        "sn",
        "##ake"
      ],
      [
        "imp",
        "##re"
      ],
      [
        "pic",
        "##nic"
      ],
      [
        "##b",
        "##ar"
      ],
      [
        "m",
        "##ountain"
      ],
      [
        "##d",
        "##ge"
      ],
      [
        "œ",
        "##W"
      ],
      [
        "l",
        "##ad"
      ],
      [
        "chocol",
        "##ate"
      ],
      [
        "##itt",
        "##y"
      ],
      [
        "sa",
        "##ck"
      ],
      [
        "corn",
        "##er"
      ],
      [
        "m",
        "##ind"
      ],
      [
        "c",
        "##ow"
      ],
      [
        "cook",
        "##ie"
      ],
      [
        "ban",
        "##an"
      ],
      [
        "wor",
        "##m"
      ],
      [
        "sl",
        "##id"
      ],
      [
        "bu",
        "##bb"
      ],
      [
        "scream",
        "##ed"
      ],
      [
        "spl",
        "##as"
      ],
      [
        "li",
        "##ve"
      ],
      [
        "ro",
        "##b"
      ],
      [
        "sa",
        "##ve"
      ],
      [
        "o",
        "##ven"
      ],
      [
        "dir",
        "##t"
      ],
      [
        "W",
        "##here"
      ],
      [
        "spid",
        "##er"
      ],
      [
        "Somet",
        "##imes"
      ],
      [
        "get",
        "##s"
      ],
      [
        "B",
        "##u"
      ],
      [
        "b",
        "##ark"
      ],
      [
        "M",
        "##ummy"
      ],
      [
        "sh",
        "##irt"
      ],
      [
        "gent",
        "##ly"
      ],
      [
        "p",
        "##our"
      ],
      [
        "be",
        "##ll"
      ],
      [
        "p",
        "##ound"
      ],
      [
        "con",
        "##fused"
      ],
      [
        "eg",
        "##gs"
      ],
      [
        "mean",
        "##s"
      ],
      [
        "del",
        "##ight"
      ],
      [
        "mach",
        "##ine"
      ],
      [
        "i",
        "##gn"
      ],
      [
        "mon",
        "##th"
      ],
      [
        "rem",
        "##ind"
      ],
      [
        "A",
        "##re"
      ],
      [
        "fur",
        "##ry"
      ],
      [
        "em",
        "##bar"
      ],
      [
        "l",
        "##it"
      ],
      [
        "r",
        "##ing"
      ],
      [
        "##i",
        "##fe"
      ],
      [
        "e",
        "##ventually"
      ],
      [
        "help",
        "##ful"
      ],
      [
        "when",
        "##ever"
      ],
      [
        "lad",
        "##der"
      ],
      [
        "embar",
        "##ra"
      ],
      [
        "tal",
        "##king"
      ],
      [
        "co",
        "##in"
      ],
      [
        "cou",
        "##ch"
      ],
      [
        "##ell",
        "##y"
      ],
      [
        "t",
        "##id"
      ],
      [
        "st",
        "##ep"
      ],
      [
        "song",
        "##s"
      ],
      [
        "fa",
        "##ces"
      ],
      [
        "gr",
        "##oup"
      ],
      [
        "resp",
        "##ect"
      ],
      [
        "wa",
        "##ve"
      ],
      [
        "smo",
        "##oth"
      ],
      [
        "b",
        "##lew"
      ],
      [
        "##ec",
        "##ted"
      ],
      [
        "##at",
        "##es"
      ],
      [
        "pa",
        "##w"
      ],
      [
        "pus",
        "##h"
      ],
      [
        "pizz",
        "##a"
      ],
      [
        "John",
        "##ny"
      ],
      [
        "wait",
        "##ing"
      ],
      [
        "Su",
        "##s"
      ],
      [
        "##at",
        "##or"
      ],
      [
        "so",
        "##l"
      ],
      [
        "tri",
        "##es"
      ],
      [
        "too",
        "##l"
      ],
      [
        "cal",
        "##m"
      ],
      [
        "pretend",
        "##ed"
      ],
      [
        "M",
        "##ark"
      ],
      [
        "se",
        "##ed"
      ],
      [
        "treat",
        "##s"
      ],
      [
        "##i",
        "##an"
      ],
      [
        "##un",
        "##k"
      ],
      [
        "sp",
        "##read"
      ],
      [
        "Wh",
        "##ile"
      ],
      [
        "spr",
        "##ay"
      ],
      [
        "h",
        "##um"
      ],
      [
        "st",
        "##ret"
      ],
      [
        "sh",
        "##y"
      ],
      [
        "##le",
        "##br"
      ],
      [
        "ve",
        "##get"
      ],
      [
        "##ab",
        "##les"
      ],
      [
        "fo",
        "##ld"
      ],
      [
        "carrot",
        "##s"
      ],
      [
        "ce",
        "##lebr"
      ],
      [
        "t",
        "##eet"
      ],
      [
        "teet",
        "##h"
      ],
      [
        "L",
        "##ittle"
      ],
      [
        "Every",
        "##where"
      ],
      [
        "prot",
        "##ect"
      ],
      [
        "forg",
        "##ive"
      ],
      [
        "c",
        "##oo"
      ],
      [
        "##t",
        "##en"
      ],
      [
        "box",
        "##es"
      ],
      [
        "le",
        "##gs"
      ],
      [
        "hid",
        "##ing"
      ],
      [
        "em",
        "##p"
      ],
      [
        "as",
        "##h"
      ],
      [
        "tom",
        "##orrow"
      ],
      [
        "emp",
        "##ty"
      ],
      [
        "vill",
        "##age"
      ],
      [
        "s",
        "##el"
      ],
      [
        "B",
        "##r"
      ],
      [
        "l",
        "##em"
      ],
      [
        "plant",
        "##s"
      ],
      [
        "neck",
        "##l"
      ],
      [
        "##im",
        "##e"
      ],
      [
        "fix",
        "##ed"
      ],
      [
        "T",
        "##eddy"
      ],
      [
        "the",
        "##se"
      ],
      [
        "p",
        "##le"
      ],
      [
        "for",
        "##ward"
      ],
      [
        "fight",
        "##ing"
      ],
      [
        "r",
        "##ac"
      ],
      [
        "cl",
        "##oth"
      ],
      [
        "rob",
        "##ot"
      ],
      [
        "##er",
        "##ry"
      ],
      [
        "##ur",
        "##se"
      ],
      [
        "go",
        "##ld"
      ],
      [
        "k",
        "##itten"
      ],
      [
        "p",
        "##in"
      ],
      [
        "can",
        "##n"
      ],
      [
        "see",
        "##k"
      ],
      [
        "ch",
        "##ased"
      ],
      [
        "g",
        "##en"
      ],
      [
        "ru",
        "##de"
      ],
      [
        "bug",
        "##s"
      ],
      [
        "she",
        "##ep"
      ],
      [
        "##d",
        "##en"
      ],
      [
        "str",
        "##ing"
      ],
      [
        "tid",
        "##y"
      ],
      [
        "S",
        "##ome"
      ],
      [
        "##o",
        "##in"
      ],
      [
        "gre",
        "##w"
      ],
      [
        "##ig",
        "##er"
      ],
      [
        "lea",
        "##f"
      ],
      [
        "bar",
        "##ked"
      ],
      [
        "kn",
        "##ee"
      ],
      [
        "am",
        "##ount"
      ],
      [
        "w",
        "##ore"
      ],
      [
        "embarra",
        "##ssed"
      ],
      [
        "cann",
        "##ot"
      ],
      [
        "g",
        "##as"
      ],
      [
        "##bo",
        "##x"
      ],
      [
        "##on",
        "##y"
      ],
      [
        "p",
        "##ee"
      ],
      [
        "H",
        "##ere"
      ],
      [
        "d",
        "##eter"
      ],
      [
        "pudd",
        "##le"
      ],
      [
        "L",
        "##e"
      ],
      [
        "pea",
        "##ceful"
      ],
      [
        "##in",
        "##a"
      ],
      [
        "whist",
        "##le"
      ],
      [
        "was",
        "##h"
      ],
      [
        "tast",
        "##e"
      ],
      [
        "Al",
        "##ice"
      ],
      [
        "tight",
        "##ly"
      ],
      [
        "##e",
        "##ed"
      ],
      [
        "gra",
        "##b"
      ],
      [
        "##ung",
        "##le"
      ],
      [
        "dist",
        "##ance"
      ],
      [
        "n",
        "##et"
      ],
      [
        "##ut",
        "##s"
      ],
      [
        "in",
        "##t"
      ],
      [
        "##air",
        "##s"
      ],
      [
        "sel",
        "##fish"
      ],
      [
        "st",
        "##one"
      ],
      [
        "##anc",
        "##y"
      ],
      [
        "##sc",
        "##ap"
      ],
      [
        "st",
        "##ir"
      ],
      [
        "te",
        "##am"
      ],
      [
        "##c",
        "##il"
      ],
      [
        "creat",
        "##ive"
      ],
      [
        "j",
        "##ungle"
      ],
      [
        "deter",
        "##m"
      ],
      [
        "s",
        "##our"
      ],
      [
        "##b",
        "##ers"
      ],
      [
        "w",
        "##ip"
      ],
      [
        "tw",
        "##ice"
      ],
      [
        "dec",
        "##or"
      ],
      [
        "cle",
        "##ar"
      ],
      [
        "dog",
        "##s"
      ],
      [
        "E",
        "##ven"
      ],
      [
        "pl",
        "##ate"
      ],
      [
        "pres",
        "##ent"
      ],
      [
        "a",
        "##v"
      ],
      [
        "##g",
        "##round"
      ],
      [
        "f",
        "##ig"
      ],
      [
        "tr",
        "##ust"
      ],
      [
        "T",
        "##V"
      ],
      [
        "##in",
        "##ce"
      ],
      [
        "##c",
        "##er"
      ],
      [
        "sp",
        "##icy"
      ],
      [
        "pen",
        "##cil"
      ],
      [
        "kn",
        "##ocked"
      ],
      [
        "she",
        "##lf"
      ],
      [
        "spark",
        "##ly"
      ],
      [
        "disapp",
        "##oin"
      ],
      [
        "un",
        "##i"
      ],
      [
        "##d",
        "##le"
      ],
      [
        "##ump",
        "##y"
      ],
      [
        "##u",
        "##ce"
      ],
      [
        "##l",
        "##et"
      ],
      [
        "me",
        "##adow"
      ],
      [
        "exp",
        "##ens"
      ],
      [
        "jump",
        "##ing"
      ],
      [
        "St",
        "##op"
      ],
      [
        "b",
        "##al"
      ],
      [
        "ball",
        "##s"
      ],
      [
        "stick",
        "##s"
      ],
      [
        "##m",
        "##ost"
      ],
      [
        "l",
        "##ine"
      ],
      [
        "##k",
        "##in"
      ],
      [
        "me",
        "##ant"
      ],
      [
        "m",
        "##aybe"
      ],
      [
        "wh",
        "##is"
      ],
      [
        "He",
        "##lp"
      ],
      [
        "E",
        "##ach"
      ],
      [
        "##p",
        "##s"
      ],
      [
        "mo",
        "##on"
      ],
      [
        "car",
        "##ried"
      ],
      [
        "##y",
        "##ing"
      ],
      [
        "To",
        "##day"
      ],
      [
        "miss",
        "##ed"
      ],
      [
        "stud",
        "##ents"
      ],
      [
        "##an",
        "##o"
      ],
      [
        "mo",
        "##v"
      ],
      [
        "land",
        "##ed"
      ],
      [
        "hid",
        "##den"
      ],
      [
        "sandw",
        "##ich"
      ],
      [
        "##ust",
        "##r"
      ],
      [
        "snack",
        "##s"
      ],
      [
        "s",
        "##na"
      ],
      [
        "al",
        "##most"
      ],
      [
        "spl",
        "##ash"
      ],
      [
        "c",
        "##ro"
      ],
      [
        "bed",
        "##room"
      ],
      [
        "gen",
        "##er"
      ],
      [
        "know",
        "##ing"
      ],
      [
        "g",
        "##un"
      ],
      [
        "p",
        "##an"
      ],
      [
        "my",
        "##ster"
      ],
      [
        "retur",
        "##ned"
      ],
      [
        "breat",
        "##h"
      ],
      [
        "hon",
        "##est"
      ],
      [
        "j",
        "##elly"
      ],
      [
        "œ",
        "##T"
      ],
      [
        "disappoin",
        "##ted"
      ],
      [
        "st",
        "##ood"
      ],
      [
        "gl",
        "##ass"
      ],
      [
        "shar",
        "##ing"
      ],
      [
        "f",
        "##ear"
      ],
      [
        "tell",
        "##s"
      ],
      [
        "sa",
        "##ved"
      ],
      [
        "##h",
        "##at"
      ],
      [
        "Re",
        "##x"
      ],
      [
        "neckl",
        "##ace"
      ],
      [
        "##w",
        "##or"
      ],
      [
        "hear",
        "##s"
      ],
      [
        "##u",
        "##al"
      ],
      [
        "fe",
        "##ed"
      ],
      [
        "v",
        "##an"
      ],
      [
        "prin",
        "##ce"
      ],
      [
        "F",
        "##r"
      ],
      [
        "M",
        "##e"
      ],
      [
        "sh",
        "##ore"
      ],
      [
        "wor",
        "##king"
      ],
      [
        "gr",
        "##ay"
      ],
      [
        "##g",
        "##y"
      ],
      [
        "re",
        "##g"
      ],
      [
        "##o",
        "##ons"
      ],
      [
        "fr",
        "##ustr"
      ],
      [
        "##er",
        "##a"
      ],
      [
        "Wh",
        "##o"
      ],
      [
        "rock",
        "##et"
      ],
      [
        "stand",
        "##ing"
      ],
      [
        "j",
        "##ew"
      ],
      [
        "##c",
        "##les"
      ],
      [
        "t",
        "##est"
      ],
      [
        "squ",
        "##are"
      ],
      [
        "f",
        "##ancy"
      ],
      [
        "pound",
        "##s"
      ],
      [
        "dre",
        "##w"
      ],
      [
        "B",
        "##l"
      ],
      [
        "ta",
        "##ken"
      ],
      [
        "##it",
        "##al"
      ],
      [
        "underst",
        "##ood"
      ],
      [
        "thank",
        "##ful"
      ],
      [
        "suc",
        "##cess"
      ],
      [
        "myster",
        "##ious"
      ],
      [
        "##g",
        "##ly"
      ],
      [
        "expens",
        "##ive"
      ],
      [
        "##pp",
        "##er"
      ],
      [
        "mess",
        "##y"
      ],
      [
        "gather",
        "##ed"
      ],
      [
        "puzz",
        "##le"
      ],
      [
        "u",
        "##gly"
      ],
      [
        "Le",
        "##o"
      ],
      [
        "f",
        "##il"
      ],
      [
        "m",
        "##ot"
      ],
      [
        "##fl",
        "##ower"
      ],
      [
        "##i",
        "##ff"
      ],
      [
        "sleep",
        "##y"
      ],
      [
        "##v",
        "##ous"
      ],
      [
        "frustr",
        "##ated"
      ],
      [
        "ta",
        "##ught"
      ],
      [
        "ho",
        "##sp"
      ],
      [
        "##es",
        "##ted"
      ],
      [
        "yell",
        "##ed"
      ],
      [
        "##in",
        "##ess"
      ],
      [
        "##p",
        "##ack"
      ],
      [
        "boy",
        "##s"
      ],
      [
        "Sus",
        "##ie"
      ],
      [
        "pa",
        "##ssed"
      ],
      [
        "spo",
        "##il"
      ],
      [
        "##ur",
        "##ing"
      ],
      [
        "tea",
        "##ch"
      ],
      [
        "hosp",
        "##ital"
      ],
      [
        "tw",
        "##irl"
      ],
      [
        "or",
        "##d"
      ],
      [
        "##l",
        "##ight"
      ],
      [
        "sh",
        "##ip"
      ],
      [
        "le",
        "##g"
      ],
      [
        "wo",
        "##lf"
      ],
      [
        "sc",
        "##o"
      ],
      [
        "veget",
        "##ables"
      ],
      [
        "##or",
        "##ry"
      ],
      [
        "ex",
        "##am"
      ],
      [
        "power",
        "##ful"
      ],
      [
        "##h",
        "##in"
      ],
      [
        "##ow",
        "##ing"
      ],
      [
        "##er",
        "##p"
      ],
      [
        "wal",
        "##ks"
      ],
      [
        "ex",
        "##t"
      ],
      [
        "cra",
        "##b"
      ],
      [
        "##id",
        "##dle"
      ],
      [
        "pol",
        "##ice"
      ],
      [
        "determ",
        "##ined"
      ],
      [
        "quest",
        "##ions"
      ],
      [
        "rem",
        "##ain"
      ],
      [
        "re",
        "##ce"
      ],
      [
        "eas",
        "##y"
      ],
      [
        "r",
        "##ad"
      ],
      [
        "he",
        "##l"
      ],
      [
        "##itt",
        "##er"
      ],
      [
        "com",
        "##fortable"
      ],
      [
        "stu",
        "##ff"
      ],
      [
        "de",
        "##er"
      ],
      [
        "wa",
        "##ves"
      ],
      [
        "##ot",
        "##e"
      ],
      [
        "n",
        "##er"
      ],
      [
        "##ill",
        "##ar"
      ],
      [
        "m",
        "##ummy"
      ],
      [
        "exc",
        "##ite"
      ],
      [
        "gener",
        "##ous"
      ],
      [
        "##e",
        "##al"
      ],
      [
        "h",
        "##ur"
      ],
      [
        "bag",
        "##s"
      ],
      [
        "ash",
        "##amed"
      ],
      [
        "##q",
        "##ue"
      ],
      [
[...]
