{
  "version": "1.0",
  "truncation": null,
  "padding": null,
  "added_tokens": [
    {
      "id": 0,
      "content": "[PAD]",
      "single_word": false,
      "lstrip": false,
      "rstrip": false,
      "normalized": false,
      "special": true
    },
    {
      "id": 1,
      "content": "[UNK]",
      "single_word": false,
      "lstrip": false,
      "rstrip": false,
      "normalized": false,
      "special": true
    },
    {
      "id": 2,
      "content": "[BOS]",
      "single_word": false,
      "lstrip": false,
      "rstrip": false,
      "normalized": false,
      "special": true
    },
    {
      "id": 3,
      "content": "[EOS]",
      "single_word": false,
      "lstrip": false,
      "rstrip": false,
      "normalized": false,
      "special": true
    },
    {
      "id": 4,
      "content": "[MASK]",
      "single_word": false,
      "lstrip": false,
      "rstrip": false,
      "normalized": false,
      "special": true
    },
    {
      "id": 5,
      "content": "[INST]",
      "single_word": false,
      "lstrip": false,
      "rstrip": false,
      "normalized": false,
      "special": true
    },
    {
      "id": 6,
      "content": "[/INST]",
      "single_word": false,
      "lstrip": false,
      "rstrip": false,
      "normalized": false,
      "special": true
    },
    {
      "id": 7,
      "content": "[THINK]",
      "single_word": false,
      "lstrip": false,
      "rstrip": false,
      "normalized": false,
      "special": true
    },
    {
      "id": 8,
      "content": "[/THINK]",
      "single_word": false,
      "lstrip": false,
      "rstrip": false,
      "normalized": false,
      "special": true
    },
    {
      "id": 9,
      "content": "[ANSWER]",
      "single_word": false,
      "lstrip": false,
      "rstrip": false,
      "normalized": false,
      "special": true
    },
    {
      "id": 10,
      "content": "[/ANSWER]",
      "single_word": false,
      "lstrip": false,
      "rstrip": false,
      "normalized": false,
      "special": true
    }
  ],
  "normalizer": null,
  "pre_tokenizer": {
    "type": "Sequence",
    "pretokenizers": [
      {
        "type": "Whitespace"
      },
      {
        "type": "Split",
        "pattern": {
          "Regex": "\\d"
        },
        "behavior": "Isolated",
        "invert": false
      }
    ]
  },
  "post_processor": {
    "type": "TemplateProcessing",
    "single": [
      {
        "SpecialToken": {
          "id": "[BOS]",
          "type_id": 0
        }
      },
      {
        "Sequence": {
          "id": "A",
          "type_id": 0
        }
      },
      {
        "SpecialToken": {
          "id": "[EOS]",
          "type_id": 0
        }
      }
    ],
    "pair": [
      {
        "SpecialToken": {
          "id": "[BOS]",
          "type_id": 0
        }
      },
      {
        "Sequence": {
          "id": "A",
          "type_id": 0
        }
      },
      {
        "SpecialToken": {
          "id": "[EOS]",
          "type_id": 0
        }
      },
      {
        "Sequence": {
          "id": "B",
          "type_id": 1
        }
      },
      {
        "SpecialToken": {
          "id": "[EOS]",
          "type_id": 1
        }
      }
    ],
    "special_tokens": {
      "[BOS]": {
        "id": "[BOS]",
        "ids": [
          2
        ],
        "tokens": [
          "[BOS]"
        ]
      },
      "[EOS]": {
        "id": "[EOS]",
        "ids": [
          3
        ],
        "tokens": [
          "[EOS]"
        ]
      }
    }
  },
  "decoder": {
    "type": "WordPiece",
    "prefix": "##",
    "cleanup": true
  },
  "model": {
    "type": "BPE",
    "dropout": null,
    "unk_token": "[UNK]",
    "continuing_subword_prefix": "##",
    "end_of_word_suffix": null,
    "fuse_unk": false,
    "byte_fallback": false,
    "ignore_merges": false,
    "vocab": {
      "[PAD]": 0,
      "[UNK]": 1,
      "[BOS]": 2,
      "[EOS]": 3,
      "[MASK]": 4,
      "[INST]": 5,
      "[/INST]": 6,
      "[THINK]": 7,
      "[/THINK]": 8,
      "[ANSWER]": 9,
      "[/ANSWER]": 10,
      "\n": 11,
      " ": 12,
      "!": 13,
      "\"": 14,
      "#": 15,
      "$": 16,
      "%": 17,
      "&": 18,
      "'": 19,
      "(": 20,
      ")": 21,
      "*": 22,
      "+": 23,
      ",": 24,
      "-": 25,
      ".": 26,
      "/": 27,
      "0": 28,
      "1": 29,
      "2": 30,
      "3": 31,
      "4": 32,
      "5": 33,
      "6": 34,
      "7": 35,
      "8": 36,
      "9": 37,
      ":": 38,
      ";": 39,
      "<": 40,
      "=": 41,
      ">": 42,
      "?": 43,
      "@": 44,
      "A": 45,
      "B": 46,
      "C": 47,
      "D": 48,
      "E": 49,
      "F": 50,
      "G": 51,
      "H": 52,
      "I": 53,
      "J": 54,
      "K": 55,
      "L": 56,
      "M": 57,
      "N": 58,
      "O": 59,
      "P": 60,
      "Q": 61,
      "R": 62,
      "S": 63,
      "T": 64,
      "U": 65,
      "V": 66,
      "W": 67,
      "X": 68,
      "Y": 69,
      "Z": 70,
      "[": 71,
      "\\": 72,
      "]": 73,
      "^": 74,
      "_": 75,
      "`": 76,
      "a": 77,
      "b": 78,
      "c": 79,
      "d": 80,
      "e": 81,
      "f": 82,
      "g": 83,
      "h": 84,
      "i": 85,
      "j": 86,
      "k": 87,
      "l": 88,
      "m": 89,
      "n": 90,
      "o": 91,
      "p": 92,
      "q": 93,
      "r": 94,
      "s": 95,
      "t": 96,
      "u": 97,
      "v": 98,
      "w": 99,
      "x": 100,
      "y": 101,
      "z": 102,
      "{": 103,
      "|": 104,
      "}": 105,
      "~": 106,
      "¡": 107,
      "¢": 108,
      "£": 109,
      "¤": 110,
      "¥": 111,
      "¦": 112,
      "§": 113,
      "¨": 114,
      "©": 115,
      "ª": 116,
      "«": 117,
      "¬": 118,
      "­": 119,
      "®": 120,
      "¯": 121,
      "°": 122,
      "±": 123,
      "²": 124,
      "³": 125,
      "´": 126,
      "µ": 127,
      "¶": 128,
      "·": 129,
      "¸": 130,
      "¹": 131,
      "º": 132,
      "»": 133,
      "¼": 134,
      "½": 135,
      "¾": 136,
      "¿": 137,
      "Â": 138,
      "Ã": 139,
      "Ä": 140,
      "Å": 141,
      "É": 142,
      "Ê": 143,
      "Ñ": 144,
      "Ò": 145,
      "×": 146,
      "á": 147,
      "â": 148,
      "ã": 149,
      "ä": 150,
      "å": 151,
      "æ": 152,
      "ç": 153,
      "è": 154,
      "é": 155,
      "î": 156,
      "ï": 157,
      "ð": 158,
      "ñ": 159,
      "÷": 160,
      "Œ": 161,
      "œ": 162,
      "Š": 163,
      "š": 164,
      "Ÿ": 165,
      "Ž": 166,
      "ž": 167,
      "ƒ": 168,
      "ˆ": 169,
      "˜": 170,
      "А": 171,
      "​": 172,
      "–": 173,
      "‘": 174,
      "’": 175,
      "‚": 176,
      "“": 177,
      "”": 178,
      "„": 179,
      "†": 180,
      "‡": 181,
      "•": 182,
      "…": 183,
      "‰": 184,
      "‹": 185,
      "›": 186,
      "€": 187,
      "™": 188,
      "−": 189,
      "√": 190,
      "##r": 191,
      "##o": 192,
      "##s": 193,
      "##p": 194,
      "##e": 195,
      "##c": 196,
      "##t": 197,
      "##u": 198,
      "##a": 199,
      "##M": 200,
      "##i": 201,
      "##l": 202,
      "##E": 203,
      "##L": 204,
      "##k": 205,
      "##H": 206,
      "##m": 207,
      "##d": 208,
      "##y": 209,
      "##v": 210,
      "##n": 211,
      "##h": 212,
      "##w": 213,
      "##z": 214,
      "##f": 215,
      "##S": 216,
      "##â": 217,
      "##O": 218,
      "##g": 219,
      "##b": 220,
      "##P": 221,
      "##D": 222,
      "##C": 223,
      "##q": 224,
      "##\"": 225,
      "##x": 226,
      "##B": 227,
      "##R": 228,
      "##A": 229,
      "##T": 230,
      "##K": 231,
      "##F": 232,
      "##Y": 233,
      "##°": 234,
      "##I": 235,
      "##›": 236,
      "##,": 237,
      "##J": 238,
      "##Ã": 239,
      "##Z": 240,
      "##)": 241,
      "##N": 242,
      "##G": 243,
      "##j": 244,
      "##U": 245,
      "##=": 246,
      "##W": 247,
      "##_": 248,
      "##(": 249,
      "##‰": 250,
      "##V": 251,
      "##Q": 252,
      "##'": 253,
      "##?": 254,
      "##X": 255,
      "##.": 256,
      "##-": 257,
      "##“": 258,
      "##!": 259,
      "##$": 260,
      "##©": 261,
      "##ˆ": 262,
      "##ã": 263,
      "##³": 264,
      "##Â": 265,
      "##¡": 266,
      "##<": 267,
      "##/": 268,
      "##*": 269,
      "##œ": 270,
      "##ƒ": 271,
      "##æ": 272,
      "##Š": 273,
      "##ä": 274,
      "##’": 275,
      "##Ž": 276,
      "##[": 277,
      "##¦": 278,
      "##‚": 279,
      "##™": 280,
      "###": 281,
      "##¢": 282,
      "##:": 283,
      "##å": 284,
      "##Ñ": 285,
      "##†": 286,
      "##\\": 287,
      "##¾": 288,
      "##é": 289,
      "##á": 290,
      "##˜": 291,
      "##”": 292,
      "##}": 293,
      "##²": 294,
      "##¹": 295,
      "##>": 296,
      "##+": 297,
      "##•": 298,
      "##¿": 299,
      "##´": 300,
      "##;": 301,
      "##ï": 302,
      "##Ÿ": 303,
      "##Œ": 304,
      "##`": 305,
      "##º": 306,
      "##‘": 307,
      "##{": 308,
      "##…": 309,
      "##%": 310,
      "##€": 311,
      "##š": 312,
      "##è": 313,
      "##]": 314,
      "##ž": 315,
      "##‹": 316,
      "##É": 317,
      "##ª": 318,
      "##¬": 319,
      "##µ": 320,
      "##Ä": 321,
      "##~": 322,
      "##¯": 323,
      "##@": 324,
      "##½": 325,
      "##‡": 326,
      "##£": 327,
      "##±": 328,
      "##¶": 329,
      "##–": 330,
      "##„": 331,
      "##¥": 332,
      "##ç": 333,
      "##&": 334,
      "##¼": 335,
      "##ð": 336,
      "##¨": 337,
      "##®": 338,
      "##ñ": 339,
      "##he": 340,
      "##nd": 341,
      "the": 342,
      "##ed": 343,
      "and": 344,
      "##er": 345,
      "to": 346,
      "wa": 347,
      "##ou": 348,
      "##in": 349,
      "##re": 350,
      "was": 351,
      "##om": 352,
      "The": 353,
      "##ay": 354,
      "##ar": 355,
      "##ing": 356,
      "##il": 357,
      "##it": 358,
      "##id": 359,
      "##at": 360,
      "sa": 361,
      "##en": 362,
      "ha": 363,
      "##is": 364,
      "##an": 365,
      "##or": 366,
      "##im": 367,
      "he": 368,
      "##on": 369,
      "it": 370,
      "th": 371,
      "##ut": 372,
      "##ll": 373,
      "##le": 374,
      "her": 375,
      "##et": 376,
      "He": 377,
      "##ot": 378,
      "She": 379,
      "##es": 380,
      "##ir": 381,
      "They": 382,
      "in": 383,
      "##ow": 384,
      "##ck": 385,
      "##ld": 386,
      "##oo": 387,
      "said": 388,
      "##ily": 389,
      "be": 390,
      "##ig": 391,
      "##am": 392,
      "st": 393,
      "##ce": 394,
      "she": 395,
      "##pp": 396,
      "##ith": 397,
      "##ve": 398,
      "with": 399,
      "Lily": 400,
      "On": 401,
      "on": 402,
      "of": 403,
      "you": 404,
      "##ked": 405,
      "##ri": 406,
      "so": 407,
      "his": 408,
      "pl": 409,
      "##ery": 410,
      "##ad": 411,
      "##ke": 412,
      "##nt": 413,
      "day": 414,
      "that": 415,
      "up": 416,
      "play": 417,
      "had": 418,
      "they": 419,
      "##el": 420,
      "mom": 421,
      "for": 422,
      "##st": 423,
      "##un": 424,
      "##ould": 425,
      "##my": 426,
      "##ent": 427,
      "li": 428,
      "##ch": 429,
      "happ": 430,
      "want": 431,
      "##itt": 432,
      "sh": 433,
      "##her": 434,
      "It": 435,
      "do": 436,
      "##ly": 437,
      "not": 438,
      "##ome": 439,
      "##se": 440,
      "very": 441,
      "##end": 442,
      "##ound": 443,
      "##all": 444,
      "wh": 445,
      "##ime": 446,
      "##ittle": 447,
      "time": 448,
      "##al": 449,
      "little": 450,
      "there": 451,
      "ne": 452,
      "##ht": 453,
      "happy": 454,
      "sm": 455,
      "is": 456,
      "big": 457,
      "but": 458,
      "##ra": 459,
      "an": 460,
      "saw": 461,
      "##riend": 462,
      "friend": 463,
      "as": 464,
      ".\"": 465,
      "##ry": 466,
      "##ack": 467,
      "One": 468,
      "##ake": 469,
      "re": 470,
      "##ere": 471,
      "Tim": 472,
      "##ter": 473,
      "##ug": 474,
      "!\"": 475,
      "loo": 476,
      "##ved": 477,
      "were": 478,
      "##ore": 479,
      "Once": 480,
      "lo": 481,
      "##ec": 482,
      "him": 483,
      "##ur": 484,
      "too": 485,
      "go": 486,
      "bo": 487,
      "##ide": 488,
      "se": 489,
      "##irl": 490,
      "are": 491,
      "##ver": 492,
      "##ard": 493,
      "wanted": 494,
      "Tom": 495,
      "##ill": 496,
      "girl": 497,
      "upon": 498,
      "out": 499,
      "them": 500,
      "at": 501,
      "Ben": 502,
      "their": 503,
      "##fu": 504,
      "sp": 505,
      "##way": 506,
      "##ind": 507,
      "smil": 508,
      "did": 509,
      "could": 510,
      "##hen": 511,
      "have": 512,
      "##ted": 513,
      "##ain": 514,
      "ex": 515,
      "##hed": 516,
      "But": 517,
      "##rom": 518,
      "went": 519,
      "ar": 520,
      "can": 521,
      "##lp": 522,
      "##ic": 523,
      "##ful": 524,
      "##ood": 525,
      "?\"": 526,
      "##hing": 527,
      "friends": 528,
      "nam": 529,
      "##ight": 530,
      "all": 531,
      "help": 532,
      "kn": 533,
      "##um": 534,
      "##ark": 535,
      "##one": 536,
      "back": 537,
      "say": 538,
      "cl": 539,
      "fun": 540,
      "You": 541,
      "##ear": 542,
      "##are": 543,
      "no": 544,
      "##very": 545,
      "Timmy": 546,
      "##op": 547,
      "star": 548,
      "sc": 549,
      "smiled": 550,
      "named": 551,
      "al": 552,
      "##oug": 553,
      "loved": 554,
      "##side": 555,
      "man": 556,
      "##elt": 557,
      "##ick": 558,
      "asked": 559,
      "toy": 560,
      "Mom": 561,
      "like": 562,
      "felt": 563,
      "see": 564,
      "looked": 565,
      "some": 566,
      "me": 567,
      "around": 568,
      "##ep": 569,
      "##ame": 570,
      "##omet": 571,
      "fe": 572,
      "ro": 573,
      "br": 574,
      "##ure": 575,
      "bir": 576,
      "##get": 577,
      "boy": 578,
      "would": 579,
      "##ong": 580,
      "##ss": 581,
      "##ea": 582,
      "bird": 583,
      "somet": 584,
      "fa": 585,
      "##dd": 586,
      "##est": 587,
      "##ings": 588,
      "wor": 589,
      "ag": 590,
      "what": 591,
      "##ade": 592,
      "make": 593,
      "##king": 594,
      "##ie": 595,
      ",\"": 596,
      "car": 597,
      "##own": 598,
      "tre": 599,
      "##gether": 600,
      "ran": 601,
      "away": 602,
      "##ag": 603,
      "we": 604,
      "Th": 605,
      "says": 606,
      "started": 607,
      "##ice": 608,
      "##oud": 609,
      "made": 610,
      "something": 611,
      "together": 612,
      "co": 613,
      "##ther": 614,
      "##ited": 615,
      "park": 616,
      "sad": 617,
      "other": 618,
      "new": 619,
      "exc": 620,
      "from": 621,
      "put": 622,
      "##out": 623,
      "pr": 624,
      "la": 625,
      "scar": 626,
      "hug": 627,
      "mu": 628,
      "##ble": 629,
      "##ook": 630,
      "again": 631,
      "home": 632,
      "when": 633,
      "good": 634,
      "who": 635,
      "ch": 636,
      "fl": 637,
      "##ried": 638,
      "found": 639,
      "then": 640,
      "dec": 641,
      "##pped": 642,
      "wal": 643,
      "get": 644,
      "##ach": 645,
      "playing": 646,
      "##ought": 647,
      "##pl": 648,
      "##ally": 649,
      "sw": 650,
      "Su": 651,
      "##ous": 652,
      "##nn": 653,
      "things": 654,
      "excited": 655,
      "liked": 656,
      "got": 657,
      "##uck": 658,
      "Sam": 659,
      "##ro": 660,
      "##as": 661,
      "##ided": 662,
      "##ell": 663,
      "bl": 664,
      "decided": 665,
      "every": 666,
      "came": 667,
      "Ann": 668,
      "##ara": 669,
      "your": 670,
      "##ax": 671,
      "one": 672,
      "scared": 673,
      "##ust": 674,
      "dog": 675,
      "down": 676,
      "##ouse": 677,
      "find": 678,
      "##ny": 679,
      "than": 680,
      "bec": 681,
      "care": 682,
      "Sara": 683,
      "feel": 684,
      "We": 685,
      "Anna": 686,
      "dad": 687,
      "ab": 688,
      "my": 689,
      "Max": 690,
      "will": 691,
      "##ap": 692,
      "look": 693,
      "##ist": 694,
      "gr": 695,
      "##nder": 696,
      "gra": 697,
      "##ways": 698,
      "##ess": 699,
      "po": 700,
      "didn": 701,
      "took": 702,
      "always": 703,
      "##ers": 704,
      "about": 705,
      "##bb": 706,
      "lot": 707,
      "##ned": 708,
      "mommy": 709,
      "So": 710,
      "toys": 711,
      "kne": 712,
      "bu": 713,
      "##ant": 714,
      "##ise": 715,
      "old": 716,
      "##ite": 717,
      "outside": 718,
      "##ave": 719,
      "tree": 720,
      "thought": 721,
      "ball": 722,
      "lear": 723,
      "more": 724,
      "##eci": 725,
      "ta": 726,
      "##ened": 727,
      "##ched": 728,
      "ho": 729,
      "##ret": 730,
      "When": 731,
      "##ged": 732,
      "pu": 733,
      "Jo": 734,
      "know": 735,
      "Wh": 736,
      "##to": 737,
      "take": 738,
      "laug": 739,
      "sor": 740,
      "speci": 741,
      "special": 742,
      "cat": 743,
      "##dden": 744,
      "knew": 745,
      "##ty": 746,
      "##ive": 747,
      "##ff": 748,
      "Her": 749,
      "##ia": 750,
      "##fter": 751,
      "any": 752,
      "##ddenly": 753,
      "how": 754,
      "##au": 755,
      "##ue": 756,
      "##ma": 757,
      "show": 758,
      "##ink": 759,
      "tw": 760,
      "Jack": 761,
      "sorry": 762,
      "much": 763,
      "##ish": 764,
      "run": 765,
      "tr": 766,
      "Every": 767,
      "hand": 768,
      "sl": 769,
      "##and": 770,
      "##ven": 771,
      "house": 772,
      "or": 773,
      "op": 774,
      "sk": 775,
      "mo": 776,
      "clo": 777,
      "sun": 778,
      "into": 779,
      "tried": 780,
      "##ate": 781,
      "inside": 782,
      "water": 783,
      "told": 784,
      "this": 785,
      "en": 786,
      "if": 787,
      "##ump": 788,
      "proud": 789,
      "over": 790,
      "couldn": 791,
      "gave": 792,
      "##dy": 793,
      "each": 794,
      "##ank": 795,
      "heard": 796,
      "never": 797,
      "##by": 798,
      "room": 799,
      "eat": 800,
      "expl": 801,
      "Suddenly": 802,
      "##other": 803,
      "##ause": 804,
      "##ion": 805,
      "pick": 806,
      "pret": 807,
      "Then": 808,
      "played": 809,
      "Mia": 810,
      "##ge": 811,
      "##etter": 812,
      "just": 813,
      "gre": 814,
      "hugged": 815,
      "qu": 816,
      "##our": 817,
      "Let": 818,
      "##here": 819,
      "off": 820,
      "com": 821,
      "wat": 822,
      "##oth": 823,
      "box": 824,
      "And": 825,
      "need": 826,
      "From": 827,
      "nice": 828,
      "because": 829,
      "many": 830,
      "ra": 831,
      "His": 832,
      "str": 833,
      "pe": 834,
      "##ile": 835,
      "##ft": 836,
      "##fe": 837,
      "fo": 838,
      "##uc": 839,
      "jo": 840,
      "##eep": 841,
      "bear": 842,
      "small": 843,
      "##iz": 844,
      "##sed": 845,
      "##kes": 846,
      "long": 847,
      "##ving": 848,
      "##em": 849,
      "##ine": 850,
      "##gry": 851,
      "##imal": 852,
      "animal": 853,
      "sn": 854,
      "##ough": 855,
      "That": 856,
      "try": 857,
      "unt": 858,
      "##ild": 859,
      "##ort": 860,
      "##sel": 861,
      "##urt": 862,
      "until": 863,
      "kind": 864,
      "learned": 865,
      "im": 866,
      "bea": 867,
      "love": 868,
      "better": 869,
      "flow": 870,
      "call": 871,
      "don": 872,
      "end": 873,
      "ad": 874,
      "best": 875,
      "##vent": 876,
      "##ning": 877,
      "##ady": 878,
      "##urp": 879,
      "##ream": 880,
      "##ves": 881,
      "cle": 882,
      "ma": 883,
      "##ber": 884,
      "##arden": 885,
      "garden": 886,
      "cu": 887,
      "fast": 888,
      "careful": 889,
      "Mommy": 890,
      "##lly": 891,
      "by": 892,
      "##ies": 893,
      "beaut": 894,
      "fi": 895,
      "even": 896,
      "bra": 897,
      "che": 898,
      "thanked": 899,
      "What": 900,
      "laughed": 901,
      "##sh": 902,
      "sky": 903,
      "jump": 904,
      "gl": 905,
      "Yes": 906,
      "loud": 907,
      "##self": 908,
      "##iny": 909,
      "way": 910,
      "come": 911,
      "beauti": 912,
      "##lew": 913,
      "list": 914,
      "wo": 915,
      "beautiful": 916,
      "hard": 917,
      "lots": 918,
      "##ase": 919,
      "Can": 920,
      "still": 921,
      "fam": 922,
      "animals": 923,
      "Joh": 924,
      "hurt": 925,
      "under": 926,
      "let": 927,
      "stay": 928,
      "##wn": 929,
      "both": 930,
      "##hes": 931,
      "##ct": 932,
      "##ool": 933,
      "safe": 934,
      "##ree": 935,
      "##be": 936,
      "lea": 937,
      "two": 938,
      "col": 939,
      "di": 940,
      "book": 941,
      "bad": 942,
      "##ople": 943,
      "rem": 944,
      "##ace": 945,
      "imp": 946,
      "##ane": 947,
      "As": 948,
      "lived": 949,
      "Luc": 950,
      "##kay": 951,
      "Lucy": 952,
      "##ock": 953,
      "walked": 954,
      "su": 955,
      "##urpr": 956,
      "should": 957,
      "brave": 958,
      "its": 959,
      "##ob": 960,
      "##ished": 961,
      "surpr": 962,
      "angry": 963,
      "family": 964,
      "people": 965,
      "##ress": 966,
      "##ept": 967,
      "##igh": 968,
      "Thank": 969,
      "flew": 970,
      "red": 971,
      "After": 972,
      "##ip": 973,
      "called": 974,
      "stor": 975,
      "fin": 976,
      "##eet": 977,
      "soon": 978,
      "##ast": 979,
      "##ect": 980,
      "##fore": 981,
      "##led": 982,
      "##art": 983,
      "John": 984,
      "kept": 985,
      "Dad": 986,
      "fore": 987,
      "dan": 988,
      "le": 989,
      "fly": 990,
      "share": 991,
      "##xt": 992,
      "##ised": 993,
      "No": 994,
      "##dded": 995,
      "pic": 996,
      "door": 997,
      "going": 998,
      "tur": 999,
      "pretty": 1000,
      "now": 1001,
      "keep": 1002,
      "clean": 1003,
      "rock": 1004,
      "dra": 1005,
      "advent": 1006,
      "##ummy": 1007,
      "##age": 1008,
      "noise": 1009,
      "opened": 1010,
      "con": 1011,
      "doll": 1012,
      "shiny": 1013,
      "wind": 1014,
      "before": 1015,
      "id": 1016,
      "cry": 1017,
      "idea": 1018,
      "##illy": 1019,
      "real": 1020,
      "sto": 1021,
      "##so": 1022,
      "##les": 1023,
      "Sp": 1024,
      "ground": 1025,
      "also": 1026,
      "explore": 1027,
      "far": 1028,
      "##ied": 1029,
      "€™": 1030,
      "ey": 1031,
      "fr": 1032,
      "color": 1033,
      "has": 1034,
      "nodded": 1035,
      "war": 1036,
      "feeling": 1037,
      "un": 1038,
      "Bob": 1039,
      "picked": 1040,
      "##imb": 1041,
      "##oy": 1042,
      "next": 1043,
      "walking": 1044,
      "##thing": 1045,
      "##ture": 1046,
      "##ting": 1047,
      "climb": 1048,
      "thr": 1049,
      "while": 1050,
      "##th": 1051,
      "bed": 1052,
      "smile": 1053,
      "adventure": 1054,
      "##qu": 1055,
      "##aybe": 1056,
      "##ser": 1057,
      "##iced": 1058,
      "##ger": 1059,
      "##ious": 1060,
      "looking": 1061,
      "being": 1062,
      "diff": 1063,
      "wr": 1064,
      "food": 1065,
      "##joy": 1066,
      "give": 1067,
      "picture": 1068,
      "think": 1069,
      "del": 1070,
      "Spot": 1071,
      "truck": 1072,
      "wait": 1073,
      "##ught": 1074,
      "tra": 1075,
      "tow": 1076,
      "eyes": 1077,
      "bro": 1078,
      "repl": 1079,
      "after": 1080,
      "gi": 1081,
      "year": 1082,
      "stopped": 1083,
      "listen": 1084,
      "bre": 1085,
      "Do": 1086,
      "walk": 1087,
      "vo": 1088,
      "##ember": 1089,
      "great": 1090,
      "wonder": 1091,
      "hands": 1092,
      "Sue": 1093,
      "head": 1094,
      "enjoy": 1095,
      "import": 1096,
      "flowers": 1097,
      "blue": 1098,
      "##irst": 1099,
      "ever": 1100,
      "noticed": 1101,
      "##bbit": 1102,
      "forest": 1103,
      "app": 1104,
      "near": 1105,
      "dis": 1106,
      "own": 1107,
      "##ized": 1108,
      "ac": 1109,
      "quick": 1110,
      "##able": 1111,
      "fish": 1112,
      "important": 1113,
      "remember": 1114,
      "##llow": 1115,
      "sound": 1116,
      "us": 1117,
      "slide": 1118,
      "##maz": 1119,
      "replied": 1120,
      "work": 1121,
      "amaz": 1122,
      "watch": 1123,
      "##lease": 1124,
      "rain": 1125,
      "showed": 1126,
      "okay": 1127,
      "rabbit": 1128,
      "##gan": 1129,
      "tal": 1130,
      "Sarah": 1131,
      "mean": 1132,
      "differ": 1133,
      "##bbed": 1134,
      "ru": 1135,
      "ask": 1136,
      "##day": 1137,
      "right": 1138,
      "tou": 1139,
      "Look": 1140,
      "watched": 1141,
      "##bye": 1142,
      "bright": 1143,
      "follow": 1144,
      "everyone": 1145,
      "strong": 1146,
      "stick": 1147,
      "This": 1148,
      "use": 1149,
      "been": 1150,
      "mor": 1151,
      "voice": 1152,
      "##ered": 1153,
      "##ath": 1154,
      "quickly": 1155,
      "where": 1156,
      "our": 1157,
      "yell": 1158,
      "Jane": 1159,
      "different": 1160,
      "child": 1161,
      "##ng": 1162,
      "##ey": 1163,
      "boat": 1164,
      "curi": 1165,
      "sure": 1166,
      "am": 1167,
      "Maybe": 1168,
      "goodbye": 1169,
      "became": 1170,
      "face": 1171,
      "place": 1172,
      "##ange": 1173,
      "does": 1174,
      "hop": 1175,
      "high": 1176,
      "##oon": 1177,
      "store": 1178,
      "##aught": 1179,
      "closer": 1180,
      "warm": 1181,
      "tea": 1182,
      "dress": 1183,
      "##unny": 1184,
      "##llo": 1185,
      "mag": 1186,
      "cook": 1187,
      "curious": 1188,
      "##ount": 1189,
      "bel": 1190,
      "##ila": 1191,
      "forg": 1192,
      "three": 1193,
      "##ass": 1194,
      "tell": 1195,
      "fav": 1196,
      "##ndma": 1197,
      "Lila": 1198,
      "ba": 1199,
      "##co": 1200,
      "##leep": 1201,
      "first": 1202,
      "night": 1203,
      "open": 1204,
      "shar": 1205,
      "cake": 1206,
      "here": 1207,
      "block": 1208,
      "##more": 1209,
      "anymore": 1210,
      "##imes": 1211,
      "##ull": 1212,
      "##itc": 1213,
      "pull": 1214,
      "##iss": 1215,
      "##ached": 1216,
      "In": 1217,
      "##ired": 1218,
      "butter": 1219,
      "##orn": 1220,
      "pain": 1221,
      "sweet": 1222,
      "mon": 1223,
      "kid": 1224,
      "grabbed": 1225,
      "only": 1226,
      "##isy": 1227,
      "fell": 1228,
      "per": 1229,
      "cont": 1230,
      "Everyone": 1231,
      "birds": 1232,
      "jumped": 1233,
      "sand": 1234,
      "glad": 1235,
      "bit": 1236,
      "##itchen": 1237,
      "kitchen": 1238,
      "squ": 1239,
      "sees": 1240,
      "helped": 1241,
      "fire": 1242,
      "flo": 1243,
      "stop": 1244,
      "Don": 1245,
      "##outed": 1246,
      "hear": 1247,
      "Joe": 1248,
      "cra": 1249,
      "happened": 1250,
      "sing": 1251,
      "grass": 1252,
      "tri": 1253,
      "Tommy": 1254,
      "dr": 1255,
      "bunny": 1256,
      "shouted": 1257,
      "##nts": 1258,
      "story": 1259,
      "##air": 1260,
      "beh": 1261,
      "brother": 1262,
      "reached": 1263,
      "yummy": 1264,
      "##ppy": 1265,
      "realized": 1266,
      "cr": 1267,
      "lady": 1268,
      "mum": 1269,
      "having": 1270,
      "prin": 1271,
      "##ins": 1272,
      "favor": 1273,
      "##ary": 1274,
      "mess": 1275,
      "learn": 1276,
      "ate": 1277,
      "less": 1278,
      "favorite": 1279,
      "through": 1280,
      "game": 1281,
      "draw": 1282,
      "cre": 1283,
      "hat": 1284,
      "underst": 1285,
      "soft": 1286,
      "pare": 1287,
      "##zy": 1288,
      "##ather": 1289,
      "thing": 1290,
      "really": 1291,
      "ready": 1292,
      "began": 1293,
      "pretend": 1294,
      "##where": 1295,
      "world": 1296,
      "##ken": 1297,
      "looks": 1298,
      "himself": 1299,
      "magic": 1300,
      "pap": 1301,
      "##fully": 1302,
      "Now": 1303,
      "done": 1304,
      "making": 1305,
      "butterf": 1306,
      "cut": 1307,
      "rest": 1308,
      "duck": 1309,
      "coming": 1310,
      "##ater": 1311,
      "pond": 1312,
      "kids": 1313,
      "why": 1314,
      "waved": 1315,
      "fro": 1316,
      "prom": 1317,
      "tired": 1318,
      "fix": 1319,
      "mouse": 1320,
      "worry": 1321,
      "cars": 1322,
      "fill": 1323,
      "##olly": 1324,
      "Fin": 1325,
      "delic": 1326,
      "name": 1327,
      "flower": 1328,
      "##aisy": 1329,
      "Sally": 1330,
      "touch": 1331,
      "##eddy": 1332,
      "used": 1333,
      "catch": 1334,
      "funny": 1335,
      "There": 1336,
      "thank": 1337,
      "hair": 1338,
      "seen": 1339,
      "##oney": 1340,
      "##bo": 1341,
      "tast": 1342,
      "##ak": 1343,
      "##ient": 1344,
      "top": 1345,
      "another": 1346,
      "parents": 1347,
      "##rel": 1348,
      "Wow": 1349,
      "hold": 1350,
      "hopped": 1351,
      "cried": 1352,
      "##iver": 1353,
      "blocks": 1354,
      "##mer": 1355,
      "doing": 1356,
      "cool": 1357,
      "years": 1358,
      "##ac": 1359,
      "\".": 1360,
      "surprise": 1361,
      "green": 1362,
      "turn": 1363,
      "##ster": 1364,
      "light": 1365,
      "##ation": 1366,
      "##ons": 1367,
      "read": 1368,
      "floor": 1369,
      "din": 1370,
      "##ards": 1371,
      "dri": 1372,
      "wood": 1373,
      "full": 1374,
      "trees": 1375,
      "running": 1376,
      "worked": 1377,
      "window": 1378,
      "lesson": 1379,
      "dro": 1380,
      "smell": 1381,
      "dark": 1382,
      "wear": 1383,
      "par": 1384,
      "behind": 1385,
      "spot": 1386,
      "##ul": 1387,
      "likes": 1388,
      "paper": 1389,
      "wished": 1390,
      "##andy": 1391,
      "yellow": 1392,
      "bag": 1393,
      "##ued": 1394,
      "bow": 1395,
      "##ren": 1396,
      "sho": 1397,
      "##ely": 1398,
      "swim": 1399,
      "happily": 1400,
      "sat": 1401,
      "Daisy": 1402,
      "Em": 1403,
      "##us": 1404,
      "sleep": 1405,
      "Jim": 1406,
      "surprised": 1407,
      "frog": 1408,
      "set": 1409,
      "butterfly": 1410,
      "Benny": 1411,
      "##ike": 1412,
      "swing": 1413,
      "carefully": 1414,
      "lost": 1415,
      "buy": 1416,
      "To": 1417,
      "slow": 1418,
      "remembered": 1419,
      "cold": 1420,
      "held": 1421,
      "##uff": 1422,
      "ice": 1423,
      "hole": 1424,
      "At": 1425,
      "##rew": 1426,
      "laugh": 1427,
      "needed": 1428,
      "left": 1429,
      "perf": 1430,
      "Gra": 1431,
      "Billy": 1432,
      "ste": 1433,
      "move": 1434,
      "##cess": 1435,
      "##reed": 1436,
      "tall": 1437,
      "anything": 1438,
      "dream": 1439,
      "enjoyed": 1440,
      "wrong": 1441,
      "Hello": 1442,
      "books": 1443,
      "##lf": 1444,
      "arri": 1445,
      "fair": 1446,
      "air": 1447,
      "followed": 1448,
      "Finally": 1449,
      "##ross": 1450,
      "children": 1451,
      "bus": 1452,
      "hun": 1453,
      "table": 1454,
      "delicious": 1455,
      "Molly": 1456,
      "please": 1457,
      "finished": 1458,
      "contin": 1459,
      "friendly": 1460,
      "hot": 1461,
      "dir": 1462,
      "ll": 1463,
      "snow": 1464,
      "##ens": 1465,
      "##ds": 1466,
      "el": 1467,
      "herself": 1468,
      "cream": 1469,
      "Amy": 1470,
      "hill": 1471,
      "understand": 1472,
      "##ined": 1473,
      "close": 1474,
      "hid": 1475,
      "arrived": 1476,
      "cast": 1477,
      "baby": 1478,
      "else": 1479,
      "arm": 1480,
      "wonderful": 1481,
      "might": 1482,
      "gent": 1483,
      "res": 1484,
      "tight": 1485,
      "forgot": 1486,
      "yes": 1487,
      "##ield": 1488,
      "bug": 1489,
      "Jen": 1490,
      "build": 1491,
      "colors": 1492,
      "rel": 1493,
      "##ner": 1494,
      "sig": 1495,
      "broken": 1496,
      "able": 1497,
      "##ich": 1498,
      "##av": 1499,
      "gone": 1500,
      "filled": 1501,
      "song": 1502,
      "wall": 1503,
      "squir": 1504,
      "mat": 1505,
      "agreed": 1506,
      "fur": 1507,
      "gu": 1508,
      "someone": 1509,
      "##room": 1510,
      "continued": 1511,
      "creat": 1512,
      "pat": 1513,
      "wants": 1514,
      "##asure": 1515,
      "count": 1516,
      "##set": 1517,
      "leaves": 1518,
      "pink": 1519,
      "squirrel": 1520,
      "##ask": 1521,
      "bar": 1522,
      "enough": 1523,
      "lion": 1524,
      "##ama": 1525,
      "vis": 1526,
      "morning": 1527,
      "Why": 1528,
      "moment": 1529,
      "OK": 1530,
      "finally": 1531,
      "getting": 1532,
      "cookies": 1533,
      "break": 1534,
      "stayed": 1535,
      "##ence": 1536,
      "poin": 1537,
      "##ance": 1538,
      "##shed": 1539,
      "beach": 1540,
      "few": 1541,
      "##app": 1542,
      "##ries": 1543,
      "fight": 1544,
      "scary": 1545,
      "sometimes": 1546,
      "##ced": 1547,
      "##row": 1548,
      "##red": 1549,
      "turned": 1550,
      "dinner": 1551,
      "hungry": 1552,
      "fall": 1553,
      "mother": 1554,
      "grandma": 1555,
      "##gon": 1556,
      "ju": 1557,
      "pi": 1558,
      "wet": 1559,
      "makes": 1560,
      "amazing": 1561,
      "trying": 1562,
      "##apped": 1563,
      "plan": 1564,
      "perfect": 1565,
      "daddy": 1566,
      "comp": 1567,
      "castle": 1568,
      "others": 1569,
      "##oup": 1570,
      "mar": 1571,
      "climbed": 1572,
      "##key": 1573,
      "##amp": 1574,
      "pictures": 1575,
      "talk": 1576,
      "met": 1577,
      "white": 1578,
      "mus": 1579,
      "##oom": 1580,
      "listened": 1581,
      "Jill": 1582,
      "smiles": 1583,
      "balloon": 1584,
      "##man": 1585,
      "clot": 1586,
      "##oring": 1587,
      "Come": 1588,
      "clothes": 1589,
      "alone": 1590,
      "pol": 1591,
      "tail": 1592,
      "##ated": 1593,
      "spl": 1594,
      "joy": 1595,
      "##rot": 1596,
      "puppy": 1597,
      "##ee": 1598,
      "brought": 1599,
      "wasn": 1600,
      "deep": 1601,
      "everything": 1602,
      "pet": 1603,
      "##ister": 1604,
      "sear": 1605,
      "##ctor": 1606,
      "strange": 1607,
      "##der": 1608,
      "spark": 1609,
      "##elc": 1610,
      "grow": 1611,
      "sit": 1612,
      "##ott": 1613,
      "woods": 1614,
      "start": 1615,
      "pulled": 1616,
      "##ling": 1617,
      "sail": 1618,
      "##sp": 1619,
      "won": 1620,
      "ride": 1621,
      "asks": 1622,
      "##eter": 1623,
      "treat": 1624,
      "pie": 1625,
      "fox": 1626,
      "danger": 1627,
      "Daddy": 1628,
      "roll": 1629,
      "visit": 1630,
      "##uffy": 1631,
      "##os": 1632,
      "leave": 1633,
      "Soon": 1634,
      "Oh": 1635,
      "##med": 1636,
      "Mama": 1637,
      "##ucky": 1638,
      "music": 1639,
      "##ang": 1640,
      "amazed": 1641,
      "##me": 1642,
      "waited": 1643,
      "ow": 1644,
      "hide": 1645,
      "teddy": 1646,
      "towards": 1647,
      "All": 1648,
      "##ever": 1649,
      "pre": 1650,
      "field": 1651,
      "##ower": 1652,
      "land": 1653,
      "##ead": 1654,
      "##cy": 1655,
      "pen": 1656,
      "flying": 1657,
      "##lep": 1658,
      "##zz": 1659,
      "runs": 1660,
      "##ained": 1661,
      "silly": 1662,
      "shared": 1663,
      "owner": 1664,
      "##ames": 1665,
      "cloud": 1666,
      "sec": 1667,
      "##gs": 1668,
      "##ape": 1669,
      "belie": 1670,
      "living": 1671,
      "job": 1672,
      "##ol": 1673,
      "##ugg": 1674,
      "qui": 1675,
      "##ash": 1676,
      "side": 1677,
      "promised": 1678,
      "##igg": 1679,
      "##orm": 1680,
      "moral": 1681,
      "lake": 1682,
      "thinks": 1683,
      "##cket": 1684,
      "money": 1685,
      "Mary": 1686,
      "paint": 1687,
      "sister": 1688,
      "##ope": 1689,
      "##thy": 1690,
      "party": 1691,
      "##ually": 1692,
      "quiet": 1693,
      "must": 1694,
      "##ises": 1695,
      "race": 1696,
      "##cle": 1697,
      "##avy": 1698,
      "Okay": 1699,
      "##eces": 1700,
      "##sw": 1701,
      "pieces": 1702,
      "worried": 1703,
      "answ": 1704,
      "##unch": 1705,
      "bott": 1706,
      "pot": 1707,
      "Just": 1708,
      "Mr": 1709,
      "cup": 1710,
      "slowly": 1711,
      "colorful": 1712,
      "faster": 1713,
      "grate": 1714,
      "dance": 1715,
      "bran": 1716,
      "Fl": 1717,
      "welc": 1718,
      "broke": 1719,
      "##ix": 1720,
      "Sure": 1721,
      "St": 1722,
      "grateful": 1723,
      "such": 1724,
      "bigger": 1725,
      "pro": 1726,
      "cho": 1727,
      "##ze": 1728,
      "train": 1729,
      "stu": 1730,
      "snack": 1731,
      "reach": 1732,
      "blank": 1733,
      "ear": 1734,
      "monster": 1735,
      "candy": 1736,
      "join": 1737,
      "black": 1738,
      "win": 1739,
      "river": 1740,
      "##less": 1741,
      "##uit": 1742,
      "##ased": 1743,
      "blanket": 1744,
      "##eak": 1745,
      "scream": 1746,
      "treasure": 1747,
      "magical": 1748,
      "princess": 1749,
      "smart": 1750,
      "bike": 1751,
      "dangerous": 1752,
      "dragon": 1753,
      "across": 1754,
      "monkey": 1755,
      "most": 1756,
      "everywhere": 1757,
      "helping": 1758,
      "em": 1759,
      "nap": 1760,
      "Jimmy": 1761,
      "Mum": 1762,
      "farmer": 1763,
      "pea": 1764,
      "##outh": 1765,
      "##aw": 1766,
      "##cked": 1767,
      "Grandma": 1768,
      "mouth": 1769,
      "disapp": 1770,
      "min": 1771,
      "##icy": 1772,
      "words": 1773,
      "##eared": 1774,
      "stre": 1775,
      "##ming": 1776,
      "tower": 1777,
      "pass": 1778,
      "same": 1779,
      "threw": 1780,
      "dolls": 1781,
      "stepped": 1782,
      "heavy": 1783,
      "##ches": 1784,
      "##leph": 1785,
      "bowl": 1786,
      "bite": 1787,
      "##ored": 1788,
      "dirty": 1789,
      "twins": 1790,
      "##de": 1791,
      "bee": 1792,
      "believe": 1793,
      "crying": 1794,
      "spr": 1795,
      "acc": 1796,
      "doctor": 1797,
      "##chool": 1798,
      "##ident": 1799,
      "sign": 1800,
      "bath": 1801,
      "wouldn": 1802,
      "heal": 1803,
      "Hi": 1804,
      "##fort": 1805,
      "hig": 1806,
      "##bble": 1807,
      "carrot": 1808,
      "closed": 1809,
      "##ale": 1810,
      "plant": 1811,
      "heart": 1812,
      "fruit": 1813,
      "school": 1814,
      "cour": 1815,
      "stuck": 1816,
      "buck": 1817,
      "att": 1818,
      "Please": 1819,
      "brown": 1820,
      "##asket": 1821,
      "Emma": 1822,
      "##ipped": 1823,
      "hoped": 1824,
      "basket": 1825,
      "##iting": 1826,
      "suddenly": 1827,
      "mix": 1828,
      "chair": 1829,
      "feels": 1830,
      "coll": 1831,
      "eating": 1832,
      "town": 1833,
      "cray": 1834,
      "pack": 1835,
      "course": 1836,
      "##cher": 1837,
      "clapped": 1838,
      "ve": 1839,
      "How": 1840,
      "gentle": 1841,
      "##pping": 1842,
      "fairy": 1843,
      "butt": 1844,
      "stand": 1845,
      "##ventually": 1846,
      "##ire": 1847,
      "##ors": 1848,
      "##ier": 1849,
      "drove": 1850,
      "welcome": 1851,
      "pushed": 1852,
      "##br": 1853,
      "##issed": 1854,
      "without": 1855,
      "Inside": 1856,
      "today": 1857,
      "neigh": 1858,
      "swings": 1859,
      "higher": 1860,
      "pocket": 1861,
      "##orrow": 1862,
      "hit": 1863,
      "teacher": 1864,
      "pers": 1865,
      "œI": 1866,
      "neighb": 1867,
      "##ord": 1868,
      "free": 1869,
      "games": 1870,
      "piece": 1871,
      "smo": 1872,
      "##ourn": 1873,
      "cheered": 1874,
      "wings": 1875,
      "ben": 1876,
      "forget": 1877,
      "journ": 1878,
      "longer": 1879,
      "yard": 1880,
      "explained": 1881,
      "##ment": 1882,
      "##ible": 1883,
      "corn": 1884,
      "accident": 1885,
      "dry": 1886,
      "##umb": 1887,
      "along": 1888,
      "Their": 1889,
      "##ract": 1890,
      "neck": 1891,
      "##itting": 1892,
      "noises": 1893,
      "inst": 1894,
      "sang": 1895,
      "throw": 1896,
      "late": 1897,
      "happen": 1898,
      "##vel": 1899,
      "hugs": 1900,
      "young": 1901,
      "shoes": 1902,
      "turns": 1903,
      "stories": 1904,
      "##lephant": 1905,
      "lon": 1906,
      "miss": 1907,
      "##sc": 1908,
      "adventures": 1909,
      "singing": 1910,
      "Re": 1911,
      "well": 1912,
      "gift": 1913,
      "apple": 1914,
      "##ts": 1915,
      "jar": 1916,
      "lunch": 1917,
      "Tw": 1918,
      "shap": 1919,
      "trou": 1920,
      "upset": 1921,
      "dist": 1922,
      "lonely": 1923,
      "key": 1924,
      "tom": 1925,
      "##bby": 1926,
      "street": 1927,
      "belong": 1928,
      "mine": 1929,
      "elephant": 1930,
      "plac": 1931,
      "secret": 1932,
      "##oun": 1933,
      "fence": 1934,
      "wish": 1935,
      "##ountain": 1936,
      "Fluffy": 1937,
      "shook": 1938,
      "exploring": 1939,
      "moved": 1940,
      "purp": 1941,
      "Sammy": 1942,
      "Go": 1943,
      "##aughty": 1944,
      "nearby": 1945,
      "shop": 1946,
      "soup": 1947,
      "naughty": 1948,
      "wise": 1949,
      "bring": 1950,
      "stars": 1951,
      "exp": 1952,
      "owl": 1953,
      "##fused": 1954,
      "whe": 1955,
      "##ail": 1956,
      "inv": 1957,
      "##bow": 1958,
      "caught": 1959,
      "##ocked": 1960,
      "##yard": 1961,
      "ph": 1962,
      "##ward": 1963,
      "bat": 1964,
      "##ces": 1965,
      "sea": 1966,
      "backyard": 1967,
      "seemed": 1968,
      "drink": 1969,
      "relie": 1970,
      "dropped": 1971,
      "rocks": 1972,
      "Al": 1973,
      "##aughter": 1974,
      "des": 1975,
      "bucket": 1976,
      "Be": 1977,
      "farm": 1978,
      "purple": 1979,
      "je": 1980,
      "##adow": 1981,
      "swam": 1982,
      "resp": 1983,
      "##ions": 1984,
      "taking": 1985,
      "mail": 1986,
      "##sy": 1987,
      "orange": 1988,
      "though": 1989,
      "cow": 1990,
      "past": 1991,
      "shapes": 1992,
      "##ity": 1993,
      "##og": 1994,
      "takes": 1995,
      "woke": 1996,
      "My": 1997,
      "bench": 1998,
      "##ek": 1999,
      "hello": 2000,
      "sounds": 2001,
      "af": 2002,
      "##ung": 2003,
      "fit": 2004,
      "busy": 2005,
      "wondered": 2006,
      "##ours": 2007,
      "ob": 2008,
      "tiny": 2009,
      "Later": 2010,
      "mil": 2011,
      "##ese": 2012,
      "mark": 2013,
      "nose": 2014,
      "sitting": 2015,
      "##col": 2016,
      "rainbow": 2017,
      "nest": 2018,
      "daughter": 2019,
      "de": 2020,
      "mad": 2021,
      "##fish": 2022,
      "kite": 2023,
      "cou": 2024,
      "holding": 2025,
      "##read": 2026,
      "nothing": 2027,
      "part": 2028,
      "##cing": 2029,
      "juice": 2030,
      "##cks": 2031,
      "comes": 2032,
      "##thday": 2033,
      "arms": 2034,
      "##ceful": 2035,
      "pig": 2036,
      "With": 2037,
      "coat": 2038,
      "Ell": 2039,
      "round": 2040,
      "##ining": 2041,
      "cir": 2042,
      "##ose": 2043,
      "branch": 2044,
      "##raid": 2045,
      "##que": 2046,
      "##gn": 2047,
      "relieved": 2048,
      "afraid": 2049,
      "te": 2050,
      "inter": 2051,
      "##idge": 2052,
      "driver": 2053,
      "##vered": 2054,
      "ca": 2055,
      "forever": 2056,
      "spoon": 2057,
      "Ch": 2058,
      "carry": 2059,
      "days": 2060,
      "cute": 2061,
      "Jenny": 2062,
      "##ost": 2063,
      "sick": 2064,
      "boun": 2065,
      "promise": 2066,
      "Tweet": 2067,
      "Good": 2068,
      "huge": 2069,
      "##unt": 2070,
      "patient": 2071,
      "touched": 2072,
      "king": 2073,
      "birthday": 2074,
      "fing": 2075,
      "letter": 2076,
      "cheese": 2077,
      "grab": 2078,
      "Of": 2079,
      "exciting": 2080,
      "##ching": 2081,
      "sunny": 2082,
      "onto": 2083,
      "bush": 2084,
      "##ped": 2085,
      "laughing": 2086,
      "##board": 2087,
      "band": 2088,
      "journey": 2089,
      "gigg": 2090,
      "bread": 2091,
      "creature": 2092,
      "disco": 2093,
      "##ittens": 2094,
      "ret": 2095,
      "inc": 2096,
      "life": 2097,
      "##oph": 2098,
      "imag": 2099,
      "kick": 2100,
      "power": 2101,
      "##shine": 2102,
      "##gged": 2103,
      "hope": 2104,
      "shell": 2105,
      "craw": 2106,
      "Emily": 2107,
      "cozy": 2108,
      "swimming": 2109,
      "bottle": 2110,
      "##let": 2111,
      "##gg": 2112,
      "milk": 2113,
      "wra": 2114,
      "sharp": 2115,
      "mist": 2116,
      "suc": 2117,
      "##ness": 2118,
      "instead": 2119,
      "retur": 2120,
      "watching": 2121,
      "whist": 2122,
      "spin": 2123,
      "##ten": 2124,
      "##esting": 2125,
      "bought": 2126,
      "##alm": 2127,
      "accidentally": 2128,
      "eas": 2129,
      "sunshine": 2130,
      "shout": 2131,
      "cave": 2132,
      "##pa": 2133,
      "spo": 2134,
      "gives": 2135,
      "puts": 2136,
      "Hey": 2137,
      "lucky": 2138,
      "har": 2139,
      "talked": 2140,
      "honey": 2141,
      "Somet": 2142,
      "pudd": 2143,
      "pointed": 2144,
      "ent": 2145,
      "gather": 2146,
      "apples": 2147,
      "road": 2148,
      "minut": 2149,
      "smiling": 2150,
      "##els": 2151,
      "hor": 2152,
      "anyone": 2153,
      "sandw": 2154,
      "later": 2155,
      "ce": 2156,
      "searched": 2157,
      "##ball": 2158,
      "fan": 2159,
      "roar": 2160,
      "##itch": 2161,
      "##itten": 2162,
      "act": 2163,
      "##irt": 2164,
      "##blem": 2165,
      "##ize": 2166,
      "problem": 2167,
      "meet": 2168,
      "mach": 2169,
      "If": 2170,
      "wom": 2171,
      "loves": 2172,
      "interesting": 2173,
      "woman": 2174,
      "plane": 2175,
      "pres": 2176,
      "kiss": 2177,
      "healthy": 2178,
      "ducks": 2179,
      "##ears": 2180,
      "##ond": 2181,
      "pile": 2182,
      "tasty": 2183,
      "##ipp": 2184,
      "wide": 2185,
      "##ub": 2186,
      "clever": 2187,
      "vill": 2188,
      "##aur": 2189,
      "##amed": 2190,
      "zoom": 2191,
      "adm": 2192,
      "crayons": 2193,
      "person": 2194,
      "##ont": 2195,
      "##ove": 2196,
      "spid": 2197,
      "prot": 2198,
      "##round": 2199,
      "eag": 2200,
      "trouble": 2201,
      "matter": 2202,
      "##ndpa": 2203,
      "##erly": 2204,
      "##ert": 2205,
      "pop": 2206,
      "##owed": 2207,
      "clouds": 2208,
      "storm": 2209,
      "pill": 2210,
      "path": 2211,
      "feather": 2212,
      "rope": 2213,
      "##fted": 2214,
      "œW": 2215,
      "##fortable": 2216,
      "shining": 2217,
      "front": 2218,
      "smelled": 2219,
      "hon": 2220,
      "Where": 2221,
      "##eb": 2222,
      "pract": 2223,
      "Jake": 2224,
      "button": 2225,
      "##umber": 2226,
      "which": 2227,
      "val": 2228,
      "spotted": 2229,
      "zoo": 2230,
      "present": 2231,
      "screamed": 2232,
      "ap": 2233,
      "mud": 2234,
      "Are": 2235,
      "saf": 2236,
      "organ": 2237,
      "danced": 2238,
      "quest": 2239,
      "##dge": 2240,
      "appeared": 2241,
      "seat": 2242,
      "puzz": 2243,
      "cheer": 2244,
      "##isa": 2245,
      "snowman": 2246,
      "bur": 2247,
      "Mittens": 2248,
      "snake": 2249,
      "##ular": 2250,
      "thin": 2251,
      "sur": 2252,
      "Together": 2253,
      "wild": 2254,
      "##fl": 2255,
      "asleep": 2256,
      "lovely": 2257,
      "answer": 2258,
      "##cer": 2259,
      "##epend": 2260,
      "neighbor": 2261,
      "wearing": 2262,
      "goes": 2263,
      "horse": 2264,
      "##oose": 2265,
      "gently": 2266,
      "bark": 2267,
      "whole": 2268,
      "giant": 2269,
      "places": 2270,
      "Lisa": 2271,
      "##akes": 2272,
      "trip": 2273,
      "shr": 2274,
      "med": 2275,
      "corner": 2276,
      "impress": 2277,
      "dirt": 2278,
      "##ato": 2279,
      "mind": 2280,
      "splas": 2281,
      "supp": 2282,
      "tries": 2283,
      "spent": 2284,
      "Sometimes": 2285,
      "respect": 2286,
      "confused": 2287,
      "live": 2288,
      "card": 2289,
      "feet": 2290,
      "rolled": 2291,
      "slid": 2292,
      "ser": 2293,
      "##nic": 2294,
      "tasted": 2295,
      "##cean": 2296,
      "ash": 2297,
      "ocean": 2298,
      "forgive": 2299,
      "picnic": 2300,
      "last": 2301,
      "machine": 2302,
      "drive": 2303,
      "rude": 2304,
      "teet": 2305,
      "Mummy": 2306,
      "teeth": 2307,
      "phone": 2308,
      "##izz": 2309,
      "##ssed": 2310,
      "##itty": 2311,
      "pan": 2312,
      "oven": 2313,
      "pour": 2314,
      "calm": 2315,
      "cookie": 2316,
      "pretended": 2317,
      "delight": 2318,
      "rec": 2319,
      "spider": 2320,
      "furry": 2321,
      "Peter": 2322,
      "ring": 2323,
      "##la": 2324,
      "lay": 2325,
      "worm": 2326,
      "##unk": 2327,
      "faces": 2328,
      "protect": 2329,
      "chick": 2330,
      "helpful": 2331,
      "lad": 2332,
      "Little": 2333,
      "##bar": 2334,
      "sal": 2335,
      "wip": 2336,
      "eventually": 2337,
      "wave": 2338,
      "ban": 2339,
      "mountain": 2340,
      "##ones": 2341,
      "chocol": 2342,
      "talking": 2343,
      "fold": 2344,
      "rob": 2345,
      "shy": 2346,
      "##arge": 2347,
      "tomorrow": 2348,
      "sel": 2349,
      "Here": 2350,
      "foot": 2351,
      "tid": 2352,
      "spread": 2353,
      "ign": 2354,
      "village": 2355,
      "bubble": 2356,
      "tun": 2357,
      "remind": 2358,
      "coin": 2359,
      "##ife": 2360,
      "building": 2361,
      "write": 2362,
      "couch": 2363,
      "Teddy": 2364,
      "push": 2365,
      "seek": 2366,
      "ladder": 2367,
      "##per": 2368,
      "collect": 2369,
      "smooth": 2370,
      "fighting": 2371,
      "##lex": 2372,
      "treats": 2373,
      "wore": 2374,
      "tool": 2375,
      "chased": 2376,
      "blew": 2377,
      "stret": 2378,
      "##als": 2379,
      "pool": 2380,
      "##barra": 2381,
      "bugs": 2382,
      "step": 2383,
      "embarra": 2384,
      "finish": 2385,
      "hiding": 2386,
      "cross": 2387,
      "neckl": 2388,
      "waiting": 2389,
      "coo": 2390,
      "robot": 2391,
      "knee": 2392,
      "Some": 2393,
      "songs": 2394,
      "puddle": 2395,
      "bell": 2396,
      "shelf": 2397,
      "##ator": 2398,
      "stir": 2399,
      "cann": 2400,
      "maybe": 2401,
      "rep": 2402,
      "whenever": 2403,
      "Sus": 2404,
      "ant": 2405,
      "stra": 2406,
      "selfish": 2407,
      "Bu": 2408,
      "chocolate": 2409,
      "cannot": 2410,
      "##ult": 2411,
      "string": 2412,
      "sol": 2413,
      "large": 2414,
      "Everywhere": 2415,
      "taste": 2416,
      "leaf": 2417,
      "hum": 2418,
      "banan": 2419,
      "net": 2420,
      "paw": 2421,
      "ple": 2422,
      "sack": 2423,
      "##box": 2424,
      "wash": 2425,
      "fixed": 2426,
      "##lebr": 2427,
      "tidy": 2428,
      "spray": 2429,
      "barked": 2430,
      "##umpy": 2431,
      "colour": 2432,
      "stone": 2433,
      "celebr": 2434,
      "Johnn": 2435,
      "gen": 2436,
      "##ird": 2437,
      "Stop": 2438,
      "cloth": 2439,
      "crab": 2440,
      "hours": 2441,
      "##NS": 2442,
      "œT": 2443,
      "peaceful": 2444,
      "œY": 2445,
      "Le": 2446,
      "uni": 2447,
      "Who": 2448,
      "shirt": 2449,
      "##ungle": 2450,
      "hel": 2451,
      "Johnny": 2452,
      "##ush": 2453,
      "deter": 2454,
      "##airs": 2455,
      "##oin": 2456,
      "missed": 2457,
      "Alice": 2458,
      "##hat": 2459,
      "##iger": 2460,
      "jungle": 2461,
      "##elly": 2462,
      "determ": 2463,
      "forward": 2464,
      "landed": 2465,
      "embarrassed": 2466,
      "clear": 2467,
      "minutes": 2468,
      "necklace": 2469,
      "jumping": 2470,
      "honest": 2471,
      "decor": 2472,
      "trust": 2473,
      "hears": 2474,
      "TV": 2475,
      "sticks": 2476,
      "moon": 2477,
      "int": 2478,
      "Even": 2479,
      "creative": 2480,
      "sharing": 2481,
      "emp": 2482,
      "teach": 2483,
      "Rex": 2484,
      "carrots": 2485,
      "##most": 2486,
      "success": 2487,
      "##getable": 2488,
      "knocked": 2489,
      "disappoin": 2490,
      "##ying": 2491,
      "Help": 2492,
      "meadow": 2493,
      "vegetable": 2494,
      "Bo": 2495,
      "whis": 2496,
      "legs": 2497,
      "gener": 2498,
      "While": 2499,
      "bal": 2500,
      "stood": 2501,
      "meant": 2502,
      "breath": 2503,
      "plate": 2504,
      "tightly": 2505,
      "almost": 2506,
      "ashamed": 2507,
      "sour": 2508,
      "pay": 2509,
      "##orry": 2510,
      "##dle": 2511,
      "splash": 2512,
      "gray": 2513,
      "gas": 2514,
      "empty": 2515,
      "grew": 2516,
      "tells": 2517,
      "##ony": 2518,
      "pillow": 2519,
      "##ian": 2520,
      "##ground": 2521,
      "whistle": 2522,
      "Me": 2523,
      "sheep": 2524,
      "ber": 2525,
      "Sorry": 2526,
      "understood": 2527,
      "carried": 2528,
      "##den": 2529,
      "lem": 2530,
      "##ets": 2531,
      "yelled": 2532,
      "these": 2533,
      "save": 2534,
      "##ustr": 2535,
      "nut": 2536,
      "nods": 2537,
      "police": 2538,
      "snacks": 2539,
      "##vous": 2540,
      "##ital": 2541,
      "disappointed": 2542,
      "number": 2543,
      "jew": 2544,
      "Leo": 2545,
      "gold": 2546,
      "myster": 2547,
      "##ork": 2548,
      "##hin": 2549,
      "hosp": 2550,
      "##ina": 2551,
      "sparkly": 2552,
      "hospital": 2553,
      "ship": 2554,
      "Br": 2555,
      "kitten": 2556,
      "pri": 2557,
      "pizz": 2558,
      "line": 2559,
      "Today": 2560,
      "##urse": 2561,
      "Mark": 2562,
      "bored": 2563,
      "##iff": 2564,
      "Give": 2565,
      "generous": 2566,
      "frustr": 2567,
      "hidden": 2568,
      "Bl": 2569,
      "taught": 2570,
      "group": 2571,
      "class": 2572,
      "standing": 2573,
      "rad": 2574,
      "plants": 2575,
      "##ected": 2576,
      "scarf": 2577,
      "chew": 2578,
      "glass": 2579,
      "returned": 2580,
      "hur": 2581,
      "bedroom": 2582,
      "knowing": 2583,
      "seed": 2584,
      "blow": 2585,
      "easy": 2586,
      "polite": 2587,
      "mysterious": 2588,
      "waves": 2589,
      "sighed": 2590,
      "shore": 2591,
      "sold": 2592,
      "Your": 2593,
      "tick": 2594,
      "wolf": 2595,
      "##kin": 2596,
      "Susie": 2597,
      "determined": 2598,
      "pizza": 2599,
      "fig": 2600,
      "puzzle": 2601,
      "powerful": 2602,
      "sandwich": 2603,
      "Dan": 2604,
      "thankful": 2605,
      "sco": 2606,
      "jelly": 2607,
      "ner": 2608,
      "pir": 2609,
      "passed": 2610,
      "sleepy": 2611,
      "prince": 2612,
      "##ested": 2613,
      "drew": 2614,
      "spicy": 2615,
      "finger": 2616,
      "closet": 2617,
      "pin": 2618,
      "spoil": 2619,
      "frustrated": 2620,
      "nervous": 2621,
      "gun": 2622,
      "fancy": 2623,
      "reg": 2624,
      "messy": 2625,
      "##aul": 2626,
      "##work": 2627,
      "##pill": 2628,
      "##pillar": 2629,
      "lock": 2630,
      "feed": 2631,
      "gate": 2632,
      "bridge": 2633,
      "##osaur": 2634,
      "kissed": 2635,
      "fear": 2636,
      "mot": 2637,
      "av": 2638,
      "wis": 2639,
      "poor": 2640,
      "hang": 2641,
      "gathered": 2642,
      "##ote": 2643,
      "circ": 2644,
      "excite": 2645,
      "cater": 2646,
      "##uce": 2647,
      "caterpillar": 2648,
      "van": 2649,
      "flag": 2650,
      "esc": 2651,
      "week": 2652,
      "##ella": 2653,
      "##iddle": 2654,
      "##oop": 2655,
      "grumpy": 2656,
      "spend": 2657,
      "dinosaur": 2658,
      "yourself": 2659,
      "##ano": 2660,
      "##issors": 2661,
      "answered": 2662,
      "##pper": 2663,
      "cries": 2664,
      "often": 2665,
      "cand": 2666,
      "##mb": 2667,
      "##selves": 2668,
      "twirl": 2669,
      "chest": 2670,
      "scissors": 2671,
      "hopping": 2672,
      "tears": 2673,
      "##gly": 2674,
      "lit": 2675,
      "##pack": 2676,
      "##flower": 2677,
      "working": 2678,
      "mummy": 2679,
      "##aking": 2680,
      "ugly": 2681,
      "expens": 2682,
      "drop": 2683,
      "fil": 2684,
      "deer": 2685,
      "saved": 2686,
      "expensive": 2687,
      "ok": 2688,
      "##era": 2689,
      "excitement": 2690,
      "taken": 2691,
      "middle": 2692,
      "##izzy": 2693,
      "scr": 2694,
      "ones": 2695,
      "true": 2696,
      "wagged": 2697,
      "##ates": 2698,
      "pleased": 2699,
      "crown": 2700,
      "picks": 2701,
      "##illed": 2702,
      "leg": 2703,
      "gets": 2704,
      "sque": 2705,
      "##ugar": 2706,
      "boring": 2707,
      "Bobby": 2708,
      "##itter": 2709,
      "##oof": 2710,
      "tent": 2711,
      "vase": 2712,
      "asking": 2713,
      "##ueen": 2714,
      "##ual": 2715,
      ">>": 2716,
      "tie": 2717,
      "##body": 2718,
      "vegetables": 2719,
      "brush": 2720,
      "##ete": 2721,
      "cap": 2722,
      "lift": 2723,
      "boss": 2724,
      "giggled": 2725,
      "##aff": 2726,
      "##ggs": 2727,
      "##speci": 2728,
      "##specially": 2729,
      "cage": 2730,
      "eld": 2731,
      "mistake": 2732,
      "sugar": 2733,
      "eggs": 2734,
      "œL": 2735,
      "rocket": 2736,
      "##light": 2737,
      "mir": 2738,
      "stuff": 2739,
      "comfortable": 2740,
      "packed": 2741,
      "test": 2742,
      "dancing": 2743,
      "cost": 2744,
      "especially": 2745,
      "wander": 2746,
      "clown": 2747,
      "medic": 2748,
      "press": 2749,
      "fruits": 2750,
      "sight": 2751,
      "See": 2752,
      "##ots": 2753,
      "distance": 2754,
      "Blue": 2755,
      "knight": 2756,
      "Kitty": 2757,
      "##iness": 2758,
      "Mar": 2759,
      "soar": 2760,
      "Mandy": 2761,
      "Eventually": 2762,
      "dest": 2763,
      "walks": 2764,
      "drum": 2765,
      "fake": 2766,
      "lying": 2767,
      "pus": 2768,
      "##aged": 2769,
      "add": 2770,
      "##ror": 2771,
      "medicine": 2772,
      "bake": 2773,
      "glue": 2774,
      "moving": 2775,
      "##arl": 2776,
      "splashed": 2777,
      "sweetie": 2778,
      "bone": 2779,
      "flut": 2780,
      "dogs": 2781,
      "drawing": 2782,
      "change": 2783,
      "lemon": 2784,
      "mov": 2785,
      "disappeared": 2786,
      "##pt": 2787,
      "lead": 2788,
      "clap": 2789,
      "smelly": 2790,
      "pray": 2791,
      "become": 2792,
      "feathers": 2793,
      "[/": 2794,
      "sell": 2795,
      "Fred": 2796,
      "Pete": 2797,
      "lose": 2798,
      "moms": 2799,
      "licked": 2800,
      "calling": 2801,
      "##ory": 2802,
      "needs": 2803,
      "bathroom": 2804,
      "elderly": 2805,
      "playground": 2806,
      "match": 2807,
      "fis": 2808,
      "##yal": 2809,
      "lazy": 2810,
      "incred": 2811,
      "weak": 2812,
      "gar": 2813,
      "cri": 2814,
      "exam": 2815,
      "body": 2816,
      "questions": 2817,
      "horn": 2818,
      "?\".": 2819,
      "father": 2820,
      "yog": 2821,
      "wrote": 2822,
      "yours": 2823,
      "noisy": 2824,
      "mirror": 2825,
      "adventur": 2826,
      "mic": 2827,
      "sugg": 2828,
      "nod": 2829,
      "Ellie": 2830,
      "ord": 2831,
      "ext": 2832,
      "fluffy": 2833,
      "skipped": 2834,
      "wheel": 2835,
      "##eed": 2836,
      "eager": 2837,
      "check": 2838,
      "lamp": 2839,
      "dish": 2840,
      "loyal": 2841,
      "famous": 2842,
      "dig": 2843,
      "##land": 2844,
      "##ti": 2845,
      "covered": 2846,
      "rich": 2847,
      "##ha": 2848,
      "figure": 2849,
      "stones": 2850,
      "##ination": 2851,
      "End": 2852,
      "balls": 2853,
      "tape": 2854,
      "rare": 2855,
      "ruined": 2856,
      "drank": 2857,
      "##ating": 2858,
      "rid": 2859,
      "team": 2860,
      "content": 2861,
      "shows": 2862,
      "queen": 2863,
      "incredible": 2864,
      "glow": 2865,
      "map": 2866,
      "ind": 2867,
      "soap": 2868,
      "juicy": 2869,
      "shoot": 2870,
      "aw": 2871,
      "relax": 2872,
      "sailed": 2873,
      "##illi": 2874,
      "measure": 2875,
      "##zed": 2876,
      "##ately": 2877,
      "decide": 2878,
      "coins": 2879,
      "##hip": 2880,
      "Ella": 2881,
      "straw": 2882,
      "realised": 2883,
      "##umbled": 2884,
      "discovered": 2885,
      "borrow": 2886,
      "boys": 2887,
      "swan": 2888,
      "Bella": 2889,
      "extra": 2890,
      "ham": 2891,
      "By": 2892,
      "cleaned": 2893,
      "branches": 2894,
      "towel": 2895,
      "chicken": 2896,
      "board": 2897,
      "mod": 2898,
      "Brown": 2899,
      "motor": 2900,
      "##imp": 2901,
      "tiger": 2902,
      "tag": 2903,
      "barn": 2904,
      "joke": 2905,
      "fine": 2906,
      "adventurous": 2907,
      "balance": 2908,
      "diffic": 2909,
      "offered": 2910,
      "Rose": 2911,
      "##par": 2912,
      "mel": 2913,
      "##ages": 2914,
      "four": 2915,
      "turt": 2916,
      "lifted": 2917,
      "bubbles": 2918,
      "##cil": 2919,
      "colourful": 2920,
      "##ron": 2921,
      "Well": 2922,
      "frown": 2923,
      "Fr": 2924,
      "cover": 2925,
      "eye": 2926,
      "thick": 2927,
      "pencil": 2928,
      "##keep": 2929,
      "Bobo": 2930,
      "difficult": 2931,
      "bottom": 2932,
      "organized": 2933,
      "toug": 2934,
      "##alous": 2935,
      "Mrs": 2936,
      "happening": 2937,
      "unique": 2938,
      "dolp": 2939,
      "jealous": 2940,
      "##rag": 2941,
      "hose": 2942,
      "knife": 2943,
      "weird": 2944,
      "island": 2945,
      "##port": 2946,
      "Grandpa": 2947,
      "garage": 2948,
      "once": 2949,
      "fright": 2950,
      "managed": 2951,
      "Mike": 2952,
      "##imed": 2953,
      "hurts": 2954,
      "word": 2955,
      "Dave": 2956,
      "balloons": 2957,
      "learning": 2958,
      "crawled": 2959,
      "circle": 2960,
      "##ject": 2961,
      "arg": 2962,
      "desig": 2963,
      "saying": 2964,
      "berries": 2965,
      "kindness": 2966,
      "##ured": 2967,
      "ter": 2968,
      "##iv": 2969,
      "##lies": 2970,
      "tough": 2971,
      "##olog": 2972,
      "##ready": 2973,
      "added": 2974,
      "mighty": 2975,
      "bald": 2976,
      "already": 2977,
      "pointing": 2978,
      "chase": 2979,
      "favour": 2980,
      "Bet": 2981,
      "squee": 2982,
      "##gl": 2983,
      "search": 2984,
      "wand": 2985,
      "##ddy": 2986,
      "sil": 2987,
      "shake": 2988,
      "jewel": 2989,
      "hunt": 2990,
      "guess": 2991,
      "louder": 2992,
      "Sh": 2993,
      "##itar": 2994,
      "guitar": 2995,
      "Tweety": 2996,
      "norm": 2997,
      "##keeper": 2998,
      "harder": 2999,
      "ang": 3000,
      "apolog": 3001,
      "unus": 3002,
      "libr": 3003,
      "edge": 3004,
      "boxes": 3005,
      "spun": 3006,
      "ref": 3007,
      "##head": 3008,
      "hats": 3009,
      "valu": 3010,
      "strawber": 3011,
      "fool": 3012,
      "whale": 3013,
      "favourite": 3014,
      "pump": 3015,
      "Ow": 3016,
      "unusual": 3017,
      "##lev": 3018,
      "##rage": 3019,
      "enjoying": 3020,
      "record": 3021,
      "dizzy": 3022,
      "means": 3023,
      "times": 3024,
      "belonged": 3025,
      "grand": 3026,
      "trucks": 3027,
      "wrapped": 3028,
      "cheerful": 3029,
      "smoke": 3030,
      "market": 3031,
      "giving": 3032,
      "impressed": 3033,
      "##uggled": 3034,
      "sword": 3035,
      "normal": 3036,
      "grown": 3037,
      "Soph": 3038,
      "laughs": 3039,
      "Ne": 3040,
      "trunk": 3041,
      "##anged": 3042,
      "ears": 3043,
      "hero": 3044,
      "banana": 3045,
      "##ola": 3046,
      "##ature": 3047,
      "##ym": 3048,
      "loudly": 3049,
      "turtle": 3050,
      "##alk": 3051,
      "##illiant": 3052,
      "harm": 3053,
      "pil": 3054,
      "##ilt": 3055,
      "proudly": 3056,
      "scare": 3057,
      "brothers": 3058,
      "brilliant": 3059,
      "choose": 3060,
      "Cl": 3061,
      "circles": 3062,
      "terri": 3063,
      "goat": 3064,
      "bossy": 3065,
      "Ro": 3066,
      "whisp": 3067,
      "compet": 3068,
      "dreamed": 3069,
      "escape": 3070,
      "against": 3071,
      "invited": 3072,
      "cab": 3073,
      "##ipe": 3074,
      "skin": 3075,
      "painting": 3076,
      "helps": 3077,
      "##gy": 3078,
      "##cient": 3079,
      "Will": 3080,
      "flash": 3081,
      "acce": 3082,
      "pee": 3083,
      "frightened": 3084,
      "cart": 3085,
      "Lola": 3086,
      "##fast": 3087,
      "buttons": 3088,
      "##erry": 3089,
      "jack": 3090,
      "depend": 3091,
      "safely": 3092,
      "valuable": 3093,
      "##ouses": 3094,
      "wrap": 3095,
      "slipped": 3096,
      "birdie": 3097,
      "stubb": 3098,
      "cabin": 3099,
      "walls": 3100,
      "study": 3101,
      "breakfast": 3102,
      "ancient": 3103,
      "snee": 3104,
      "crayon": 3105,
      "wake": 3106,
      "stream": 3107,
      "happiness": 3108,
      "log": 3109,
      "Ge": 3110,
      "successful": 3111,
      "##edient": 3112,
      "##orge": 3113,
      "knows": 3114,
      "clay": 3115,
      "toast": 3116,
      "##emo": 3117,
      "foolish": 3118,
      "Would": 3119,
      "Nemo": 3120,
      "falls": 3121,
      "movie": 3122,
      "fridge": 3123,
      "unl": 3124,
      "lean": 3125,
      "stubborn": 3126,
      "shape": 3127,
      "tomato": 3128,
      "nicely": 3129,
      "space": 3130,
      "houses": 3131,
      "fat": 3132,
      "##cu": 3133,
      "fier": 3134,
      "##apping": 3135,
      "city": 3136,
      "##omed": 3137,
      "cudd": 3138,
      "dreams": 3139,
      "rough": 3140,
      "grandpa": 3141,
      "nosy": 3142,
      "office": 3143,
      "bloom": 3144,
      "delicate": 3145,
      "##pes": 3146,
      "obedient": 3147,
      "competit": 3148,
      "fierce": 3149,
      "chas": 3150,
      "Sn": 3151,
      "##ado": 3152,
      "##laimed": 3153,
      "dead": 3154,
      "icy": 3155,
      "shark": 3156,
      "suggested": 3157,
      "stri": 3158,
      "mem": 3159,
      "cher": 3160,
      "shells": 3161,
      "notice": 3162,
      "wagon": 3163,
      "exclaimed": 3164,
      "kinds": 3165,
      "bags": 3166,
      "mixed": 3167,
      "useful": 3168,
      "wiped": 3169,
      "poured": 3170,
      "##uth": 3171,
      "lights": 3172,
      "œLet": 3173,
      "thu": 3174,
      "egg": 3175,
      "locked": 3176,
      "tools": 3177,
      "sounded": 3178,
      "frag": 3179,
      "##atter": 3180,
      "aunt": 3181,
      "stove": 3182,
      "excitedly": 3183,
      "##wards": 3184,
      "explored": 3185,
      "clock": 3186,
      "Next": 3187,
      "son": 3188,
      "half": 3189,
      "rose": 3190,
      "George": 3191,
      "##oppy": 3192,
      "shadow": 3193,
      "##isted": 3194,
      "crack": 3195,
      "cro": 3196,
      "enc": 3197,
      "Whenever": 3198,
      "weal": 3199,
      "fountain": 3200,
      "dough": 3201,
      "##ention": 3202,
      "##ache": 3203,
      "perform": 3204,
      "Ducky": 3205,
      "themselves": 3206,
      "low": 3207,
      "bushes": 3208,
      "spoiled": 3209,
      "stumbled": 3210,
      "##ses": 3211,
      "lab": 3212,
      "!\".": 3213,
      "##dom": 3214,
      "showing": 3215,
      "##rell": 3216,
      "above": 3217,
      "##vice": 3218,
      "fingers": 3219,
      "##na": 3220,
      "smaller": 3221,
      "independ": 3222,
      "thoughtful": 3223,
      "##igin": 3224,
      "fragile": 3225,
      "witch": 3226,
      "##arry": 3227,
      "##ines": 3228,
      "##kn": 3229,
      "dependable": 3230,
      "print": 3231,
      "jog": 3232,
      "raced": 3233,
      "##arth": 3234,
      "playful": 3235,
      "##corn": 3236,
      "helm": 3237,
      "seem": 3238,
      "eng": 3239,
      "rode": 3240,
      "parrot": 3241,
      "spinning": 3242,
      "handed": 3243,
      "brightly": 3244,
      "origin": 3245,
      "rat": 3246,
      "built": 3247,
      "scrat": 3248,
      "law": 3249,
      "##ormous": 3250,
      "delighted": 3251,
      "counted": 3252,
      "admired": 3253,
      "enormous": 3254,
      "practice": 3255,
      "roof": 3256,
      "Bill": 3257,
      "jam": 3258,
      "kicked": 3259,
      "Toby": 3260,
      "zip": 3261,
      "changed": 3262,
      "ways": 3263,
      "##ience": 3264,
      "char": 3265,
      "cop": 3266,
      "##ither": 3267,
      "shone": 3268,
      "twig": 3269,
      "acorn": 3270,
      "cam": 3271,
      "original": 3272,
      "reminded": 3273,
      "using": 3274,
      "independent": 3275,
      "##reen": 3276,
      "sniff": 3277,
      "##anut": 3278,
      "hammer": 3279,
      "bitter": 3280,
      "chir": 3281,
      "loll": 3282,
      "whispered": 3283,
      "hoop": 3284,
      "##ipop": 3285,
      "brace": 3286,
      "##mbrell": 3287,
      "cone": 3288,
      "chose": 3289,
      "solve": 3290,
      "bees": 3291,
      "Pat": 3292,
      "jolly": 3293,
      "##known": 3294,
      "umbrell": 3295,
      "tunn": 3296,
      "##uring": 3297,
      "serious": 3298,
      "stronger": 3299,
      "steal": 3300,
      "lollipop": 3301,
      "tummy": 3302,
      "beak": 3303,
      "fre": 3304,
      "popcorn": 3305,
      "##arn": 3306,
      "terrible": 3307,
      "mis": 3308,
      "marble": 3309,
      "painted": 3310,
      "œYes": 3311,
      "Ba": 3312,
      "##ict": 3313,
      "boats": 3314,
      "allowed": 3315,
      "moder": 3316,
      "cleaning": 3317,
      "hairy": 3318,
      "sauce": 3319,
      "bean": 3320,
      "tank": 3321,
      "potato": 3322,
      "pa": 3323,
      "##iable": 3324,
      "leaving": 3325,
      "Joey": 3326,
      "unknown": 3327,
      "finding": 3328,
      "dust": 3329,
      "joined": 3330,
      "salad": 3331,
      "guard": 3332,
      "gasped": 3333,
      "pumpkin": 3334,
      "those": 3335,
      "picking": 3336,
      "##iew": 3337,
      "##het": 3338,
      "##pid": 3339,
      "post": 3340,
      "Bear": 3341,
      "Is": 3342,
      "clum": 3343,
      "bump": 3344,
      "##inary": 3345,
      "ing": 3346,
      "dove": 3347,
      "sink": 3348,
      "##amond": 3349,
      "costum": 3350,
      "reliable": 3351,
      "metal": 3352,
      "Kim": 3353,
      "yet": 3354,
      "bounce": 3355,
      "stamp": 3356,
      "doesn": 3357,
      "##robe": 3358,
      "view": 3359,
      "##tern": 3360,
      "tor": 3361,
      "square": 3362,
      "forth": 3363,
      "##aghet": 3364,
      "diamond": 3365,
      "##aghetti": 3366,
      "holds": 3367,
      "dolphin": 3368,
      "advice": 3369,
      "TH": 3370,
      "modern": 3371,
      "hay": 3372,
      "rubb": 3373,
      "thinking": 3374,
      "regular": 3375,
      "gem": 3376,
      "barber": 3377,
      "##gu": 3378,
      "##ebra": 3379,
      "pirate": 3380,
      "ingred": 3381,
      "ingredient": 3382,
      "stupid": 3383,
      "##com": 3384,
      "wealthy": 3385,
      "create": 3386,
      "Polly": 3387,
      "cheap": 3388,
      "##ugged": 3389,
      "stairs": 3390,
      "sleeping": 3391,
      "clumsy": 3392,
      "peanut": 3393,
      "##ations": 3394,
      "##io": 3395,
      "yarn": 3396,
      "searching": 3397,
      "##sing": 3398,
      "Andy": 3399,
      "telling": 3400,
      "rushed": 3401,
      "##ilty": 3402,
      "spaghetti": 3403,
      "Or": 3404,
      "guilty": 3405,
      "cur": 3406,
      "goose": 3407,
      "Sophie": 3408,
      "flex": 3409,
      "œWhat": 3410,
      "##up": 3411,
      "rub": 3412,
      "magn": 3413,
      "compass": 3414,
      "mask": 3415,
      "stat": 3416,
      "opens": 3417,
      "resc": 3418,
      "zebra": 3419,
      "arrow": 3420,
      "patch": 3421,
      "engine": 3422,
      "comb": 3423,
      "Alex": 3424,
      "##fa": 3425,
      "design": 3426,
      "knock": 3427,
      "thunder": 3428,
      "driving": 3429,
      "seeds": 3430,
      "angel": 3431,
      "##irsty": 3432,
      "##shion": 3433,
      "camera": 3434,
      "graceful": 3435,
      "crazy": 3436,
      "washed": 3437,
      "twist": 3438,
      "##umbers": 3439,
      "carrying": 3440,
      "deliver": 3441,
      "bull": 3442,
      "umbrella": 3443,
      "##cod": 3444,
      "rece": 3445,
      "stage": 3446,
      "shiver": 3447,
      "popular": 3448,
      "beet": 3449,
      "##isk": 3450,
      "##illa": 3451,
      "meal": 3452,
      "march": 3453,
      "dull": 3454,
      "missing": 3455,
      "library": 3456,
      "sparkled": 3457,
      "œIt": 3458,
      "ending": 3459,
      "##IN": 3460,
      "##ric": 3461,
      "friendship": 3462,
      "truth": 3463,
      "flexible": 3464,
      "pebble": 3465,
      "tied": 3466,
      "impressive": 3467,
      "shel": 3468,
      "fresh": 3469,
      "careless": 3470,
      "##anger": 3471,
      "imagined": 3472,
      "##ER": 3473,
      "destro": 3474,
      "jacket": 3475,
      "nature": 3476,
      "load": 3477,
      "##ision": 3478,
      "reward": 3479,
      "ingredients": 3480,
      "handle": 3481,
      "swe": 3482,
      "rubbed": 3483,
      "prize": 3484,
      "dreaming": 3485,
      "shocked": 3486,
      "##time": 3487,
      "##oomy": 3488,
      "sudden": 3489,
      "##INK": 3490,
      "crocod": 3491,
      "##WER": 3492,
      "INS": 3493,
      "ANS": 3494,
      "ANSWER": 3495,
      "THINK": 3496,
      "INST": 3497,
      "##ibb": 3498,
      "Bye": 3499,
      "pige": 3500,
      "enth": 3501,
      "wheels": 3502,
      "compassion": 3503,
      "##ief": 3504,
      "pattern": 3505,
      "envel": 3506,
      "Charl": 3507,
      "flashlight": 3508,
      "reading": 3509,
      "thirsty": 3510,
      "encou": 3511,
      "sadly": 3512,
      "tem": 3513,
      "stranger": 3514,
      "desk": 3515,
      "Paul": 3516,
      "persist": 3517,
      "enthus": 3518,
      "##ement": 3519,
      "œLetâ": 3520,
      "wire": 3521,
      "Ha": 3522,
      "numbers": 3523,
      "discover": 3524,
      "suit": 3525,
      "fork": 3526,
      "early": 3527,
      "order": 3528,
      "mailbox": 3529,
      "peeked": 3530,
      "<<": 3531,
      "butterflies": 3532,
      "penny": 3533,
      "gum": 3534,
      "comput": 3535,
      "bracelet": 3536,
      "cryst": 3537,
      "spilled": 3538,
      "second": 3539,
      "stops": 3540,
      "torn": 3541,
      "rug": 3542,
      "travel": 3543,
      "spring": 3544,
      "##bled": 3545,
      "pow": 3546,
      "env": 3547,
      "ahead": 3548,
      "##iches": 3549,
      "towers": 3550,
      "wing": 3551,
      "surf": 3552,
      "object": 3553,
      "cere": 3554,
      "##eaf": 3555,
      "earth": 3556,
      "sorts": 3557,
      "older": 3558,
      "##ince": 3559,
      "##ellig": 3560,
      "windows": 3561,
      "anx": 3562,
      "pengu": 3563,
      "bent": 3564,
      "pant": 3565,
      "intellig": 3566,
      "##gest": 3567,
      "pup": 3568,
      "humble": 3569,
      "warned": 3570,
      "uncom": 3571,
      "placed": 3572,
      "spoke": 3573,
      "avo": 3574,
      "super": 3575,
      "Un": 3576,
      "note": 3577,
      "##ikes": 3578,
      "pale": 3579,
      "uncomfortable": 3580,
      "sunflower": 3581,
      "##ices": 3582,
      "complet": 3583,
      "badly": 3584,
      "Pe": 3585,
      "stack": 3586,
      "compl": 3587,
      "anxious": 3588,
      "slides": 3589,
      "value": 3590,
      "biggest": 3591,
      "scale": 3592,
      "growing": 3593,
      "couldnâ": 3594,
      "counting": 3595,
      "trap": 3596,
      "flute": 3597,
      "##een": 3598,
      "cooking": 3599,
      "statue": 3600,
      "scoot": 3601,
      "liz": 3602,
      "celebrate": 3603,
      "mush": 3604,
      "tunnel": 3605,
      "nail": 3606,
      "beetle": 3607,
      "##host": 3608,
      "cupboard": 3609,
      "scatter": 3610,
      "harmless": 3611,
      "sofa": 3612,
      "beep": 3613,
      "beauty": 3614,
      "deaf": 3615,
      "peace": 3616,
      "mole": 3617,
      "perm": 3618,
      "shut": 3619,
      "Hen": 3620,
      "nurse": 3621,
      "pear": 3622,
      "jumps": 3623,
      "flour": 3624,
      "persistent": 3625,
      "crocodile": 3626,
      "gifted": 3627,
      "sandwiches": 3628,
      "hung": 3629,
      "ghost": 3630,
      "trick": 3631,
      "base": 3632,
      "##oe": 3633,
      "charming": 3634,
      "refused": 3635,
      "track": 3636,
      "neat": 3637,
      "speed": 3638,
      "names": 3639,
      "courage": 3640,
      "##opus": 3641,
      "##ctopus": 3642,
      "crane": 3643,
      "cereal": 3644,
      "curt": 3645,
      "pretending": 3646,
      "pony": 3647,
      "##ud": 3648,
      "aid": 3649,
      "destroy": 3650,
      "univer": 3651,
      "raven": 3652,
      "ordinary": 3653,
      "snuggled": 3654,
      "curtain": 3655,
      "camp": 3656,
      "computer": 3657,
      "triang": 3658,
      "question": 3659,
      "chasing": 3660,
      "collar": 3661,
      "envelope": 3662,
      "drawer": 3663,
      "vi": 3664,
      "sett": 3665,
      "send": 3666,
      "fu": 3667,
      "octopus": 3668,
      "rules": 3669,
      "crawl": 3670,
      "lively": 3671,
      "return": 3672,
      "Tr": 3673,
      "gloomy": 3674,
      "uncle": 3675,
      "carto": 3676,
      "blueber": 3677,
      "intelligent": 3678,
      "package": 3679,
      "may": 3680,
      "piano": 3681,
      "Sm": 3682,
      "phot": 3683,
      "mushroom": 3684,
      "shaking": 3685,
      "helmet": 3686,
      "turkey": 3687,
      "crystal": 3688,
      "hurry": 3689,
      "needle": 3690,
      "Grace": 3691,
      "parade": 3692,
      "creatures": 3693,
      "œThat": 3694,
      "##und": 3695,
      "Henry": 3696,
      "lizard": 3697,
      "twirled": 3698,
      "ignor": 3699,
      "station": 3700,
      "attract": 3701,
      "##stri": 3702,
      "Before": 3703,
      "##erable": 3704,
      "alert": 3705,
      "Yay": 3706,
      "##ubby": 3707,
      "pepper": 3708,
      "miserable": 3709,
      "thief": 3710,
      "bicy": 3711,
      "vide": 3712,
      "Annie": 3713,
      "##gust": 3714,
      "task": 3715,
      "##ceed": 3716,
      "stickers": 3717,
      "soldier": 3718,
      "hunter": 3719,
      "five": 3720,
      "##ips": 3721,
      "disgust": 3722,
      "dug": 3723,
      "anywhere": 3724,
      "Brownie": 3725,
      "ener": 3726,
      "fireman": 3727,
      "Charlie": 3728,
      "##az": 3729,
      "carp": 3730,
      "repe": 3731,
      "ignorant": 3732,
      "##cut": 3733,
      "##iest": 3734,
      "seal": 3735,
      "wishes": 3736,
      "led": 3737,
      "##tter": 3738,
      "screen": 3739,
      "bandage": 3740,
      "muff": 3741,
      "##coa": 3742,
      "##iraff": 3743,
      "Mag": 3744,
      "trash": 3745,
      "radio": 3746,
      "helpless": 3747,
      "bounced": 3748,
      "letters": 3749,
      "Jerry": 3750,
      "practiced": 3751,
      "leash": 3752,
      "mill": 3753,
      "bet": 3754,
      "chance": 3755,
      "shine": 3756,
      "cards": 3757,
      "attractive": 3758,
      "tooth": 3759,
      "pasta": 3760,
      "cricket": 3761,
      "œM": 3762,
      "impat": 3763,
      "##ummer": 3764,
      "pand": 3765,
      "stirred": 3766,
      "thread": 3767,
      "jeep": 3768,
      "cube": 3769,
      "stretched": 3770,
      "nobody": 3771,
      "##urb": 3772,
      "club": 3773,
      "chubby": 3774,
      "quar": 3775,
      "##heart": 3776,
      "compassionate": 3777,
      "steps": 3778,
      "pigeon": 3779,
      "jet": 3780,
      "Tweetie": 3781,
      "tire": 3782,
      "##ccol": 3783,
      "trump": 3784,
      "Everything": 3785,
      "##ccoli": 3786,
      "decorate": 3787,
      "disturb": 3788,
      "jug": 3789,
      "##orable": 3790,
      "cocoa": 3791,
      "brighter": 3792,
      "competitive": 3793,
      "further": 3794,
      "impatient": 3795,
      "##arian": 3796,
      "aftern": 3797,
      "afternoon": 3798,
      "succeed": 3799,
      "otter": 3800,
      "respectful": 3801,
      "Sandy": 3802,
      "starts": 3803,
      "giraff": 3804,
      "troubled": 3805,
      "Snow": 3806,
      "era": 3807,
      "pressed": 3808,
      "tap": 3809,
      "##olin": 3810,
      "itself": 3811,
      "candle": 3812,
      "Lilly": 3813,
      "mug": 3814,
      "attic": 3815,
      "ostri": 3816,
      "##aurant": 3817,
      "pants": 3818,
      "restaurant": 3819,
      "pun": 3820,
      "restless": 3821,
      "somewhere": 3822,
      "Danny": 3823,
      "ribb": 3824,
      "dess": 3825,
      "##ps": 3826,
      "nuts": 3827,
      "disgusting": 3828,
      "shoe": 3829,
      "##stic": 3830,
      "##illie": 3831,
      "tray": 3832,
      "carpet": 3833,
      "skip": 3834,
      "adorable": 3835,
      "anyway": 3836,
      "shouts": 3837,
      "leop": 3838,
      "ten": 3839,
      "comfort": 3840,
      "vine": 3841,
      "case": 3842,
      "fort": 3843,
      "allig": 3844,
      "waff": 3845,
      "gor": 3846,
      "screw": 3847,
      "envious": 3848,
      "fearful": 3849,
      "sweetheart": 3850,
      "broccoli": 3851,
      "distant": 3852,
      "##icop": 3853,
      "##icopter": 3854,
      "exper": 3855,
      "##iastic": 3856,
      "filthy": 3857,
      "hipp": 3858,
      "enthusiastic": 3859,
      "Lee": 3860,
      "Red": 3861,
      "paid": 3862,
      "cooked": 3863,
      "stretch": 3864,
      "trumpet": 3865,
      "giggle": 3866,
      "monkeys": 3867,
      "reco": 3868,
      "bri": 3869,
      "sent": 3870,
      "helicopter": 3871,
      "Did": 3872,
      "por": 3873,
      "##aroo": 3874,
      "sandbox": 3875,
      "##angaroo": 3876,
      "harsh": 3877,
      "##irit": 3878,
      "##gging": 3879,
      "hook": 3880,
      "##night": 3881,
      "cows": 3882,
      "meas": 3883,
      "ants": 3884,
      "backpack": 3885,
      "nowhere": 3886,
      "Maria": 3887,
      "##gie": 3888,
      "country": 3889,
      "batht": 3890,
      "belt": 3891,
      "admire": 3892,
      "##cycle": 3893,
      "explain": 3894,
      "Jess": 3895,
      "scooter": 3896,
      "poem": 3897,
      "##opl": 3898,
      "##eropl": 3899,
      "bathtub": 3900,
      "pipe": 3901,
      "Bunny": 3902,
      "unpack": 3903,
      "barking": 3904,
      "aeropl": 3905,
      "quite": 3906,
      "Pap": 3907,
      "##stairs": 3908,
      "spell": 3909,
      "kangaroo": 3910,
      "repair": 3911,
      "squash": 3912,
      "speak": 3913,
      "melt": 3914,
      "##uct": 3915,
      "Baby": 3916,
      "lid": 3917,
      "separ": 3918,
      "Millie": 3919,
      "mama": 3920,
      "leopard": 3921,
      "bicycle": 3922,
      "happier": 3923,
      "given": 3924,
      "summer": 3925,
      "listening": 3926,
      "##imi": 3927,
      "Kate": 3928,
      "breat": 3929,
      "vol": 3930,
      "stared": 3931,
      "œH": 3932,
      "Mimi": 3933,
      "firework": 3934,
      "grabs": 3935,
      "##hood": 3936,
      "message": 3937,
      "support": 3938,
      "human": 3939,
      "didnâ": 3940,
      "ostrich": 3941,
      "meat": 3942,
      "hed": 3943,
      "pilot": 3944,
      "impro": 3945,
      "Harry": 3946,
      "comet": 3947,
      "sort": 3948,
      "finds": 3949,
      "cats": 3950,
      "mule": 3951,
      "split": 3952,
      "##hy": 3953,
      "Not": 3954,
      "Ted": 3955,
      "Bun": 3956,
      "batt": 3957,
      "modest": 3958,
      "size": 3959,
      "gorilla": 3960,
      "yogurt": 3961,
      "dessert": 3962,
      "##ipping": 3963,
      "obser": 3964,
      "tax": 3965,
      "Papa": 3966,
      "ur": 3967,
      "violin": 3968,
      "hedge": 3969,
      "spirit": 3970,
      "pulls": 3971,
      "Buddy": 3972,
      "paws": 3973,
      "melon": 3974,
      "tripped": 3975,
      "jellyfish": 3976,
      "fle": 3977,
      "alligator": 3978,
      "rescue": 3979,
      "prov": 3980,
      "holes": 3981,
      "organize": 3982,
      "##ucked": 3983,
      "Ros": 3984,
      "roared": 3985,
      "forgave": 3986,
      "hall": 3987,
      "wheat": 3988,
      "##ci": 3989,
      "recogn": 3990,
      "bikes": 3991,
      "purse": 3992,
      "hippo": 3993,
      "sheet": 3994,
      "inse": 3995,
      "salt": 3996,
      "starting": 3997,
      "pal": 3998,
      "pushing": 3999,
      "cact": 4000,
      "##ophone": 4001,
      "math": 4002,
      "raft": 4003,
      "swinging": 4004,
      "behave": 4005,
      "rice": 4006,
      "haircut": 4007,
      "oat": 4008,
      "These": 4009,
      "scold": 4010,
      "bin": 4011,
      "shade": 4012,
      "Ab": 4013,
      "triangle": 4014,
      "œTh": 4015,
      "lightning": 4016,
      "buzz": 4017,
      "brus": 4018,
      "Ru": 4019,
      "##eer": 4020,
      "##ebook": 4021,
      "energy": 4022,
      "notebook": 4023,
      "riding": 4024,
      "Whisk": 4025,
      "either": 4026,
      "James": 4027,
      "bananas": 4028,
      "Whiskers": 4029,
      "knot": 4030,
      "frowned": 4031,
      "##aled": 4032,
      "##bul": 4033,
      "porch": 4034,
      "learnt": 4035,
      "ped": 4036,
      "##seum": 4037,
      "trains": 4038,
      "##cano": 4039,
      "ended": 4040,
      "evening": 4041,
      "sticker": 4042,
      "##iling": 4043,
      "##urch": 4044,
      "wallet": 4045,
      "Tony": 4046,
      "lend": 4047,
      "papers": 4048,
      "panda": 4049,
      "##inking": 4050,
      "luck": 4051,
      "chalk": 4052,
      "##ffee": 4053,
      "jokes": 4054,
      "##reci": 4055,
      "museum": 4056,
      "cactus": 4057,
      "sweater": 4058,
      "rod": 4059,
      "bears": 4060,
      "lions": 4061,
      "strawberry": 4062,
      "taxi": 4063,
      "appreci": 4064,
      "chain": 4065,
      "palace": 4066,
      "##ube": 4067,
      "volcano": 4068,
      "boots": 4069,
      "shopkeeper": 4070,
      "comf": 4071,
      "ins": 4072,
      "rolling": 4073,
      "barrel": 4074,
      "stud": 4075,
      "silver": 4076,
      "##astic": 4077,
      "hadn": 4078,
      "##chan": 4079,
      "neighbour": 4080,
      "##ents": 4081,
      "shakes": 4082,
      "laund": 4083,
      "micr": 4084,
      "goal": 4085,
      "##icer": 4086,
      "steak": 4087,
      "mild": 4088,
      "temp": 4089,
      "laundry": 4090,
      "##ooped": 4091,
      "alive": 4092,
      "smells": 4093,
      "##form": 4094,
      "reind": 4095
    },
    "merges": [
      [
        "##h",
        "##e"
      ],
      [
        "##n",
        "##d"
      ],
      [
        "t",
        "##he"
      ],
      [
        "##e",
        "##d"
      ],
      [
        "a",
        "##nd"
      ],
      [
        "##e",
        "##r"
      ],
      [
        "t",
        "##o"
      ],
      [
        "w",
        "##a"
      ],
      [
        "##o",
        "##u"
      ],
      [
        "##i",
        "##n"
      ],
      [
        "##r",
        "##e"
      ],
      [
        "wa",
        "##s"
      ],
      [
        "##o",
        "##m"
      ],
      [
        "T",
        "##he"
      ],
      [
        "##a",
        "##y"
      ],
      [
        "##a",
        "##r"
      ],
      [
        "##in",
        "##g"
      ],
      [
        "##i",
        "##l"
      ],
      [
        "##i",
        "##t"
      ],
      [
        "##i",
        "##d"
      ],
      [
        "##a",
        "##t"
      ],
      [
        "s",
        "##a"
      ],
      [
        "##e",
        "##n"
      ],
      [
        "h",
        "##a"
      ],
      [
        "##i",
        "##s"
      ],
      [
        "##a",
        "##n"
      ],
      [
        "##o",
        "##r"
      ],
      [
        "##i",
        "##m"
      ],
      [
        "h",
        "##e"
      ],
      [
        "##o",
        "##n"
      ],
      [
        "i",
        "##t"
      ],
      [
        "t",
        "##h"
      ],
      [
        "##u",
        "##t"
      ],
      [
        "##l",
        "##l"
      ],
      [
        "##l",
        "##e"
      ],
      [
        "h",
        "##er"
      ],
      [
        "##e",
        "##t"
      ],
      [
        "H",
        "##e"
      ],
      [
        "##o",
        "##t"
      ],
      [
        "S",
        "##he"
      ],
      [
        "##e",
        "##s"
      ],
      [
        "##i",
        "##r"
      ],
      [
        "The",
        "##y"
      ],
      [
        "i",
        "##n"
      ],
      [
        "##o",
        "##w"
      ],
      [
        "##c",
        "##k"
      ],
      [
        "##l",
        "##d"
      ],
      [
        "##o",
        "##o"
      ],
      [
        "sa",
        "##id"
      ],
      [
        "##il",
        "##y"
      ],
      [
        "b",
        "##e"
      ],
      [
        "##i",
        "##g"
      ],
      [
        "##a",
        "##m"
      ],
      [
        "s",
        "##t"
      ],
      [
        "##c",
        "##e"
      ],
      [
        "s",
        "##he"
      ],
      [
        "##p",
        "##p"
      ],
      [
        "##it",
        "##h"
      ],
      [
        "##v",
        "##e"
      ],
      [
        "w",
        "##ith"
      ],
      [
        "L",
        "##ily"
      ],
      [
        "O",
        "##n"
      ],
      [
        "o",
        "##n"
      ],
      [
        "o",
        "##f"
      ],
      [
        "y",
        "##ou"
      ],
      [
        "##k",
        "##ed"
      ],
      [
        "##r",
        "##i"
      ],
      [
        "s",
        "##o"
      ],
      [
        "h",
        "##is"
      ],
      [
        "p",
        "##l"
      ],
      [
        "##er",
        "##y"
      ],
      [
        "##a",
        "##d"
      ],
      [
        "##k",
        "##e"
      ],
      [
        "##n",
        "##t"
      ],
      [
        "d",
        "##ay"
      ],
      [
        "th",
        "##at"
      ],
      [
        "u",
        "##p"
      ],
      [
        "pl",
        "##ay"
      ],
      [
        "ha",
        "##d"
      ],
      [
        "the",
        "##y"
      ],
      [
        "##e",
        "##l"
      ],
      [
        "m",
        "##om"
      ],
      [
        "f",
        "##or"
      ],
      [
        "##s",
        "##t"
      ],
      [
        "##u",
        "##n"
      ],
      [
        "##ou",
        "##ld"
      ],
      [
        "##m",
        "##y"
      ],
      [
        "##en",
        "##t"
      ],
      [
        "l",
        "##i"
      ],
      [
        "##c",
        "##h"
      ],
      [
        "ha",
        "##pp"
      ],
      [
        "wa",
        "##nt"
      ],
      [
        "##it",
        "##t"
      ],
      [
        "s",
        "##h"
      ],
      [
        "##he",
        "##r"
      ],
      [
        "I",
        "##t"
      ],
      [
        "d",
        "##o"
      ],
      [
        "##l",
        "##y"
      ],
      [
        "n",
        "##ot"
      ],
      [
        "##om",
        "##e"
      ],
      [
        "##s",
        "##e"
      ],
      [
        "v",
        "##ery"
      ],
      [
        "##e",
        "##nd"
      ],
      [
        "##ou",
        "##nd"
      ],
      [
        "##a",
        "##ll"
      ],
      [
        "w",
        "##h"
      ],
      [
        "##im",
        "##e"
      ],
      [
        "##itt",
        "##le"
      ],
      [
        "t",
        "##ime"
      ],
      [
        "##a",
        "##l"
      ],
      [
        "l",
        "##ittle"
      ],
      [
        "the",
        "##re"
      ],
      [
        "n",
        "##e"
      ],
      [
        "##h",
        "##t"
      ],
      [
        "happ",
        "##y"
      ],
      [
        "s",
        "##m"
      ],
      [
        "i",
        "##s"
      ],
      [
        "b",
        "##ig"
      ],
      [
        "b",
        "##ut"
      ],
      [
        "##r",
        "##a"
      ],
      [
        "a",
        "##n"
      ],
      [
        "sa",
        "##w"
      ],
      [
        "##ri",
        "##end"
      ],
      [
        "f",
        "##riend"
      ],
      [
        "a",
        "##s"
      ],
      [
        ".",
        "##\""
      ],
      [
        "##r",
        "##y"
      ],
      [
        "##a",
        "##ck"
      ],
      [
        "On",
        "##e"
      ],
      [
        "##a",
        "##ke"
      ],
      [
        "r",
        "##e"
      ],
      [
        "##er",
        "##e"
      ],
      [
        "T",
        "##im"
      ],
      [
        "##t",
        "##er"
      ],
      [
        "##u",
        "##g"
      ],
      [
        "!",
        "##\""
      ],
      [
        "l",
        "##oo"
      ],
      [
        "##v",
        "##ed"
      ],
      [
        "w",
        "##ere"
      ],
      [
        "##o",
        "##re"
      ],
      [
        "On",
        "##ce"
      ],
      [
        "l",
        "##o"
      ],
      [
        "##e",
        "##c"
      ],
      [
        "h",
        "##im"
      ],
      [
        "##u",
        "##r"
      ],
      [
        "to",
        "##o"
      ],
      [
        "g",
        "##o"
      ],
      [
        "b",
        "##o"
      ],
      [
        "##id",
        "##e"
      ],
      [
        "s",
        "##e"
      ],
      [
        "##ir",
        "##l"
      ],
      [
        "a",
        "##re"
      ],
      [
        "##v",
        "##er"
      ],
      [
        "##ar",
        "##d"
      ],
      [
        "want",
        "##ed"
      ],
      [
        "T",
        "##om"
      ],
      [
        "##il",
        "##l"
      ],
      [
        "g",
        "##irl"
      ],
      [
        "up",
        "##on"
      ],
      [
        "o",
        "##ut"
      ],
      [
        "the",
        "##m"
      ],
      [
        "a",
        "##t"
      ],
      [
        "B",
        "##en"
      ],
      [
        "the",
        "##ir"
      ],
      [
        "##f",
        "##u"
      ],
      [
        "s",
        "##p"
      ],
      [
        "##w",
        "##ay"
      ],
      [
        "##i",
        "##nd"
      ],
      [
        "sm",
        "##il"
      ],
      [
        "d",
        "##id"
      ],
      [
        "c",
        "##ould"
      ],
      [
        "##he",
        "##n"
      ],
      [
        "ha",
        "##ve"
      ],
      [
        "##t",
        "##ed"
      ],
      [
        "##a",
        "##in"
      ],
      [
        "e",
        "##x"
      ],
      [
        "##he",
        "##d"
      ],
      [
        "B",
        "##ut"
      ],
      [
        "##r",
        "##om"
      ],
      [
        "w",
        "##ent"
      ],
      [
        "a",
        "##r"
      ],
      [
        "c",
        "##an"
      ],
      [
        "##l",
        "##p"
      ],
      [
        "##i",
        "##c"
      ],
      [
        "##fu",
        "##l"
      ],
      [
        "##oo",
        "##d"
      ],
      [
        "?",
        "##\""
      ],
      [
        "##h",
        "##ing"
      ],
      [
        "friend",
        "##s"
      ],
      [
        "n",
        "##am"
      ],
      [
        "##ig",
        "##ht"
      ],
      [
        "a",
        "##ll"
      ],
      [
        "he",
        "##lp"
      ],
      [
        "k",
        "##n"
      ],
      [
        "##u",
        "##m"
      ],
      [
        "##ar",
        "##k"
      ],
      [
        "##on",
        "##e"
      ],
      [
        "b",
        "##ack"
      ],
      [
        "s",
        "##ay"
      ],
      [
        "c",
        "##l"
      ],
      [
        "f",
        "##un"
      ],
      [
        "Y",
        "##ou"
      ],
      [
        "##e",
        "##ar"
      ],
      [
        "##a",
        "##re"
      ],
      [
        "n",
        "##o"
      ],
      [
        "##v",
        "##ery"
      ],
      [
        "Tim",
        "##my"
      ],
      [
        "##o",
        "##p"
      ],
      [
        "st",
        "##ar"
      ],
      [
        "s",
        "##c"
      ],
      [
        "smil",
        "##ed"
      ],
      [
        "nam",
        "##ed"
      ],
      [
        "a",
        "##l"
      ],
      [
        "##ou",
        "##g"
      ],
      [
        "lo",
        "##ved"
      ],
      [
        "##s",
        "##ide"
      ],
      [
        "m",
        "##an"
      ],
      [
        "##el",
        "##t"
      ],
      [
        "##i",
        "##ck"
      ],
      [
        "as",
        "##ked"
      ],
      [
        "to",
        "##y"
      ],
      [
        "M",
        "##om"
      ],
      [
        "li",
        "##ke"
      ],
      [
        "f",
        "##elt"
      ],
      [
        "se",
        "##e"
      ],
      [
        "loo",
        "##ked"
      ],
      [
        "s",
        "##ome"
      ],
      [
        "m",
        "##e"
      ],
      [
        "ar",
        "##ound"
      ],
      [
        "##e",
        "##p"
      ],
      [
        "##am",
        "##e"
      ],
      [
        "##om",
        "##et"
      ],
      [
        "f",
        "##e"
      ],
      [
        "r",
        "##o"
      ],
      [
        "b",
        "##r"
      ],
      [
        "##u",
        "##re"
      ],
      [
        "b",
        "##ir"
      ],
      [
        "##g",
        "##et"
      ],
      [
        "bo",
        "##y"
      ],
      [
        "w",
        "##ould"
      ],
      [
        "##on",
        "##g"
      ],
      [
        "##s",
        "##s"
      ],
      [
        "##e",
        "##a"
      ],
      [
        "bir",
        "##d"
      ],
      [
        "s",
        "##omet"
      ],
      [
        "f",
        "##a"
      ],
      [
        "##d",
        "##d"
      ],
      [
        "##es",
        "##t"
      ],
      [
        "##ing",
        "##s"
      ],
      [
        "w",
        "##or"
      ],
      [
        "a",
        "##g"
      ],
      [
        "wh",
        "##at"
      ],
      [
        "##ad",
        "##e"
      ],
      [
        "m",
        "##ake"
      ],
      [
        "##k",
        "##ing"
      ],
      [
        "##i",
        "##e"
      ],
      [
        ",",
        "##\""
      ],
      [
        "c",
        "##ar"
      ],
      [
        "##ow",
        "##n"
      ],
      [
        "t",
        "##re"
      ],
      [
        "##get",
        "##her"
      ],
      [
        "r",
        "##an"
      ],
      [
        "a",
        "##way"
      ],
      [
        "##a",
        "##g"
      ],
      [
        "w",
        "##e"
      ],
      [
        "T",
        "##h"
      ],
      [
        "say",
        "##s"
      ],
      [
        "star",
        "##ted"
      ],
      [
        "##i",
        "##ce"
      ],
      [
        "##ou",
        "##d"
      ],
      [
        "m",
        "##ade"
      ],
      [
        "somet",
        "##hing"
      ],
      [
        "to",
        "##gether"
      ],
      [
        "c",
        "##o"
      ],
      [
        "##t",
        "##her"
      ],
      [
        "##it",
        "##ed"
      ],
      [
        "p",
        "##ark"
      ],
      [
        "sa",
        "##d"
      ],
      [
        "o",
        "##ther"
      ],
      [
        "ne",
        "##w"
      ],
      [
        "ex",
        "##c"
      ],
      [
        "f",
        "##rom"
      ],
      [
        "p",
        "##ut"
      ],
      [
        "##ou",
        "##t"
      ],
      [
        "p",
        "##r"
      ],
      [
        "l",
        "##a"
      ],
      [
        "sc",
        "##ar"
      ],
      [
        "h",
        "##ug"
      ],
      [
        "m",
        "##u"
      ],
      [
        "##b",
        "##le"
      ],
      [
        "##oo",
        "##k"
      ],
      [
        "ag",
        "##ain"
      ],
      [
        "h",
        "##ome"
      ],
      [
        "w",
        "##hen"
      ],
      [
        "g",
        "##ood"
      ],
      [
        "wh",
        "##o"
      ],
      [
        "c",
        "##h"
      ],
      [
        "f",
        "##l"
      ],
      [
        "##ri",
        "##ed"
      ],
      [
        "f",
        "##ound"
      ],
      [
        "the",
        "##n"
      ],
      [
        "d",
        "##ec"
      ],
      [
        "##pp",
        "##ed"
      ],
      [
        "wa",
        "##l"
      ],
      [
        "g",
        "##et"
      ],
      [
        "##a",
        "##ch"
      ],
      [
        "play",
        "##ing"
      ],
      [
        "##oug",
        "##ht"
      ],
      [
        "##p",
        "##l"
      ],
      [
        "##all",
        "##y"
      ],
      [
        "s",
        "##w"
      ],
      [
        "S",
        "##u"
      ],
      [
        "##ou",
        "##s"
      ],
      [
        "##n",
        "##n"
      ],
      [
        "th",
        "##ings"
      ],
      [
        "exc",
        "##ited"
      ],
      [
        "li",
        "##ked"
      ],
      [
        "g",
        "##ot"
      ],
      [
        "##u",
        "##ck"
      ],
      [
        "S",
        "##am"
      ],
      [
        "##r",
        "##o"
      ],
      [
        "##a",
        "##s"
      ],
      [
        "##id",
        "##ed"
      ],
      [
        "##e",
        "##ll"
      ],
      [
        "b",
        "##l"
      ],
      [
        "dec",
        "##ided"
      ],
      [
        "e",
        "##very"
      ],
      [
        "c",
        "##ame"
      ],
      [
        "A",
        "##nn"
      ],
      [
        "##ar",
        "##a"
      ],
      [
        "you",
        "##r"
      ],
      [
        "##a",
        "##x"
      ],
      [
        "on",
        "##e"
      ],
      [
        "scar",
        "##ed"
      ],
      [
        "##u",
        "##st"
      ],
      [
        "do",
        "##g"
      ],
      [
        "d",
        "##own"
      ],
      [
        "##ou",
        "##se"
      ],
      [
        "f",
        "##ind"
      ],
      [
        "##n",
        "##y"
      ],
      [
        "th",
        "##an"
      ],
      [
        "be",
        "##c"
      ],
      [
        "c",
        "##are"
      ],
      [
        "S",
        "##ara"
      ],
      [
        "fe",
        "##el"
      ],
      [
        "W",
        "##e"
      ],
      [
        "Ann",
        "##a"
      ],
      [
        "d",
        "##ad"
      ],
      [
        "a",
        "##b"
      ],
      [
        "m",
        "##y"
      ],
      [
        "M",
        "##ax"
      ],
      [
        "w",
        "##ill"
      ],
      [
        "##a",
        "##p"
      ],
      [
        "loo",
        "##k"
      ],
      [
        "##is",
        "##t"
      ],
      [
        "g",
        "##r"
      ],
      [
        "##nd",
        "##er"
      ],
      [
        "g",
        "##ra"
      ],
      [
        "##way",
        "##s"
      ],
      [
        "##es",
        "##s"
      ],
      [
        "p",
        "##o"
      ],
      [
        "did",
        "##n"
      ],
      [
        "too",
        "##k"
      ],
      [
        "al",
        "##ways"
      ],
      [
        "##er",
        "##s"
      ],
      [
        "ab",
        "##out"
      ],
      [
        "##b",
        "##b"
      ],
      [
        "l",
        "##ot"
      ],
      [
        "##n",
        "##ed"
      ],
      [
        "mom",
        "##my"
      ],
      [
        "S",
        "##o"
      ],
      [
        "toy",
        "##s"
      ],
      [
        "kn",
        "##e"
      ],
      [
        "b",
        "##u"
      ],
      [
        "##an",
        "##t"
      ],
      [
        "##is",
        "##e"
      ],
      [
        "o",
        "##ld"
      ],
      [
        "##it",
        "##e"
      ],
      [
        "out",
        "##side"
      ],
      [
        "##a",
        "##ve"
      ],
      [
        "tre",
        "##e"
      ],
      [
        "th",
        "##ought"
      ],
      [
        "b",
        "##all"
      ],
      [
        "l",
        "##ear"
      ],
      [
        "m",
        "##ore"
      ],
      [
        "##ec",
        "##i"
      ],
      [
        "t",
        "##a"
      ],
      [
        "##en",
        "##ed"
      ],
      [
        "##c",
        "##hed"
      ],
      [
        "h",
        "##o"
      ],
      [
        "##re",
        "##t"
      ],
      [
        "W",
        "##hen"
      ],
      [
        "##g",
        "##ed"
      ],
      [
        "p",
        "##u"
      ],
      [
        "J",
        "##o"
      ],
      [
        "kn",
        "##ow"
      ],
      [
        "W",
        "##h"
      ],
      [
        "##t",
        "##o"
      ],
      [
        "t",
        "##ake"
      ],
      [
        "la",
        "##ug"
      ],
      [
        "s",
        "##or"
      ],
      [
        "sp",
        "##eci"
      ],
      [
        "speci",
        "##al"
      ],
      [
        "c",
        "##at"
      ],
      [
        "##dd",
        "##en"
      ],
      [
        "kne",
        "##w"
      ],
      [
        "##t",
        "##y"
      ],
      [
        "##i",
        "##ve"
      ],
      [
        "##f",
        "##f"
      ],
      [
        "H",
        "##er"
      ],
      [
        "##i",
        "##a"
      ],
      [
        "##f",
        "##ter"
      ],
      [
        "an",
        "##y"
      ],
      [
        "##dden",
        "##ly"
      ],
      [
        "h",
        "##ow"
      ],
      [
        "##a",
        "##u"
      ],
      [
        "##u",
        "##e"
      ],
      [
        "##m",
        "##a"
      ],
      [
        "sh",
        "##ow"
      ],
      [
        "##in",
        "##k"
      ],
      [
        "t",
        "##w"
      ],
      [
        "J",
        "##ack"
      ],
      [
        "sor",
        "##ry"
      ],
      [
        "mu",
        "##ch"
      ],
      [
        "##is",
        "##h"
      ],
      [
        "r",
        "##un"
      ],
      [
        "t",
        "##r"
      ],
      [
        "E",
        "##very"
      ],
      [
        "ha",
        "##nd"
      ],
      [
        "s",
        "##l"
      ],
      [
        "##a",
        "##nd"
      ],
      [
        "##v",
        "##en"
      ],
      [
        "h",
        "##ouse"
      ],
      [
        "o",
        "##r"
      ],
      [
        "o",
        "##p"
      ],
      [
        "s",
        "##k"
      ],
      [
        "m",
        "##o"
      ],
      [
        "cl",
        "##o"
      ],
      [
        "s",
        "##un"
      ],
      [
        "in",
        "##to"
      ],
      [
        "t",
        "##ried"
      ],
      [
        "##at",
        "##e"
      ],
      [
        "in",
        "##side"
      ],
      [
        "wa",
        "##ter"
      ],
      [
        "to",
        "##ld"
      ],
      [
        "th",
        "##is"
      ],
      [
        "e",
        "##n"
      ],
      [
        "i",
        "##f"
      ],
      [
        "##um",
        "##p"
      ],
      [
        "pr",
        "##oud"
      ],
      [
        "o",
        "##ver"
      ],
      [
        "could",
        "##n"
      ],
      [
        "g",
        "##ave"
      ],
      [
        "##d",
        "##y"
      ],
      [
        "e",
        "##ach"
      ],
      [
        "##an",
        "##k"
      ],
      [
        "he",
        "##ard"
      ],
      [
        "ne",
        "##ver"
      ],
      [
        "##b",
        "##y"
      ],
      [
        "ro",
        "##om"
      ],
      [
        "e",
        "##at"
      ],
      [
        "ex",
        "##pl"
      ],
      [
        "Su",
        "##ddenly"
      ],
      [
        "##ot",
        "##her"
      ],
      [
        "##au",
        "##se"
      ],
      [
        "##i",
        "##on"
      ],
      [
        "p",
        "##ick"
      ],
      [
        "p",
        "##ret"
      ],
      [
        "The",
        "##n"
      ],
      [
        "play",
        "##ed"
      ],
      [
        "M",
        "##ia"
      ],
      [
        "##g",
        "##e"
      ],
      [
        "##et",
        "##ter"
      ],
      [
        "j",
        "##ust"
      ],
      [
        "g",
        "##re"
      ],
      [
        "hug",
        "##ged"
      ],
      [
        "q",
        "##u"
      ],
      [
        "##ou",
        "##r"
      ],
      [
        "L",
        "##et"
      ],
      [
        "##he",
        "##re"
      ],
      [
        "of",
        "##f"
      ],
      [
        "c",
        "##om"
      ],
      [
        "wa",
        "##t"
      ],
      [
        "##ot",
        "##h"
      ],
      [
        "bo",
        "##x"
      ],
      [
        "A",
        "##nd"
      ],
      [
        "ne",
        "##ed"
      ],
      [
        "F",
        "##rom"
      ],
      [
        "n",
        "##ice"
      ],
      [
        "bec",
        "##ause"
      ],
      [
        "man",
        "##y"
      ],
      [
        "r",
        "##a"
      ],
      [
        "H",
        "##is"
      ],
      [
        "st",
        "##r"
      ],
      [
        "p",
        "##e"
      ],
      [
        "##il",
        "##e"
      ],
      [
        "##f",
        "##t"
      ],
      [
        "##f",
        "##e"
      ],
      [
        "f",
        "##o"
      ],
      [
        "##u",
        "##c"
      ],
      [
        "j",
        "##o"
      ],
      [
        "##e",
        "##ep"
      ],
      [
        "be",
        "##ar"
      ],
      [
        "sm",
        "##all"
      ],
      [
        "##i",
        "##z"
      ],
      [
        "##s",
        "##ed"
      ],
      [
        "##k",
        "##es"
      ],
      [
        "l",
        "##ong"
      ],
      [
        "##v",
        "##ing"
      ],
      [
        "##e",
        "##m"
      ],
      [
        "##in",
        "##e"
      ],
      [
        "##g",
        "##ry"
      ],
      [
        "##im",
        "##al"
      ],
      [
        "an",
        "##imal"
      ],
      [
        "s",
        "##n"
      ],
      [
        "##oug",
        "##h"
      ],
      [
        "Th",
        "##at"
      ],
      [
        "t",
        "##ry"
      ],
      [
        "u",
        "##nt"
      ],
      [
        "##il",
        "##d"
      ],
      [
        "##or",
        "##t"
      ],
      [
        "##s",
        "##el"
      ],
      [
        "##ur",
        "##t"
      ],
      [
        "unt",
        "##il"
      ],
      [
        "k",
        "##ind"
      ],
      [
        "lear",
        "##ned"
      ],
      [
        "i",
        "##m"
      ],
      [
        "be",
        "##a"
      ],
      [
        "lo",
        "##ve"
      ],
      [
        "b",
        "##etter"
      ],
      [
        "fl",
        "##ow"
      ],
      [
        "c",
        "##all"
      ],
      [
        "d",
        "##on"
      ],
      [
        "e",
        "##nd"
      ],
      [
        "a",
        "##d"
      ],
      [
        "b",
        "##est"
      ],
      [
        "##v",
        "##ent"
      ],
      [
        "##n",
        "##ing"
      ],
      [
        "##ad",
        "##y"
      ],
      [
        "##ur",
        "##p"
      ],
      [
        "##re",
        "##am"
      ],
      [
        "##v",
        "##es"
      ],
      [
        "c",
        "##le"
      ],
      [
        "m",
        "##a"
      ],
      [
        "##b",
        "##er"
      ],
      [
        "##ard",
        "##en"
      ],
      [
        "g",
        "##arden"
      ],
      [
        "c",
        "##u"
      ],
      [
        "fa",
        "##st"
      ],
      [
        "care",
        "##ful"
      ],
      [
        "Mom",
        "##my"
      ],
      [
        "##ll",
        "##y"
      ],
      [
        "b",
        "##y"
      ],
      [
        "##i",
        "##es"
      ],
      [
        "bea",
        "##ut"
      ],
      [
        "f",
        "##i"
      ],
      [
        "e",
        "##ven"
      ],
      [
        "b",
        "##ra"
      ],
      [
        "c",
        "##he"
      ],
      [
        "than",
        "##ked"
      ],
      [
        "Wh",
        "##at"
      ],
      [
        "laug",
        "##hed"
      ],
      [
        "##s",
        "##h"
      ],
      [
        "sk",
        "##y"
      ],
      [
        "j",
        "##ump"
      ],
      [
        "g",
        "##l"
      ],
      [
        "Y",
        "##es"
      ],
      [
        "l",
        "##oud"
      ],
      [
        "##sel",
        "##f"
      ],
      [
        "##in",
        "##y"
      ],
      [
        "wa",
        "##y"
      ],
      [
        "c",
        "##ome"
      ],
      [
        "beaut",
        "##i"
      ],
      [
        "##le",
        "##w"
      ],
      [
        "l",
        "##ist"
      ],
      [
        "w",
        "##o"
      ],
      [
        "beauti",
        "##ful"
      ],
      [
        "h",
        "##ard"
      ],
      [
        "lot",
        "##s"
      ],
      [
        "##a",
        "##se"
      ],
      [
        "C",
        "##an"
      ],
      [
        "st",
        "##ill"
      ],
      [
        "f",
        "##am"
      ],
      [
        "animal",
        "##s"
      ],
      [
        "Jo",
        "##h"
      ],
      [
        "h",
        "##urt"
      ],
      [
        "u",
        "##nder"
      ],
      [
        "l",
        "##et"
      ],
      [
        "st",
        "##ay"
      ],
      [
        "##w",
        "##n"
      ],
      [
        "b",
        "##oth"
      ],
      [
        "##he",
        "##s"
      ],
      [
        "##c",
        "##t"
      ],
      [
        "##oo",
        "##l"
      ],
      [
        "sa",
        "##fe"
      ],
      [
        "##re",
        "##e"
      ],
      [
        "##b",
        "##e"
      ],
      [
        "l",
        "##ea"
      ],
      [
        "tw",
        "##o"
      ],
      [
        "co",
        "##l"
      ],
      [
        "d",
        "##i"
      ],
      [
        "b",
        "##ook"
      ],
      [
        "b",
        "##ad"
      ],
      [
        "##op",
        "##le"
      ],
      [
        "re",
        "##m"
      ],
      [
        "##a",
        "##ce"
      ],
      [
        "im",
        "##p"
      ],
      [
        "##an",
        "##e"
      ],
      [
        "A",
        "##s"
      ],
      [
        "li",
        "##ved"
      ],
      [
        "L",
        "##uc"
      ],
      [
        "##k",
        "##ay"
      ],
      [
        "Luc",
        "##y"
      ],
      [
        "##o",
        "##ck"
      ],
      [
        "wal",
        "##ked"
      ],
      [
        "s",
        "##u"
      ],
      [
        "##urp",
        "##r"
      ],
      [
        "sh",
        "##ould"
      ],
      [
        "bra",
        "##ve"
      ],
      [
        "it",
        "##s"
      ],
      [
        "##o",
        "##b"
      ],
      [
        "##is",
        "##hed"
      ],
      [
        "s",
        "##urpr"
      ],
      [
        "an",
        "##gry"
      ],
      [
        "fam",
        "##ily"
      ],
      [
        "pe",
        "##ople"
      ],
      [
        "##re",
        "##ss"
      ],
      [
        "##ep",
        "##t"
      ],
      [
        "##ig",
        "##h"
      ],
      [
        "Th",
        "##ank"
      ],
      [
        "f",
        "##lew"
      ],
      [
        "r",
        "##ed"
      ],
      [
        "A",
        "##fter"
      ],
      [
        "##i",
        "##p"
      ],
      [
        "call",
        "##ed"
      ],
      [
        "st",
        "##or"
      ],
      [
        "f",
        "##in"
      ],
      [
        "##e",
        "##et"
      ],
      [
        "so",
        "##on"
      ],
      [
        "##a",
        "##st"
      ],
      [
        "##ec",
        "##t"
      ],
      [
        "##f",
        "##ore"
      ],
      [
        "##l",
        "##ed"
      ],
      [
        "##ar",
        "##t"
      ],
      [
        "Joh",
        "##n"
      ],
      [
        "k",
        "##ept"
      ],
      [
        "D",
        "##ad"
      ],
      [
        "f",
        "##ore"
      ],
      [
        "d",
        "##an"
      ],
      [
        "l",
        "##e"
      ],
      [
        "f",
        "##ly"
      ],
      [
        "sh",
        "##are"
      ],
      [
        "##x",
        "##t"
      ],
      [
        "##is",
        "##ed"
      ],
      [
        "N",
        "##o"
      ],
      [
        "##dd",
        "##ed"
      ],
      [
        "p",
        "##ic"
      ],
      [
        "do",
        "##or"
      ],
      [
        "go",
        "##ing"
      ],
      [
        "t",
        "##ur"
      ],
      [
        "pret",
        "##ty"
      ],
      [
        "n",
        "##ow"
      ],
      [
        "k",
        "##eep"
      ],
      [
        "cle",
        "##an"
      ],
      [
        "ro",
        "##ck"
      ],
      [
        "d",
        "##ra"
      ],
      [
        "ad",
        "##vent"
      ],
      [
        "##um",
        "##my"
      ],
      [
        "##ag",
        "##e"
      ],
      [
        "no",
        "##ise"
      ],
      [
        "op",
        "##ened"
      ],
      [
        "c",
        "##on"
      ],
      [
        "do",
        "##ll"
      ],
      [
        "sh",
        "##iny"
      ],
      [
        "w",
        "##ind"
      ],
      [
        "be",
        "##fore"
      ],
      [
        "i",
        "##d"
      ],
      [
        "c",
        "##ry"
      ],
      [
        "id",
        "##ea"
      ],
      [
        "##il",
        "##ly"
      ],
      [
        "re",
        "##al"
      ],
      [
        "st",
        "##o"
      ],
      [
        "##s",
        "##o"
      ],
      [
        "##le",
        "##s"
      ],
      [
        "S",
        "##p"
      ],
      [
        "gr",
        "##ound"
      ],
      [
        "al",
        "##so"
      ],
      [
        "expl",
        "##ore"
      ],
      [
        "f",
        "##ar"
      ],
      [
        "##i",
        "##ed"
      ],
      [
        "€",
        "##™"
      ],
      [
        "e",
        "##y"
      ],
      [
        "f",
        "##r"
      ],
      [
        "col",
        "##or"
      ],
      [
        "ha",
        "##s"
      ],
      [
        "no",
        "##dded"
      ],
      [
        "wa",
        "##r"
      ],
      [
        "feel",
        "##ing"
      ],
      [
        "u",
        "##n"
      ],
      [
        "B",
        "##ob"
      ],
      [
        "pick",
        "##ed"
      ],
      [
        "##im",
        "##b"
      ],
      [
        "##o",
        "##y"
      ],
      [
        "ne",
        "##xt"
      ],
      [
        "wal",
        "##king"
      ],
      [
        "##t",
        "##hing"
      ],
      [
        "##t",
        "##ure"
      ],
      [
        "##t",
        "##ing"
      ],
      [
        "cl",
        "##imb"
      ],
      [
        "th",
        "##r"
      ],
      [
        "wh",
        "##ile"
      ],
      [
        "##t",
        "##h"
      ],
      [
        "b",
        "##ed"
      ],
      [
        "smil",
        "##e"
      ],
      [
        "advent",
        "##ure"
      ],
      [
        "##q",
        "##u"
      ],
      [
        "##ay",
        "##be"
      ],
      [
        "##s",
        "##er"
      ],
      [
        "##ic",
        "##ed"
      ],
      [
        "##g",
        "##er"
      ],
      [
        "##i",
        "##ous"
      ],
      [
        "loo",
        "##king"
      ],
      [
        "be",
        "##ing"
      ],
      [
        "di",
        "##ff"
      ],
      [
        "w",
        "##r"
      ],
      [
        "f",
        "##ood"
      ],
      [
        "##j",
        "##oy"
      ],
      [
        "g",
        "##ive"
      ],
      [
        "pic",
        "##ture"
      ],
      [
        "th",
        "##ink"
      ],
      [
        "d",
        "##el"
      ],
      [
        "Sp",
        "##ot"
      ],
      [
        "tr",
        "##uck"
      ],
      [
        "wa",
        "##it"
      ],
      [
        "##ug",
        "##ht"
      ],
      [
        "t",
        "##ra"
      ],
      [
        "to",
        "##w"
      ],
      [
        "ey",
        "##es"
      ],
      [
        "br",
        "##o"
      ],
      [
        "re",
        "##pl"
      ],
      [
        "a",
        "##fter"
      ],
      [
        "g",
        "##i"
      ],
      [
        "y",
        "##ear"
      ],
      [
        "sto",
        "##pped"
      ],
      [
        "list",
        "##en"
      ],
      [
        "b",
        "##re"
      ],
      [
        "D",
        "##o"
      ],
      [
        "wal",
        "##k"
      ],
      [
        "v",
        "##o"
      ],
      [
        "##em",
        "##ber"
      ],
      [
        "gre",
        "##at"
      ],
      [
        "wo",
        "##nder"
      ],
      [
        "hand",
        "##s"
      ],
      [
        "Su",
        "##e"
      ],
      [
        "he",
        "##ad"
      ],
      [
        "en",
        "##joy"
      ],
      [
        "imp",
        "##ort"
      ],
      [
        "flow",
        "##ers"
      ],
      [
        "bl",
        "##ue"
      ],
      [
        "##ir",
        "##st"
      ],
      [
        "e",
        "##ver"
      ],
      [
        "not",
        "##iced"
      ],
      [
        "##bb",
        "##it"
      ],
      [
        "fore",
        "##st"
      ],
      [
        "a",
        "##pp"
      ],
      [
        "ne",
        "##ar"
      ],
      [
        "d",
        "##is"
      ],
      [
        "o",
        "##wn"
      ],
      [
        "##iz",
        "##ed"
      ],
      [
        "a",
        "##c"
      ],
      [
        "qu",
        "##ick"
      ],
      [
        "##a",
        "##ble"
      ],
      [
        "f",
        "##ish"
      ],
      [
        "import",
        "##ant"
      ],
      [
        "rem",
        "##ember"
      ],
      [
        "##ll",
        "##ow"
      ],
      [
        "s",
        "##ound"
      ],
      [
        "u",
        "##s"
      ],
      [
        "sl",
        "##ide"
      ],
      [
        "##ma",
        "##z"
      ],
      [
        "repl",
        "##ied"
      ],
      [
        "wor",
        "##k"
      ],
      [
        "a",
        "##maz"
      ],
      [
        "wat",
        "##ch"
      ],
      [
        "##le",
        "##ase"
      ],
      [
        "r",
        "##ain"
      ],
      [
        "show",
        "##ed"
      ],
      [
        "o",
        "##kay"
      ],
      [
        "ra",
        "##bbit"
      ],
      [
        "##g",
        "##an"
      ],
      [
        "t",
        "##al"
      ],
      [
        "Sara",
        "##h"
      ],
      [
        "me",
        "##an"
      ],
      [
        "diff",
        "##er"
      ],
      [
        "##bb",
        "##ed"
      ],
      [
        "r",
        "##u"
      ],
      [
        "as",
        "##k"
      ],
      [
        "##d",
        "##ay"
      ],
      [
        "r",
        "##ight"
      ],
      [
        "to",
        "##u"
      ],
      [
        "L",
        "##ook"
      ],
      [
        "wat",
        "##ched"
      ],
      [
        "##by",
        "##e"
      ],
      [
        "br",
        "##ight"
      ],
      [
        "fo",
        "##llow"
      ],
      [
        "every",
        "##one"
      ],
      [
        "str",
        "##ong"
      ],
      [
        "st",
        "##ick"
      ],
      [
        "Th",
        "##is"
      ],
      [
        "u",
        "##se"
      ],
      [
        "be",
        "##en"
      ],
      [
        "m",
        "##or"
      ],
      [
        "vo",
        "##ice"
      ],
      [
        "##er",
        "##ed"
      ],
      [
        "##at",
        "##h"
      ],
      [
        "quick",
        "##ly"
      ],
      [
        "w",
        "##here"
      ],
      [
        "o",
        "##ur"
      ],
      [
        "y",
        "##ell"
      ],
      [
        "J",
        "##ane"
      ],
      [
        "differ",
        "##ent"
      ],
      [
        "ch",
        "##ild"
      ],
      [
        "##n",
        "##g"
      ],
      [
        "##e",
        "##y"
      ],
      [
        "bo",
        "##at"
      ],
      [
        "cu",
        "##ri"
      ],
      [
        "s",
        "##ure"
      ],
      [
        "a",
        "##m"
      ],
      [
        "M",
        "##aybe"
      ],
      [
        "good",
        "##bye"
      ],
      [
        "bec",
        "##ame"
      ],
      [
        "fa",
        "##ce"
      ],
      [
        "pl",
        "##ace"
      ],
      [
        "##an",
        "##ge"
      ],
      [
        "do",
        "##es"
      ],
      [
        "h",
        "##op"
      ],
      [
        "h",
        "##igh"
      ],
      [
        "##o",
        "##on"
      ],
      [
        "st",
        "##ore"
      ],
      [
        "##a",
        "##ught"
      ],
      [
        "clo",
        "##ser"
      ],
      [
        "war",
        "##m"
      ],
      [
        "t",
        "##ea"
      ],
      [
        "d",
        "##ress"
      ],
      [
        "##un",
        "##ny"
      ],
      [
        "##ll",
        "##o"
      ],
      [
        "m",
        "##ag"
      ],
      [
        "c",
        "##ook"
      ],
      [
        "curi",
        "##ous"
      ],
      [
        "##ou",
        "##nt"
      ],
      [
        "be",
        "##l"
      ],
      [
        "##il",
        "##a"
      ],
      [
        "for",
        "##g"
      ],
      [
        "th",
        "##ree"
      ],
      [
        "##a",
        "##ss"
      ],
      [
        "t",
        "##ell"
      ],
      [
        "fa",
        "##v"
      ],
      [
        "##nd",
        "##ma"
      ],
      [
        "L",
        "##ila"
      ],
      [
        "b",
        "##a"
      ],
      [
        "##c",
        "##o"
      ],
      [
        "##le",
        "##ep"
      ],
      [
        "f",
        "##irst"
      ],
      [
        "n",
        "##ight"
      ],
      [
        "op",
        "##en"
      ],
      [
        "sh",
        "##ar"
      ],
      [
        "c",
        "##ake"
      ],
      [
        "her",
        "##e"
      ],
      [
        "bl",
        "##ock"
      ],
      [
        "##m",
        "##ore"
      ],
      [
        "any",
        "##more"
      ],
      [
        "##im",
        "##es"
      ],
      [
        "##u",
        "##ll"
      ],
      [
        "##it",
        "##c"
      ],
      [
        "pu",
        "##ll"
      ],
      [
        "##is",
        "##s"
      ],
      [
        "##a",
        "##ched"
      ],
      [
        "I",
        "##n"
      ],
      [
        "##ir",
        "##ed"
      ],
      [
        "but",
        "##ter"
      ],
      [
        "##or",
        "##n"
      ],
      [
        "p",
        "##ain"
      ],
      [
        "sw",
        "##eet"
      ],
      [
        "m",
        "##on"
      ],
      [
        "k",
        "##id"
      ],
      [
        "gra",
        "##bbed"
      ],
      [
        "on",
        "##ly"
      ],
      [
        "##is",
        "##y"
      ],
      [
        "fe",
        "##ll"
      ],
      [
        "p",
        "##er"
      ],
      [
        "con",
        "##t"
      ],
      [
        "Every",
        "##one"
      ],
      [
        "bird",
        "##s"
      ],
      [
        "jump",
        "##ed"
      ],
      [
        "sa",
        "##nd"
      ],
      [
        "gl",
        "##ad"
      ],
      [
        "b",
        "##it"
      ],
      [
        "##itc",
        "##hen"
      ],
      [
        "k",
        "##itchen"
      ],
      [
        "s",
        "##qu"
      ],
      [
        "se",
        "##es"
      ],
      [
        "help",
        "##ed"
      ],
      [
        "fi",
        "##re"
      ],
      [
        "fl",
        "##o"
      ],
      [
        "st",
        "##op"
      ],
      [
        "D",
        "##on"
      ],
      [
        "##ou",
        "##ted"
      ],
      [
        "he",
        "##ar"
      ],
      [
        "Jo",
        "##e"
      ],
      [
        "c",
        "##ra"
      ],
      [
        "happ",
        "##ened"
      ],
      [
        "s",
        "##ing"
      ],
      [
        "gra",
        "##ss"
      ],
      [
        "t",
        "##ri"
      ],
      [
        "Tom",
        "##my"
      ],
      [
        "d",
        "##r"
      ],
      [
        "b",
        "##unny"
      ],
      [
        "sh",
        "##outed"
      ],
      [
        "##nt",
        "##s"
      ],
      [
        "stor",
        "##y"
      ],
      [
        "##a",
        "##ir"
      ],
      [
        "be",
        "##h"
      ],
      [
        "br",
        "##other"
      ],
      [
        "re",
        "##ached"
      ],
      [
        "y",
        "##ummy"
      ],
      [
        "##pp",
        "##y"
      ],
      [
        "real",
        "##ized"
      ],
      [
        "c",
        "##r"
      ],
      [
        "l",
        "##ady"
      ],
      [
        "m",
        "##um"
      ],
      [
        "ha",
        "##ving"
      ],
      [
        "pr",
        "##in"
      ],
      [
        "##in",
        "##s"
      ],
      [
        "fav",
        "##or"
      ],
      [
        "##ar",
        "##y"
      ],
      [
        "m",
        "##ess"
      ],
      [
        "lear",
        "##n"
      ],
      [
        "at",
        "##e"
      ],
      [
        "l",
        "##ess"
      ],
      [
        "favor",
        "##ite"
      ],
      [
        "thr",
        "##ough"
      ],
      [
        "g",
        "##ame"
      ],
      [
        "dra",
        "##w"
      ],
      [
        "c",
        "##re"
      ],
      [
        "h",
        "##at"
      ],
      [
        "under",
        "##st"
      ],
      [
        "so",
        "##ft"
      ],
      [
        "p",
        "##are"
      ],
      [
        "##z",
        "##y"
      ],
      [
        "##at",
        "##her"
      ],
      [
        "th",
        "##ing"
      ],
      [
        "re",
        "##ally"
      ],
      [
        "re",
        "##ady"
      ],
      [
        "be",
        "##gan"
      ],
      [
        "pret",
        "##end"
      ],
      [
        "##w",
        "##here"
      ],
      [
        "wor",
        "##ld"
      ],
      [
        "##k",
        "##en"
      ],
      [
        "look",
        "##s"
      ],
      [
        "him",
        "##self"
      ],
      [
        "mag",
        "##ic"
      ],
      [
        "p",
        "##ap"
      ],
      [
        "##fu",
        "##lly"
      ],
      [
        "N",
        "##ow"
      ],
      [
        "d",
        "##one"
      ],
      [
        "ma",
        "##king"
      ],
      [
        "butter",
        "##f"
      ],
      [
        "c",
        "##ut"
      ],
      [
        "r",
        "##est"
      ],
      [
        "d",
        "##uck"
      ],
      [
        "com",
        "##ing"
      ],
      [
        "##at",
        "##er"
      ],
      [
        "po",
        "##nd"
      ],
      [
        "kid",
        "##s"
      ],
      [
        "wh",
        "##y"
      ],
      [
        "wa",
        "##ved"
      ],
      [
        "f",
        "##ro"
      ],
      [
        "p",
        "##rom"
      ],
      [
        "t",
        "##ired"
      ],
      [
        "fi",
        "##x"
      ],
      [
        "m",
        "##ouse"
      ],
      [
        "wor",
        "##ry"
      ],
      [
        "car",
        "##s"
      ],
      [
        "f",
        "##ill"
      ],
      [
        "##o",
        "##lly"
      ],
      [
        "F",
        "##in"
      ],
      [
        "del",
        "##ic"
      ],
      [
        "nam",
        "##e"
      ],
      [
        "flow",
        "##er"
      ],
      [
        "##a",
        "##isy"
      ],
      [
        "S",
        "##ally"
      ],
      [
        "tou",
        "##ch"
      ],
      [
        "##ed",
        "##dy"
      ],
      [
        "u",
        "##sed"
      ],
      [
        "cat",
        "##ch"
      ],
      [
        "fun",
        "##ny"
      ],
      [
        "The",
        "##re"
      ],
      [
        "than",
        "##k"
      ],
      [
        "ha",
        "##ir"
      ],
      [
        "se",
        "##en"
      ],
      [
        "##one",
        "##y"
      ],
      [
        "##b",
        "##o"
      ],
      [
        "ta",
        "##st"
      ],
      [
        "##a",
        "##k"
      ],
      [
        "##i",
        "##ent"
      ],
      [
        "to",
        "##p"
      ],
      [
        "an",
        "##other"
      ],
      [
        "pare",
        "##nts"
      ],
      [
        "##re",
        "##l"
      ],
      [
        "W",
        "##ow"
      ],
      [
        "ho",
        "##ld"
      ],
      [
        "ho",
        "##pped"
      ],
      [
        "c",
        "##ried"
      ],
      [
        "##i",
        "##ver"
      ],
      [
        "block",
        "##s"
      ],
      [
        "##m",
        "##er"
      ],
      [
        "do",
        "##ing"
      ],
      [
        "c",
        "##ool"
      ],
      [
        "year",
        "##s"
      ],
      [
        "##a",
        "##c"
      ],
      [
        "\"",
        "##."
      ],
      [
        "surpr",
        "##ise"
      ],
      [
        "gre",
        "##en"
      ],
      [
        "tur",
        "##n"
      ],
      [
        "##st",
        "##er"
      ],
      [
        "l",
        "##ight"
      ],
      [
        "##at",
        "##ion"
      ],
      [
        "##on",
        "##s"
      ],
      [
        "re",
        "##ad"
      ],
      [
        "flo",
        "##or"
      ],
      [
        "d",
        "##in"
      ],
      [
        "##ard",
        "##s"
      ],
      [
        "d",
        "##ri"
      ],
      [
        "w",
        "##ood"
      ],
      [
        "f",
        "##ull"
      ],
      [
        "tre",
        "##es"
      ],
      [
        "run",
        "##ning"
      ],
      [
        "wor",
        "##ked"
      ],
      [
        "wind",
        "##ow"
      ],
      [
        "less",
        "##on"
      ],
      [
        "d",
        "##ro"
      ],
      [
        "sm",
        "##ell"
      ],
      [
        "d",
        "##ark"
      ],
      [
        "w",
        "##ear"
      ],
      [
        "p",
        "##ar"
      ],
      [
        "beh",
        "##ind"
      ],
      [
        "sp",
        "##ot"
      ],
      [
        "##u",
        "##l"
      ],
      [
        "li",
        "##kes"
      ],
      [
        "pap",
        "##er"
      ],
      [
        "w",
        "##ished"
      ],
      [
        "##and",
        "##y"
      ],
      [
        "yell",
        "##ow"
      ],
      [
        "b",
        "##ag"
      ],
      [
        "##u",
        "##ed"
      ],
      [
        "b",
        "##ow"
      ],
      [
        "##re",
        "##n"
      ],
      [
        "sh",
        "##o"
      ],
      [
        "##el",
        "##y"
      ],
      [
        "sw",
        "##im"
      ],
      [
        "happ",
        "##ily"
      ],
      [
        "s",
        "##at"
      ],
      [
        "D",
        "##aisy"
      ],
      [
        "E",
        "##m"
      ],
      [
        "##u",
        "##s"
      ],
      [
        "s",
        "##leep"
      ],
      [
        "J",
        "##im"
      ],
      [
        "surpr",
        "##ised"
      ],
      [
        "fro",
        "##g"
      ],
      [
        "s",
        "##et"
      ],
      [
        "butterf",
        "##ly"
      ],
      [
        "Ben",
        "##ny"
      ],
      [
        "##i",
        "##ke"
      ],
      [
        "sw",
        "##ing"
      ],
      [
        "care",
        "##fully"
      ],
      [
        "lo",
        "##st"
      ],
      [
        "bu",
        "##y"
      ],
      [
        "T",
        "##o"
      ],
      [
        "sl",
        "##ow"
      ],
      [
        "remember",
        "##ed"
      ],
      [
        "co",
        "##ld"
      ],
      [
        "he",
        "##ld"
      ],
      [
        "##u",
        "##ff"
      ],
      [
        "i",
        "##ce"
      ],
      [
        "ho",
        "##le"
      ],
      [
        "A",
        "##t"
      ],
      [
        "##re",
        "##w"
      ],
      [
        "laug",
        "##h"
      ],
      [
        "need",
        "##ed"
      ],
      [
        "le",
        "##ft"
      ],
      [
        "per",
        "##f"
      ],
      [
        "G",
        "##ra"
      ],
      [
        "B",
        "##illy"
      ],
      [
        "st",
        "##e"
      ],
      [
        "mo",
        "##ve"
      ],
      [
        "##c",
        "##ess"
      ],
      [
        "##re",
        "##ed"
      ],
      [
        "t",
        "##all"
      ],
      [
        "any",
        "##thing"
      ],
      [
        "d",
        "##ream"
      ],
      [
        "enjoy",
        "##ed"
      ],
      [
        "wr",
        "##ong"
      ],
      [
        "He",
        "##llo"
      ],
      [
        "book",
        "##s"
      ],
      [
        "##l",
        "##f"
      ],
      [
        "ar",
        "##ri"
      ],
      [
        "fa",
        "##ir"
      ],
      [
        "a",
        "##ir"
      ],
      [
        "follow",
        "##ed"
      ],
      [
        "Fin",
        "##ally"
      ],
      [
        "##ro",
        "##ss"
      ],
      [
        "child",
        "##ren"
      ],
      [
        "bu",
        "##s"
      ],
      [
        "h",
        "##un"
      ],
      [
        "ta",
        "##ble"
      ],
      [
        "delic",
        "##ious"
      ],
      [
        "M",
        "##olly"
      ],
      [
        "p",
        "##lease"
      ],
      [
        "fin",
        "##ished"
      ],
      [
        "cont",
        "##in"
      ],
      [
        "friend",
        "##ly"
      ],
      [
        "h",
        "##ot"
      ],
      [
        "d",
        "##ir"
      ],
      [
        "l",
        "##l"
      ],
      [
        "sn",
        "##ow"
      ],
      [
        "##en",
        "##s"
      ],
      [
        "##d",
        "##s"
      ],
      [
        "e",
        "##l"
      ],
      [
        "her",
        "##self"
      ],
      [
        "c",
        "##ream"
      ],
      [
        "A",
        "##my"
      ],
      [
        "h",
        "##ill"
      ],
      [
        "underst",
        "##and"
      ],
      [
        "##in",
        "##ed"
      ],
      [
        "clo",
        "##se"
      ],
      [
        "h",
        "##id"
      ],
      [
        "arri",
        "##ved"
      ],
      [
        "c",
        "##ast"
      ],
      [
        "ba",
        "##by"
      ],
      [
        "el",
        "##se"
      ],
      [
        "ar",
        "##m"
      ],
      [
        "wonder",
        "##ful"
      ],
      [
        "m",
        "##ight"
      ],
      [
        "g",
        "##ent"
      ],
      [
        "r",
        "##es"
      ],
      [
        "t",
        "##ight"
      ],
      [
        "forg",
        "##ot"
      ],
      [
        "y",
        "##es"
      ],
      [
        "##ie",
        "##ld"
      ],
      [
        "b",
        "##ug"
      ],
      [
        "J",
        "##en"
      ],
      [
        "bu",
        "##ild"
      ],
      [
        "color",
        "##s"
      ],
      [
        "r",
        "##el"
      ],
      [
        "##n",
        "##er"
      ],
      [
        "s",
        "##ig"
      ],
      [
        "bro",
        "##ken"
      ],
      [
        "a",
        "##ble"
      ],
      [
        "##i",
        "##ch"
      ],
      [
        "##a",
        "##v"
      ],
      [
        "g",
        "##one"
      ],
      [
        "fill",
        "##ed"
      ],
      [
        "s",
        "##ong"
      ],
      [
        "wa",
        "##ll"
      ],
      [
        "squ",
        "##ir"
      ],
      [
        "m",
        "##at"
      ],
      [
        "ag",
        "##reed"
      ],
      [
        "f",
        "##ur"
      ],
      [
        "g",
        "##u"
      ],
      [
        "some",
        "##one"
      ],
      [
        "##ro",
        "##om"
      ],
      [
        "contin",
        "##ued"
      ],
      [
        "cre",
        "##at"
      ],
      [
        "p",
        "##at"
      ],
      [
        "want",
        "##s"
      ],
      [
        "##as",
        "##ure"
      ],
      [
        "c",
        "##ount"
      ],
      [
        "##s",
        "##et"
      ],
      [
        "lea",
        "##ves"
      ],
      [
        "p",
        "##ink"
      ],
      [
        "squir",
        "##rel"
      ],
      [
        "##as",
        "##k"
      ],
      [
        "b",
        "##ar"
      ],
      [
        "en",
        "##ough"
      ],
      [
        "li",
        "##on"
      ],
      [
        "##am",
        "##a"
      ],
      [
        "v",
        "##is"
      ],
      [
        "mor",
        "##ning"
      ],
      [
        "Wh",
        "##y"
      ],
      [
        "mom",
        "##ent"
      ],
      [
        "O",
        "##K"
      ],
      [
        "fin",
        "##ally"
      ],
      [
        "get",
        "##ting"
      ],
      [
        "cook",
        "##ies"
      ],
      [
        "bre",
        "##ak"
      ],
      [
        "stay",
        "##ed"
      ],
      [
        "##en",
        "##ce"
      ],
      [
        "po",
        "##in"
      ],
      [
        "##an",
        "##ce"
      ],
      [
        "##s",
        "##hed"
      ],
      [
        "be",
        "##ach"
      ],
      [
        "fe",
        "##w"
      ],
      [
        "##a",
        "##pp"
      ],
      [
        "##ri",
        "##es"
      ],
      [
        "f",
        "##ight"
      ],
      [
        "scar",
        "##y"
      ],
      [
        "somet",
        "##imes"
      ],
      [
        "##c",
        "##ed"
      ],
      [
        "##r",
        "##ow"
      ],
      [
        "##r",
        "##ed"
      ],
      [
        "tur",
        "##ned"
      ],
      [
        "din",
        "##ner"
      ],
      [
        "hun",
        "##gry"
      ],
      [
        "f",
        "##all"
      ],
      [
        "m",
        "##other"
      ],
      [
        "gra",
        "##ndma"
      ],
      [
        "##g",
        "##on"
      ],
      [
        "j",
        "##u"
      ],
      [
        "p",
        "##i"
      ],
      [
        "w",
        "##et"
      ],
      [
        "ma",
        "##kes"
      ],
      [
        "amaz",
        "##ing"
      ],
      [
        "try",
        "##ing"
      ],
      [
        "##a",
        "##pped"
      ],
      [
        "pl",
        "##an"
      ],
      [
        "perf",
        "##ect"
      ],
      [
        "dad",
        "##dy"
      ],
      [
        "com",
        "##p"
      ],
      [
        "cast",
        "##le"
      ],
      [
        "other",
        "##s"
      ],
      [
        "##ou",
        "##p"
      ],
      [
        "m",
        "##ar"
      ],
      [
        "climb",
        "##ed"
      ],
      [
        "##ke",
        "##y"
      ],
      [
        "##am",
        "##p"
      ],
      [
        "picture",
        "##s"
      ],
      [
        "tal",
        "##k"
      ],
      [
        "m",
        "##et"
      ],
      [
        "wh",
        "##ite"
      ],
      [
        "mu",
        "##s"
      ],
      [
        "##o",
        "##om"
      ],
      [
        "list",
        "##ened"
      ],
      [
        "J",
        "##ill"
      ],
      [
        "smil",
        "##es"
      ],
      [
        "ball",
        "##oon"
      ],
      [
        "##m",
        "##an"
      ],
      [
        "cl",
        "##ot"
      ],
      [
        "##or",
        "##ing"
      ],
      [
        "C",
        "##ome"
      ],
      [
        "clot",
        "##hes"
      ],
      [
        "al",
        "##one"
      ],
      [
        "po",
        "##l"
      ],
      [
        "ta",
        "##il"
      ],
      [
        "##at",
        "##ed"
      ],
      [
        "sp",
        "##l"
      ],
      [
        "jo",
        "##y"
      ],
      [
        "##r",
        "##ot"
      ],
      [
        "pu",
        "##ppy"
      ],
      [
        "##e",
        "##e"
      ],
      [
        "br",
        "##ought"
      ],
      [
        "was",
        "##n"
      ],
      [
        "d",
        "##eep"
      ],
      [
        "every",
        "##thing"
      ],
      [
        "p",
        "##et"
      ],
      [
        "##is",
        "##ter"
      ],
      [
        "se",
        "##ar"
      ],
      [
        "##ct",
        "##or"
      ],
      [
        "str",
        "##ange"
      ],
      [
        "##d",
        "##er"
      ],
      [
        "sp",
        "##ark"
      ],
      [
        "##el",
        "##c"
      ],
      [
        "gr",
        "##ow"
      ],
      [
        "s",
        "##it"
      ],
      [
        "##ot",
        "##t"
      ],
      [
        "wood",
        "##s"
      ],
      [
        "star",
        "##t"
      ],
      [
        "pull",
        "##ed"
      ],
      [
        "##l",
        "##ing"
      ],
      [
        "sa",
        "##il"
      ],
      [
        "##s",
        "##p"
      ],
      [
        "w",
        "##on"
      ],
      [
        "r",
        "##ide"
      ],
      [
        "ask",
        "##s"
      ],
      [
        "##et",
        "##er"
      ],
      [
        "tre",
        "##at"
      ],
      [
        "p",
        "##ie"
      ],
      [
        "fo",
        "##x"
      ],
      [
        "dan",
        "##ger"
      ],
      [
        "Dad",
        "##dy"
      ],
      [
        "ro",
        "##ll"
      ],
      [
        "vis",
        "##it"
      ],
      [
        "##uff",
        "##y"
      ],
      [
        "##o",
        "##s"
      ],
      [
        "lea",
        "##ve"
      ],
      [
        "So",
        "##on"
      ],
      [
        "O",
        "##h"
      ],
      [
        "##m",
        "##ed"
      ],
      [
        "M",
        "##ama"
      ],
      [
        "##uck",
        "##y"
      ],
      [
        "mus",
        "##ic"
      ],
      [
        "##an",
        "##g"
      ],
      [
        "amaz",
        "##ed"
      ],
      [
        "##m",
        "##e"
      ],
      [
        "wa",
        "##ited"
      ],
      [
        "o",
        "##w"
      ],
      [
        "h",
        "##ide"
      ],
      [
        "t",
        "##eddy"
      ],
      [
        "tow",
        "##ards"
      ],
      [
        "A",
        "##ll"
      ],
      [
        "##e",
        "##ver"
      ],
      [
        "p",
        "##re"
      ],
      [
        "f",
        "##ield"
      ],
      [
        "##ow",
        "##er"
      ],
      [
        "la",
        "##nd"
      ],
      [
        "##e",
        "##ad"
      ],
      [
        "##c",
        "##y"
      ],
      [
        "p",
        "##en"
      ],
      [
        "fly",
        "##ing"
      ],
      [
        "##le",
        "##p"
      ],
      [
        "##z",
        "##z"
      ],
      [
        "run",
        "##s"
      ],
      [
        "##ain",
        "##ed"
      ],
      [
        "s",
        "##illy"
      ],
      [
        "shar",
        "##ed"
      ],
      [
        "own",
        "##er"
      ],
      [
        "##am",
        "##es"
      ],
      [
        "cl",
        "##oud"
      ],
      [
        "s",
        "##ec"
      ],
      [
        "##g",
        "##s"
      ],
      [
        "##ap",
        "##e"
      ],
      [
        "bel",
        "##ie"
      ],
      [
        "li",
        "##ving"
      ],
      [
        "jo",
        "##b"
      ],
      [
        "##o",
        "##l"
      ],
      [
        "##ug",
        "##g"
      ],
      [
        "qu",
        "##i"
      ],
      [
        "##as",
        "##h"
      ],
      [
        "s",
        "##ide"
      ],
      [
        "prom",
        "##ised"
      ],
      [
        "##ig",
        "##g"
      ],
      [
        "##or",
        "##m"
      ],
      [
        "mor",
        "##al"
      ],
      [
        "l",
        "##ake"
      ],
      [
        "think",
        "##s"
      ],
      [
        "##ck",
        "##et"
      ],
      [
        "m",
        "##oney"
      ],
      [
        "M",
        "##ary"
      ],
      [
        "pain",
        "##t"
      ],
      [
        "s",
        "##ister"
      ],
      [
        "##op",
        "##e"
      ],
      [
        "##th",
        "##y"
      ],
      [
        "par",
        "##ty"
      ],
      [
        "##u",
        "##ally"
      ],
      [
        "qui",
        "##et"
      ],
      [
        "mu",
        "##st"
      ],
      [
        "##is",
        "##es"
      ],
      [
        "ra",
        "##ce"
      ],
      [
        "##c",
        "##le"
      ],
      [
        "##av",
        "##y"
      ],
      [
        "O",
        "##kay"
      ],
      [
        "##ec",
        "##es"
      ],
      [
        "##s",
        "##w"
      ],
      [
        "pi",
        "##eces"
      ],
      [
        "wor",
        "##ried"
      ],
      [
        "an",
        "##sw"
      ],
      [
        "##un",
        "##ch"
      ],
      [
        "b",
        "##ott"
      ],
      [
        "p",
        "##ot"
      ],
      [
        "J",
        "##ust"
      ],
      [
        "M",
        "##r"
      ],
      [
        "cu",
        "##p"
      ],
      [
        "slow",
        "##ly"
      ],
      [
        "color",
        "##ful"
      ],
      [
        "fast",
        "##er"
      ],
      [
        "gr",
        "##ate"
      ],
      [
        "dan",
        "##ce"
      ],
      [
        "br",
        "##an"
      ],
      [
        "F",
        "##l"
      ],
      [
        "w",
        "##elc"
      ],
      [
        "bro",
        "##ke"
      ],
      [
        "##i",
        "##x"
      ],
      [
        "S",
        "##ure"
      ],
      [
        "S",
        "##t"
      ],
      [
        "grate",
        "##ful"
      ],
      [
        "su",
        "##ch"
      ],
      [
        "big",
        "##ger"
      ],
      [
        "pr",
        "##o"
      ],
      [
        "ch",
        "##o"
      ],
      [
        "##z",
        "##e"
      ],
      [
        "tra",
        "##in"
      ],
      [
        "st",
        "##u"
      ],
      [
        "sn",
        "##ack"
      ],
      [
        "re",
        "##ach"
      ],
      [
        "bl",
        "##ank"
      ],
      [
        "e",
        "##ar"
      ],
      [
        "mon",
        "##ster"
      ],
      [
        "c",
        "##andy"
      ],
      [
        "jo",
        "##in"
      ],
      [
        "bl",
        "##ack"
      ],
      [
        "w",
        "##in"
      ],
      [
        "r",
        "##iver"
      ],
      [
        "##le",
        "##ss"
      ],
      [
        "##u",
        "##it"
      ],
      [
        "##as",
        "##ed"
      ],
      [
        "blank",
        "##et"
      ],
      [
        "##ea",
        "##k"
      ],
      [
        "sc",
        "##ream"
      ],
      [
        "tre",
        "##asure"
      ],
      [
        "magic",
        "##al"
      ],
      [
        "prin",
        "##cess"
      ],
      [
        "sm",
        "##art"
      ],
      [
        "b",
        "##ike"
      ],
      [
        "danger",
        "##ous"
      ],
      [
        "dra",
        "##gon"
      ],
      [
        "ac",
        "##ross"
      ],
      [
        "mon",
        "##key"
      ],
      [
        "mo",
        "##st"
      ],
      [
        "every",
        "##where"
      ],
      [
        "help",
        "##ing"
      ],
      [
        "e",
        "##m"
      ],
      [
        "n",
        "##ap"
      ],
      [
        "Jim",
        "##my"
      ],
      [
        "M",
        "##um"
      ],
      [
        "far",
        "##mer"
      ],
      [
        "p",
        "##ea"
      ],
      [
        "##out",
        "##h"
      ],
      [
        "##a",
        "##w"
      ],
      [
        "##ck",
        "##ed"
      ],
      [
        "Gra",
        "##ndma"
      ],
      [
        "m",
        "##outh"
      ],
      [
        "dis",
        "##app"
      ],
      [
        "m",
        "##in"
      ],
      [
        "##ic",
        "##y"
      ],
      [
        "wor",
        "##ds"
      ],
      [
        "##ear",
        "##ed"
      ],
      [
        "st",
        "##re"
      ],
      [
        "##m",
        "##ing"
      ],
      [
        "tow",
        "##er"
      ],
      [
        "p",
        "##ass"
      ],
      [
        "sa",
        "##me"
      ],
      [
        "th",
        "##rew"
      ],
      [
        "doll",
        "##s"
      ],
      [
        "ste",
        "##pped"
      ],
      [
        "he",
        "##avy"
      ],
      [
        "##c",
        "##hes"
      ],
      [
        "##lep",
        "##h"
      ],
      [
        "bow",
        "##l"
      ],
      [
        "b",
        "##ite"
      ],
      [
        "##or",
        "##ed"
      ],
      [
        "dir",
        "##ty"
      ],
      [
        "tw",
        "##ins"
      ],
      [
        "##d",
        "##e"
      ],
      [
        "be",
        "##e"
      ],
      [
        "belie",
        "##ve"
      ],
      [
        "cry",
        "##ing"
      ],
      [
        "sp",
        "##r"
      ],
      [
        "ac",
        "##c"
      ],
      [
        "do",
        "##ctor"
      ],
      [
        "##ch",
        "##ool"
      ],
      [
        "##id",
        "##ent"
      ],
      [
        "sig",
        "##n"
      ],
      [
        "b",
        "##ath"
      ],
      [
        "would",
        "##n"
      ],
      [
        "he",
        "##al"
      ],
      [
        "H",
        "##i"
      ],
      [
        "##f",
        "##ort"
      ],
      [
        "h",
        "##ig"
      ],
      [
        "##b",
        "##ble"
      ],
      [
        "car",
        "##rot"
      ],
      [
        "clo",
        "##sed"
      ],
      [
        "##a",
        "##le"
      ],
      [
        "pl",
        "##ant"
      ],
      [
        "he",
        "##art"
      ],
      [
        "fr",
        "##uit"
      ],
      [
        "s",
        "##chool"
      ],
      [
        "c",
        "##our"
      ],
      [
        "st",
        "##uck"
      ],
      [
        "b",
        "##uck"
      ],
      [
        "at",
        "##t"
      ],
      [
        "P",
        "##lease"
      ],
      [
        "br",
        "##own"
      ],
      [
        "##ask",
        "##et"
      ],
      [
        "Em",
        "##ma"
      ],
      [
        "##i",
        "##pped"
      ],
      [
        "hop",
        "##ed"
      ],
      [
        "b",
        "##asket"
      ],
      [
        "##it",
        "##ing"
      ],
      [
        "su",
        "##ddenly"
      ],
      [
        "m",
        "##ix"
      ],
      [
        "ch",
        "##air"
      ],
      [
        "feel",
        "##s"
      ],
      [
        "co",
        "##ll"
      ],
      [
        "eat",
        "##ing"
      ],
      [
        "to",
        "##wn"
      ],
      [
        "cr",
        "##ay"
      ],
      [
        "p",
        "##ack"
      ],
      [
        "cour",
        "##se"
      ],
      [
        "##c",
        "##her"
      ],
      [
        "cl",
        "##apped"
      ],
      [
        "v",
        "##e"
      ],
      [
        "H",
        "##ow"
      ],
      [
        "gent",
        "##le"
      ],
      [
        "##pp",
        "##ing"
      ],
      [
        "fair",
        "##y"
      ],
      [
        "but",
        "##t"
      ],
      [
        "st",
        "##and"
      ],
      [
        "##vent",
        "##ually"
      ],
      [
        "##i",
        "##re"
      ],
      [
        "##or",
        "##s"
      ],
      [
        "##i",
        "##er"
      ],
      [
        "dro",
        "##ve"
      ],
      [
        "welc",
        "##ome"
      ],
      [
        "pu",
        "##shed"
      ],
      [
        "##b",
        "##r"
      ],
      [
        "##is",
        "##sed"
      ],
      [
        "with",
        "##out"
      ],
      [
        "In",
        "##side"
      ],
      [
        "to",
        "##day"
      ],
      [
        "ne",
        "##igh"
      ],
      [
        "sw",
        "##ings"
      ],
      [
        "hig",
        "##her"
      ],
      [
        "po",
        "##cket"
      ],
      [
        "##or",
        "##row"
      ],
      [
        "h",
        "##it"
      ],
      [
        "tea",
        "##cher"
      ],
      [
        "p",
        "##ers"
      ],
      [
        "œ",
        "##I"
      ],
      [
        "neigh",
        "##b"
      ],
      [
        "##or",
        "##d"
      ],
      [
        "f",
        "##ree"
      ],
      [
        "g",
        "##ames"
      ],
      [
        "pie",
        "##ce"
      ],
      [
        "sm",
        "##o"
      ],
      [
        "##our",
        "##n"
      ],
      [
        "che",
        "##ered"
      ],
      [
        "w",
        "##ings"
      ],
      [
        "b",
        "##en"
      ],
      [
        "for",
        "##get"
      ],
      [
        "j",
        "##ourn"
      ],
      [
        "long",
        "##er"
      ],
      [
        "y",
        "##ard"
      ],
      [
        "expl",
        "##ained"
      ],
      [
        "##m",
        "##ent"
      ],
      [
        "##i",
        "##ble"
      ],
      [
        "c",
        "##orn"
      ],
      [
        "acc",
        "##ident"
      ],
      [
        "d",
        "##ry"
      ],
      [
        "##um",
        "##b"
      ],
      [
        "al",
        "##ong"
      ],
      [
        "The",
        "##ir"
      ],
      [
        "##ra",
        "##ct"
      ],
      [
        "ne",
        "##ck"
      ],
      [
        "##itt",
        "##ing"
      ],
      [
        "no",
        "##ises"
      ],
      [
        "in",
        "##st"
      ],
      [
        "sa",
        "##ng"
      ],
      [
        "thr",
        "##ow"
      ],
      [
        "l",
        "##ate"
      ],
      [
        "happ",
        "##en"
      ],
      [
        "##ve",
        "##l"
      ],
      [
        "hug",
        "##s"
      ],
      [
        "you",
        "##ng"
      ],
      [
        "sho",
        "##es"
      ],
      [
        "turn",
        "##s"
      ],
      [
        "stor",
        "##ies"
      ],
      [
        "##leph",
        "##ant"
      ],
      [
        "l",
        "##on"
      ],
      [
        "m",
        "##iss"
      ],
      [
        "##s",
        "##c"
      ],
      [
        "adventure",
        "##s"
      ],
      [
        "sing",
        "##ing"
      ],
      [
        "R",
        "##e"
      ],
      [
        "we",
        "##ll"
      ],
      [
        "gi",
        "##ft"
      ],
      [
        "app",
        "##le"
      ],
      [
        "##t",
        "##s"
      ],
      [
        "j",
        "##ar"
      ],
      [
        "l",
        "##unch"
      ],
      [
        "T",
        "##w"
      ],
      [
        "sh",
        "##ap"
      ],
      [
        "tr",
        "##ou"
      ],
      [
        "up",
        "##set"
      ],
      [
        "d",
        "##ist"
      ],
      [
        "lon",
        "##ely"
      ],
      [
        "k",
        "##ey"
      ],
      [
        "to",
        "##m"
      ],
      [
        "##bb",
        "##y"
      ],
      [
        "stre",
        "##et"
      ],
      [
        "bel",
        "##ong"
      ],
      [
        "m",
        "##ine"
      ],
      [
        "e",
        "##lephant"
      ],
      [
        "pl",
        "##ac"
      ],
      [
        "sec",
        "##ret"
      ],
      [
        "##ou",
        "##n"
      ],
      [
        "f",
        "##ence"
      ],
      [
        "w",
        "##ish"
      ],
      [
        "##ount",
        "##ain"
      ],
      [
        "Fl",
        "##uffy"
      ],
      [
        "sh",
        "##ook"
      ],
      [
        "expl",
        "##oring"
      ],
      [
        "mo",
        "##ved"
      ],
      [
        "p",
        "##urp"
      ],
      [
        "Sam",
        "##my"
      ],
      [
        "G",
        "##o"
      ],
      [
        "##aught",
        "##y"
      ],
      [
        "near",
        "##by"
      ],
      [
        "sh",
        "##op"
      ],
      [
        "s",
        "##oup"
      ],
      [
        "n",
        "##aughty"
      ],
      [
        "w",
        "##ise"
      ],
      [
        "br",
        "##ing"
      ],
      [
        "star",
        "##s"
      ],
      [
        "ex",
        "##p"
      ],
      [
        "ow",
        "##l"
      ],
      [
        "##fu",
        "##sed"
      ],
      [
        "w",
        "##he"
      ],
      [
        "##a",
        "##il"
      ],
      [
        "in",
        "##v"
      ],
      [
        "##b",
        "##ow"
      ],
      [
        "c",
        "##aught"
      ],
      [
        "##ock",
        "##ed"
      ],
      [
        "##y",
        "##ard"
      ],
      [
        "p",
        "##h"
      ],
      [
        "##w",
        "##ard"
      ],
      [
        "b",
        "##at"
      ],
      [
        "##c",
        "##es"
      ],
      [
        "se",
        "##a"
      ],
      [
        "back",
        "##yard"
      ],
      [
        "see",
        "##med"
      ],
      [
        "dr",
        "##ink"
      ],
      [
        "rel",
        "##ie"
      ],
      [
        "dro",
        "##pped"
      ],
      [
        "rock",
        "##s"
      ],
      [
        "A",
        "##l"
      ],
      [
        "##aught",
        "##er"
      ],
      [
        "d",
        "##es"
      ],
      [
        "buck",
        "##et"
      ],
      [
        "B",
        "##e"
      ],
      [
        "far",
        "##m"
      ],
      [
        "purp",
        "##le"
      ],
      [
        "j",
        "##e"
      ],
      [
        "##ad",
        "##ow"
      ],
      [
        "sw",
        "##am"
      ],
      [
        "res",
        "##p"
      ],
      [
        "##ion",
        "##s"
      ],
      [
        "ta",
        "##king"
      ],
      [
        "ma",
        "##il"
      ],
      [
        "##s",
        "##y"
      ],
      [
        "or",
        "##ange"
      ],
      [
        "th",
        "##ough"
      ],
      [
        "c",
        "##ow"
      ],
      [
        "p",
        "##ast"
      ],
      [
        "shap",
        "##es"
      ],
      [
        "##it",
        "##y"
      ],
      [
        "##o",
        "##g"
      ],
      [
        "ta",
        "##kes"
      ],
      [
        "wo",
        "##ke"
      ],
      [
        "M",
        "##y"
      ],
      [
        "ben",
        "##ch"
      ],
      [
        "##e",
        "##k"
      ],
      [
        "he",
        "##llo"
      ],
      [
        "sound",
        "##s"
      ],
      [
        "a",
        "##f"
      ],
      [
        "##un",
        "##g"
      ],
      [
        "f",
        "##it"
      ],
      [
        "bus",
        "##y"
      ],
      [
        "wonder",
        "##ed"
      ],
      [
        "##our",
        "##s"
      ],
      [
        "o",
        "##b"
      ],
      [
        "t",
        "##iny"
      ],
      [
        "L",
        "##ater"
      ],
      [
        "m",
        "##il"
      ],
      [
        "##es",
        "##e"
      ],
      [
        "m",
        "##ark"
      ],
      [
        "no",
        "##se"
      ],
      [
        "s",
        "##itting"
      ],
      [
        "##co",
        "##l"
      ],
      [
        "rain",
        "##bow"
      ],
      [
        "n",
        "##est"
      ],
      [
        "d",
        "##aughter"
      ],
      [
        "d",
        "##e"
      ],
      [
        "m",
        "##ad"
      ],
      [
        "##f",
        "##ish"
      ],
      [
        "k",
        "##ite"
      ],
      [
        "c",
        "##ou"
      ],
      [
        "hold",
        "##ing"
      ],
      [
        "##re",
        "##ad"
      ],
      [
        "not",
        "##hing"
      ],
      [
        "p",
        "##art"
      ],
      [
        "##c",
        "##ing"
      ],
      [
        "ju",
        "##ice"
      ],
      [
        "##ck",
        "##s"
      ],
      [
        "com",
        "##es"
      ],
      [
        "##th",
        "##day"
      ],
      [
        "arm",
        "##s"
      ],
      [
        "##ce",
        "##ful"
      ],
      [
        "p",
        "##ig"
      ],
      [
        "W",
        "##ith"
      ],
      [
        "co",
        "##at"
      ],
      [
        "E",
        "##ll"
      ],
      [
        "r",
        "##ound"
      ],
      [
        "##in",
        "##ing"
      ],
      [
        "c",
        "##ir"
      ],
      [
        "##o",
        "##se"
      ],
      [
        "bran",
        "##ch"
      ],
      [
        "##ra",
        "##id"
      ],
      [
        "##q",
        "##ue"
      ],
      [
        "##g",
        "##n"
      ],
      [
        "relie",
        "##ved"
      ],
      [
        "af",
        "##raid"
      ],
      [
        "t",
        "##e"
      ],
      [
        "in",
        "##ter"
      ],
      [
        "##id",
        "##ge"
      ],
      [
        "dri",
        "##ver"
      ],
      [
        "##ver",
        "##ed"
      ],
      [
        "c",
        "##a"
      ],
      [
        "fore",
        "##ver"
      ],
      [
        "sp",
        "##oon"
      ],
      [
        "C",
        "##h"
      ],
      [
        "car",
        "##ry"
      ],
      [
        "day",
        "##s"
      ],
      [
        "cut",
        "##e"
      ],
      [
        "Jen",
        "##ny"
      ],
      [
        "##o",
        "##st"
      ],
      [
        "s",
        "##ick"
      ],
      [
        "b",
        "##oun"
      ],
      [
        "prom",
        "##ise"
      ],
      [
        "Tw",
        "##eet"
      ],
      [
        "G",
        "##ood"
      ],
      [
        "hug",
        "##e"
      ],
      [
        "##u",
        "##nt"
      ],
      [
        "pat",
        "##ient"
      ],
      [
        "tou",
        "##ched"
      ],
      [
        "k",
        "##ing"
      ],
      [
        "bir",
        "##thday"
      ],
      [
        "f",
        "##ing"
      ],
      [
        "l",
        "##etter"
      ],
      [
        "che",
        "##ese"
      ],
      [
        "gra",
        "##b"
      ],
      [
        "O",
        "##f"
      ],
      [
        "exc",
        "##iting"
      ],
      [
        "##ch",
        "##ing"
      ],
      [
        "sun",
        "##ny"
      ],
      [
        "on",
        "##to"
      ],
      [
        "bu",
        "##sh"
      ],
      [
        "##p",
        "##ed"
      ],
      [
        "laug",
        "##hing"
      ],
      [
        "##bo",
        "##ard"
      ],
      [
        "b",
        "##and"
      ],
      [
        "journ",
        "##ey"
      ],
      [
        "g",
        "##igg"
      ],
      [
        "bre",
        "##ad"
      ],
      [
        "creat",
        "##ure"
      ],
      [
        "dis",
        "##co"
      ],
      [
        "##itt",
        "##ens"
      ],
      [
        "r",
        "##et"
      ],
      [
        "in",
        "##c"
      ],
      [
        "li",
        "##fe"
      ],
      [
        "##op",
        "##h"
      ],
      [
        "im",
        "##ag"
      ],
      [
        "k",
        "##ick"
      ],
      [
        "p",
        "##ower"
      ],
      [
        "##sh",
        "##ine"
      ],
      [
        "##g",
        "##ged"
      ],
      [
        "hop",
        "##e"
      ],
      [
        "she",
        "##ll"
      ],
      [
        "cra",
        "##w"
      ],
      [
        "Em",
        "##ily"
      ],
      [
        "co",
        "##zy"
      ],
      [
        "swim",
        "##ming"
      ],
      [
        "bott",
        "##le"
      ],
      [
        "##le",
        "##t"
      ],
      [
        "##g",
        "##g"
      ],
      [
        "mil",
        "##k"
      ],
      [
        "w",
        "##ra"
      ],
      [
        "shar",
        "##p"
      ],
      [
        "m",
        "##ist"
      ],
      [
        "s",
        "##uc"
      ],
      [
        "##n",
        "##ess"
      ],
      [
        "inst",
        "##ead"
      ],
      [
        "ret",
        "##ur"
      ],
      [
        "watch",
        "##ing"
      ],
      [
        "wh",
        "##ist"
      ],
      [
        "sp",
        "##in"
      ],
      [
        "##t",
        "##en"
      ],
      [
        "##est",
        "##ing"
      ],
      [
        "b",
        "##ought"
      ],
      [
        "##al",
        "##m"
      ],
      [
        "accident",
        "##ally"
      ],
      [
        "e",
        "##as"
      ],
      [
        "sun",
        "##shine"
      ],
      [
        "sh",
        "##out"
      ],
      [
        "c",
        "##ave"
      ],
      [
        "##p",
        "##a"
      ],
      [
        "sp",
        "##o"
      ],
      [
        "gi",
        "##ves"
      ],
      [
        "put",
        "##s"
      ],
      [
        "He",
        "##y"
      ],
      [
        "l",
        "##ucky"
      ],
      [
        "h",
        "##ar"
      ],
      [
        "tal",
        "##ked"
      ],
      [
        "h",
        "##oney"
      ],
      [
        "S",
        "##omet"
      ],
      [
        "pu",
        "##dd"
      ],
      [
        "poin",
        "##ted"
      ],
      [
        "e",
        "##nt"
      ],
      [
        "g",
        "##ather"
      ],
      [
        "app",
        "##les"
      ],
      [
        "ro",
        "##ad"
      ],
      [
        "min",
        "##ut"
      ],
      [
        "smil",
        "##ing"
      ],
      [
        "##el",
        "##s"
      ],
      [
        "h",
        "##or"
      ],
      [
        "any",
        "##one"
      ],
      [
        "sand",
        "##w"
      ],
      [
        "l",
        "##ater"
      ],
      [
        "c",
        "##e"
      ],
      [
        "sear",
        "##ched"
      ],
      [
        "##b",
        "##all"
      ],
      [
        "f",
        "##an"
      ],
      [
        "ro",
        "##ar"
      ],
      [
        "##it",
        "##ch"
      ],
      [
        "##itt",
        "##en"
      ],
      [
        "a",
        "##ct"
      ],
      [
        "##ir",
        "##t"
      ],
      [
        "##ble",
        "##m"
      ],
      [
        "##iz",
        "##e"
      ],
      [
        "pro",
        "##blem"
      ],
      [
        "me",
        "##et"
      ],
      [
        "m",
        "##ach"
      ],
      [
        "I",
        "##f"
      ],
      [
        "w",
        "##om"
      ],
      [
        "lo",
        "##ves"
      ],
      [
        "inter",
        "##esting"
      ],
      [
        "wom",
        "##an"
      ],
      [
        "pl",
        "##ane"
      ],
      [
        "pre",
        "##s"
      ],
      [
        "k",
        "##iss"
      ],
      [
        "heal",
        "##thy"
      ],
      [
        "duck",
        "##s"
      ],
      [
        "##ear",
        "##s"
      ],
      [
        "##o",
        "##nd"
      ],
      [
        "p",
        "##ile"
      ],
      [
        "tast",
        "##y"
      ],
      [
        "##i",
        "##pp"
      ],
      [
        "w",
        "##ide"
      ],
      [
        "##u",
        "##b"
      ],
      [
        "cle",
        "##ver"
      ],
      [
        "v",
        "##ill"
      ],
      [
        "##a",
        "##ur"
      ],
      [
        "##am",
        "##ed"
      ],
      [
        "z",
        "##oom"
      ],
      [
        "ad",
        "##m"
      ],
      [
        "cray",
        "##ons"
      ],
      [
        "pers",
        "##on"
      ],
      [
        "##on",
        "##t"
      ],
      [
        "##o",
        "##ve"
      ],
      [
        "sp",
        "##id"
      ],
      [
        "pr",
        "##ot"
      ],
      [
        "##r",
        "##ound"
      ],
      [
        "e",
        "##ag"
      ],
      [
        "trou",
        "##ble"
      ],
      [
        "mat",
        "##ter"
      ],
      [
        "##nd",
        "##pa"
      ],
      [
        "##er",
        "##ly"
      ],
      [
        "##er",
        "##t"
      ],
      [
        "p",
        "##op"
      ],
      [
        "##ow",
        "##ed"
      ],
      [
        "cloud",
        "##s"
      ],
      [
        "stor",
        "##m"
      ],
      [
        "p",
        "##ill"
      ],
      [
        "p",
        "##ath"
      ],
      [
        "fe",
        "##ather"
      ],
      [
        "r",
        "##ope"
      ],
      [
        "##f",
        "##ted"
      ],
      [
        "œ",
        "##W"
      ],
      [
        "##fort",
        "##able"
      ],
      [
        "sh",
        "##ining"
      ],
      [
        "fr",
        "##ont"
      ],
      [
        "smell",
        "##ed"
      ],
      [
        "h",
        "##on"
      ],
      [
        "W",
        "##here"
      ],
      [
        "##e",
        "##b"
      ],
      [
        "p",
        "##ract"
      ],
      [
        "J",
        "##ake"
      ],
      [
        "butt",
        "##on"
      ],
      [
        "##um",
        "##ber"
      ],
      [
        "wh",
        "##ich"
      ],
      [
        "v",
        "##al"
      ],
      [
        "spot",
        "##ted"
      ],
      [
        "z",
        "##oo"
      ],
      [
        "pres",
        "##ent"
      ],
      [
        "scream",
        "##ed"
      ],
      [
        "a",
        "##p"
      ],
      [
        "mu",
        "##d"
      ],
      [
        "A",
        "##re"
      ],
      [
        "sa",
        "##f"
      ],
      [
        "or",
        "##gan"
      ],
      [
        "dan",
        "##ced"
      ],
      [
        "qu",
        "##est"
      ],
      [
        "##d",
        "##ge"
      ],
      [
        "app",
        "##eared"
      ],
      [
        "se",
        "##at"
      ],
      [
        "pu",
        "##zz"
      ],
      [
        "che",
        "##er"
      ],
      [
        "##is",
        "##a"
      ],
      [
        "snow",
        "##man"
      ],
      [
        "b",
        "##ur"
      ],
      [
        "M",
        "##ittens"
      ],
      [
        "sn",
        "##ake"
      ],
      [
        "##ul",
        "##ar"
      ],
      [
        "th",
        "##in"
      ],
      [
        "s",
        "##ur"
      ],
      [
        "To",
        "##gether"
      ],
      [
        "w",
        "##ild"
      ],
      [
        "##f",
        "##l"
      ],
      [
        "as",
        "##leep"
      ],
      [
        "love",
        "##ly"
      ],
      [
        "answ",
        "##er"
      ],
      [
        "##c",
        "##er"
      ],
      [
        "##ep",
        "##end"
      ],
      [
        "neighb",
        "##or"
      ],
      [
        "wear",
        "##ing"
      ],
      [
        "go",
        "##es"
      ],
      [
        "hor",
        "##se"
      ],
      [
        "##oo",
        "##se"
      ],
      [
        "gent",
        "##ly"
      ],
      [
        "b",
        "##ark"
      ],
      [
        "who",
        "##le"
      ],
      [
        "gi",
        "##ant"
      ],
      [
        "plac",
        "##es"
      ],
      [
        "L",
        "##isa"
      ],
      [
        "##a",
        "##kes"
      ],
      [
        "tri",
        "##p"
      ],
      [
        "sh",
        "##r"
      ],
      [
        "m",
        "##ed"
      ],
      [
        "corn",
        "##er"
      ],
      [
        "imp",
        "##ress"
      ],
      [
        "dir",
        "##t"
      ],
      [
        "##at",
        "##o"
      ],
      [
        "m",
        "##ind"
      ],
      [
        "spl",
        "##as"
      ],
      [
        "su",
        "##pp"
      ],
      [
        "tri",
        "##es"
      ],
      [
        "sp",
        "##ent"
      ],
      [
        "Somet",
        "##imes"
      ],
      [
        "resp",
        "##ect"
      ],
      [
        "con",
        "##fused"
      ],
      [
        "li",
        "##ve"
      ],
      [
        "c",
        "##ard"
      ],
      [
        "fe",
        "##et"
      ],
      [
        "roll",
        "##ed"
      ],
      [
        "sl",
        "##id"
      ],
      [
        "s",
        "##er"
      ],
      [
        "##n",
        "##ic"
      ],
      [
        "tast",
        "##ed"
      ],
      [
        "##ce",
        "##an"
      ],
      [
        "as",
        "##h"
      ],
      [
        "o",
        "##cean"
      ],
      [
        "forg",
        "##ive"
      ],
      [
        "pic",
        "##nic"
      ],
      [
        "la",
        "##st"
      ],
      [
        "mach",
        "##ine"
      ],
      [
        "dri",
        "##ve"
      ],
      [
        "ru",
        "##de"
      ],
      [
        "t",
        "##eet"
      ],
      [
        "M",
        "##ummy"
      ],
      [
        "teet",
        "##h"
      ],
      [
        "ph",
        "##one"
      ],
      [
        "##iz",
        "##z"
      ],
      [
        "##ss",
        "##ed"
      ],
      [
        "##itt",
        "##y"
      ],
      [
        "p",
        "##an"
      ],
      [
        "o",
        "##ven"
      ],
      [
        "p",
        "##our"
      ],
      [
        "c",
        "##alm"
      ],
      [
        "cook",
        "##ie"
      ],
      [
        "pretend",
        "##ed"
      ],
      [
        "del",
        "##ight"
      ],
      [
        "re",
        "##c"
      ],
      [
        "spid",
        "##er"
      ],
      [
        "fur",
        "##ry"
      ],
      [
        "P",
        "##eter"
      ],
      [
        "r",
        "##ing"
      ],
      [
        "##l",
        "##a"
      ],
      [
        "l",
        "##ay"
      ],
      [
        "wor",
        "##m"
      ],
      [
        "##un",
        "##k"
      ],
      [
        "fa",
        "##ces"
      ],
      [
        "prot",
        "##ect"
      ],
      [
        "ch",
        "##ick"
      ],
      [
        "help",
        "##ful"
      ],
      [
        "l",
        "##ad"
      ],
      [
        "L",
        "##ittle"
      ],
      [
        "##b",
        "##ar"
      ],
      [
        "sa",
        "##l"
      ],
      [
        "w",
        "##ip"
      ],
      [
        "e",
        "##ventually"
      ],
      [
        "wa",
        "##ve"
      ],
      [
        "b",
        "##an"
      ],
      [
        "m",
        "##ountain"
      ],
      [
        "##on",
        "##es"
      ],
      [
        "cho",
        "##col"
      ],
      [
        "tal",
        "##king"
      ],
      [
        "fo",
        "##ld"
      ],
      [
        "ro",
        "##b"
      ],
      [
        "sh",
        "##y"
      ],
      [
        "##ar",
        "##ge"
      ],
      [
        "tom",
        "##orrow"
      ],
      [
        "s",
        "##el"
      ],
      [
        "H",
        "##ere"
      ],
      [
        "fo",
        "##ot"
      ],
      [
        "t",
        "##id"
      ],
      [
        "sp",
        "##read"
      ],
      [
        "i",
        "##gn"
      ],
      [
        "vill",
        "##age"
      ],
      [
        "bu",
        "##bble"
      ],
      [
        "t",
        "##un"
      ],
      [
        "rem",
        "##ind"
      ],
      [
        "co",
        "##in"
      ],
      [
        "##i",
        "##fe"
      ],
      [
        "build",
        "##ing"
      ],
      [
        "wr",
        "##ite"
      ],
      [
        "cou",
        "##ch"
      ],
      [
        "T",
        "##eddy"
      ],
      [
        "pu",
        "##sh"
      ],
      [
        "see",
        "##k"
      ],
      [
        "lad",
        "##der"
      ],
      [
        "##p",
        "##er"
      ],
      [
        "coll",
        "##ect"
      ],
      [
        "smo",
        "##oth"
      ],
      [
        "fight",
        "##ing"
      ],
      [
        "##le",
        "##x"
      ],
      [
        "treat",
        "##s"
      ],
      [
        "w",
        "##ore"
      ],
      [
        "too",
        "##l"
      ],
      [
        "ch",
        "##ased"
      ],
      [
        "b",
        "##lew"
      ],
      [
        "st",
        "##ret"
      ],
      [
        "##al",
        "##s"
      ],
      [
        "p",
        "##ool"
      ],
      [
        "##bar",
        "##ra"
      ],
      [
        "bug",
        "##s"
      ],
      [
        "st",
        "##ep"
      ],
      [
        "em",
        "##barra"
      ],
      [
        "fin",
        "##ish"
      ],
      [
        "hid",
        "##ing"
      ],
      [
        "c",
        "##ross"
      ],
      [
        "neck",
        "##l"
      ],
      [
        "wait",
        "##ing"
      ],
      [
        "c",
        "##oo"
      ],
      [
        "rob",
        "##ot"
      ],
      [
        "kne",
        "##e"
      ],
      [
        "S",
        "##ome"
      ],
      [
        "song",
        "##s"
      ],
      [
        "pudd",
        "##le"
      ],
      [
        "be",
        "##ll"
      ],
      [
        "she",
        "##lf"
      ],
      [
        "##at",
        "##or"
      ],
      [
        "st",
        "##ir"
      ],
      [
        "can",
        "##n"
      ],
      [
        "m",
        "##aybe"
      ],
      [
        "re",
        "##p"
      ],
      [
        "when",
        "##ever"
      ],
      [
        "Su",
        "##s"
      ],
      [
        "a",
        "##nt"
      ],
      [
        "st",
        "##ra"
      ],
      [
        "sel",
        "##fish"
      ],
      [
        "B",
        "##u"
      ],
      [
        "chocol",
        "##ate"
      ],
      [
        "cann",
        "##ot"
      ],
      [
        "##ul",
        "##t"
      ],
      [
        "str",
        "##ing"
      ],
      [
        "so",
        "##l"
      ],
      [
        "l",
        "##arge"
      ],
      [
        "Every",
        "##where"
      ],
      [
        "tast",
        "##e"
      ],
      [
        "lea",
        "##f"
      ],
      [
        "h",
        "##um"
      ],
      [
        "ban",
        "##an"
      ],
      [
        "n",
        "##et"
      ],
      [
        "p",
        "##aw"
      ],
      [
        "p",
        "##le"
      ],
      [
        "sa",
        "##ck"
      ],
      [
        "##bo",
        "##x"
      ],
      [
        "was",
        "##h"
      ],
      [
        "fix",
        "##ed"
      ],
      [
        "##le",
        "##br"
      ],
      [
        "tid",
        "##y"
      ],
      [
        "spr",
        "##ay"
      ],
      [
        "bar",
        "##ked"
      ],
      [
        "##ump",
        "##y"
      ],
      [
        "col",
        "##our"
      ],
      [
        "st",
        "##one"
      ],
      [
        "ce",
        "##lebr"
      ],
      [
        "Joh",
        "##nn"
      ],
      [
        "g",
        "##en"
      ],
      [
        "##ir",
        "##d"
      ],
      [
        "St",
        "##op"
      ],
      [
        "cl",
        "##oth"
      ],
      [
        "cra",
        "##b"
      ],
      [
        "h",
        "##ours"
      ],
      [
        "##N",
        "##S"
      ],
      [
        "œ",
        "##T"
      ],
      [
        "pea",
        "##ceful"
      ],
      [
        "œ",
        "##Y"
      ],
      [
        "L",
        "##e"
      ],
      [
        "un",
        "##i"
      ],
      [
        "Wh",
        "##o"
      ],
      [
        "sh",
        "##irt"
      ],
      [
        "##ung",
        "##le"
      ],
      [
        "he",
        "##l"
      ],
      [
        "Johnn",
        "##y"
      ],
      [
        "##u",
        "##sh"
      ],
      [
        "d",
        "##eter"
      ],
      [
        "##air",
        "##s"
      ],
      [
        "##o",
        "##in"
      ],
      [
        "m",
        "##issed"
      ],
      [
        "Al",
        "##ice"
      ],
      [
        "##h",
        "##at"
      ],
      [
        "##ig",
        "##er"
      ],
      [
        "j",
        "##ungle"
      ],
      [
        "##ell",
        "##y"
      ],
      [
        "deter",
        "##m"
      ],
      [
        "for",
        "##ward"
      ],
      [
        "land",
        "##ed"
      ],
      [
        "embarra",
        "##ssed"
      ],
      [
        "cle",
        "##ar"
      ],
      [
        "minut",
        "##es"
      ],
      [
        "neckl",
        "##ace"
      ],
      [
        "jump",
        "##ing"
      ],
      [
        "hon",
        "##est"
      ],
      [
        "dec",
        "##or"
      ],
      [
        "tr",
        "##ust"
      ],
      [
        "hear",
        "##s"
      ],
      [
        "T",
        "##V"
      ],
      [
        "stick",
        "##s"
      ],
      [
        "mo",
        "##on"
      ],
      [
        "in",
        "##t"
      ],
      [
        "E",
        "##ven"
      ],
      [
        "creat",
        "##ive"
      ],
      [
        "shar",
        "##ing"
      ],
      [
        "em",
        "##p"
      ],
      [
        "tea",
        "##ch"
      ],
      [
        "Re",
        "##x"
      ],
      [
        "carrot",
        "##s"
      ],
      [
        "##m",
        "##ost"
      ],
      [
        "suc",
        "##cess"
      ],
      [
        "##get",
        "##able"
      ],
      [
        "kn",
        "##ocked"
      ],
      [
        "disapp",
        "##oin"
      ],
      [
        "##y",
        "##ing"
      ],
      [
        "He",
        "##lp"
      ],
      [
        "me",
        "##adow"
      ],
      [
        "ve",
        "##getable"
      ],
      [
        "B",
        "##o"
      ],
      [
        "wh",
        "##is"
      ],
      [
        "le",
        "##gs"
      ],
      [
        "gen",
        "##er"
      ],
      [
        "Wh",
        "##ile"
      ],
      [
        "b",
        "##al"
      ],
      [
        "st",
        "##ood"
      ],
      [
        "me",
        "##ant"
      ],
      [
        "bre",
        "##ath"
      ],
      [
        "pl",
        "##ate"
      ],
      [
        "tight",
        "##ly"
      ],
      [
        "al",
        "##most"
      ],
      [
        "ash",
        "##amed"
      ],
      [
        "s",
        "##our"
      ],
      [
        "p",
        "##ay"
      ],
      [
        "##or",
        "##ry"
      ],
      [
        "##d",
        "##le"
      ],
      [
        "spl",
        "##ash"
      ],
      [
        "gr",
        "##ay"
      ],
      [
        "g",
        "##as"
      ],
      [
        "emp",
        "##ty"
      ],
      [
        "gre",
        "##w"
      ],
      [
        "tell",
        "##s"
      ],
      [
        "##on",
        "##y"
      ],
      [
        "pill",
        "##ow"
      ],
      [
        "##i",
        "##an"
      ],
      [
        "##g",
        "##round"
      ],
      [
        "whist",
        "##le"
      ],
      [
        "M",
        "##e"
      ],
      [
        "she",
        "##ep"
      ],
      [
        "b",
        "##er"
      ],
      [
        "S",
        "##orry"
      ],
      [
        "underst",
        "##ood"
      ],
      [
        "car",
        "##ried"
      ],
      [
        "##d",
        "##en"
      ],
      [
        "l",
        "##em"
      ],
      [
        "##et",
        "##s"
      ],
      [
        "yell",
        "##ed"
      ],
      [
        "the",
        "##se"
      ],
      [
        "sa",
        "##ve"
      ],
      [
        "##ust",
        "##r"
      ],
      [
        "n",
        "##ut"
      ],
      [
        "no",
        "##ds"
      ],
      [
        "pol",
        "##ice"
      ],
      [
        "snack",
        "##s"
      ],
      [
        "##v",
        "##ous"
      ],
      [
        "##it",
        "##al"
      ],
      [
        "disappoin",
        "##ted"
      ],
      [
        "n",
        "##umber"
      ],
      [
        "je",
        "##w"
      ],
      [
        "Le",
        "##o"
      ],
      [
        "go",
        "##ld"
      ],
      [
        "my",
        "##ster"
      ],
      [
        "##or",
        "##k"
      ],
      [
        "##h",
        "##in"
      ],
      [
        "ho",
        "##sp"
      ],
      [
        "##in",
        "##a"
      ],
      [
        "spark",
        "##ly"
      ],
      [
        "hosp",
        "##ital"
      ],
      [
        "sh",
        "##ip"
      ],
      [
        "B",
        "##r"
      ],
      [
        "k",
        "##itten"
      ],
      [
        "p",
        "##ri"
      ],
      [
        "p",
        "##izz"
      ],
      [
        "l",
        "##ine"
      ],
      [
        "To",
        "##day"
      ],
      [
        "##ur",
        "##se"
      ],
      [
        "M",
        "##ark"
      ],
      [
        "b",
        "##ored"
      ],
      [
        "##i",
        "##ff"
      ],
      [
        "G",
        "##ive"
      ],
      [
        "gener",
        "##ous"
      ],
      [
        "fr",
        "##ustr"
      ],
      [
        "hid",
        "##den"
      ],
      [
        "B",
        "##l"
      ],
      [
        "ta",
        "##ught"
      ],
      [
        "gr",
        "##oup"
      ],
      [
        "cl",
        "##ass"
      ],
      [
        "stand",
        "##ing"
      ],
      [
        "r",
        "##ad"
      ],
      [
        "plant",
        "##s"
      ],
      [
        "##ec",
        "##ted"
      ],
      [
        "scar",
        "##f"
      ],
      [
        "che",
        "##w"
      ],
      [
        "gl",
        "##ass"
      ],
      [
        "retur",
        "##ned"
      ],
      [
        "h",
        "##ur"
      ],
      [
        "bed",
        "##room"
      ],
      [
        "know",
        "##ing"
      ],
      [
        "se",
        "##ed"
      ],
      [
        "bl",
        "##ow"
      ],
      [
        "eas",
        "##y"
      ],
      [
        "pol",
        "##ite"
      ],
      [
        "myster",
        "##ious"
      ],
      [
        "wa",
        "##ves"
      ],
      [
        "sig",
        "##hed"
      ],
      [
        "sh",
        "##ore"
      ],
      [
        "so",
        "##ld"
      ],
      [
        "You",
        "##r"
      ],
      [
        "t",
        "##ick"
      ],
      [
        "wo",
        "##lf"
      ],
      [
        "##k",
        "##in"
      ],
      [
        "Sus",
        "##ie"
      ],
      [
        "determ",
        "##ined"
      ],
      [
        "pizz",
        "##a"
      ],
      [
        "f",
        "##ig"
      ],
      [
        "puzz",
        "##le"
      ],
      [
        "power",
        "##ful"
      ],
      [
        "sandw",
        "##ich"
      ],
      [
        "D",
        "##an"
      ],
      [
        "thank",
        "##ful"
      ],
      [
        "sc",
        "##o"
      ],
      [
        "j",
        "##elly"
      ],
      [
        "n",
        "##er"
      ],
      [
        "p",
        "##ir"
      ],
      [
        "pass",
        "##ed"
      ],
      [
        "sleep",
        "##y"
      ],
      [
        "prin",
        "##ce"
      ],
      [
        "##es",
        "##ted"
      ],
      [
        "d",
        "##rew"
      ],
      [
        "sp",
        "##icy"
      ],
      [
        "fing",
        "##er"
      ],
      [
        "clo",
        "##set"
      ],
      [
        "p",
        "##in"
      ],
      [
        "spo",
        "##il"
      ],
      [
        "frustr",
        "##ated"
      ],
      [
        "ner",
        "##vous"
      ],
      [
        "g",
        "##un"
      ],
      [
        "fan",
        "##cy"
      ],
      [
        "re",
        "##g"
      ],
      [
        "mess",
        "##y"
      ],
      [
        "##au",
        "##l"
      ],
      [
        "##w",
        "##ork"
      ],
      [
        "##p",
        "##ill"
      ],
      [
        "##pill",
        "##ar"
      ],
      [
        "lo",
        "##ck"
      ],
      [
        "fe",
        "##ed"
      ],
      [
        "g",
        "##ate"
      ],
      [
        "br",
        "##idge"
      ],
      [
        "##os",
        "##aur"
      ],
      [
        "k",
        "##issed"
      ],
      [
        "f",
        "##ear"
      ],
      [
        "m",
        "##ot"
      ],
      [
        "a",
        "##v"
      ],
      [
        "w",
        "##is"
      ],
      [
        "po",
        "##or"
      ],
      [
        "ha",
        "##ng"
      ],
      [
        "gather",
        "##ed"
      ],
      [
        "##ot",
        "##e"
      ],
      [
        "cir",
        "##c"
      ],
      [
        "exc",
        "##ite"
      ],
      [
        "cat",
        "##er"
      ],
      [
        "##u",
        "##ce"
      ],
      [
        "cater",
        "##pillar"
      ],
      [
        "v",
        "##an"
      ],
      [
        "fl",
        "##ag"
      ],
      [
        "e",
        "##sc"
      ],
      [
        "we",
        "##ek"
      ],
      [
        "##ell",
        "##a"
      ],
      [
        "##id",
        "##dle"
      ],
      [
        "##oo",
        "##p"
      ],
      [
        "gr",
        "##umpy"
      ],
      [
        "sp",
        "##end"
      ],
      [
        "din",
        "##osaur"
      ],
      [
        "your",
        "##self"
      ],
      [
        "##an",
        "##o"
      ],
      [
        "##iss",
        "##ors"
      ],
      [
        "answ",
        "##ered"
      ],
      [
        "##pp",
        "##er"
      ],
      [
        "c",
        "##ries"
      ],
      [
        "of",
        "##ten"
      ],
      [
        "c",
        "##and"
      ],
      [
        "##m",
        "##b"
      ],
      [
        "##sel",
        "##ves"
      ],
      [
        "tw",
        "##irl"
      ],
      [
        "che",
        "##st"
      ],
      [
        "sc",
        "##issors"
      ],
      [
        "ho",
        "##pping"
      ],
      [
        "t",
        "##ears"
      ],
      [
        "##g",
        "##ly"
      ],
      [
        "l",
        "##it"
      ],
      [
        "##p",
        "##ack"
      ],
      [
        "##fl",
        "##ower"
      ],
      [
        "wor",
        "##king"
      ],
      [
        "m",
        "##ummy"
      ],
      [
        "##a",
        "##king"
      ],
      [
        "u",
        "##gly"
      ],
      [
        "exp",
        "##ens"
      ],
      [
        "dr",
        "##op"
      ],
      [
        "f",
        "##il"
      ],
      [
        "de",
        "##er"
      ],
      [
        "sa",
        "##ved"
      ],
      [
        "expens",
        "##ive"
      ],
      [
        "o",
        "##k"
      ],
      [
        "##er",
        "##a"
      ],
      [
        "excite",
        "##ment"
      ],
      [
        "ta",
        "##ken"
      ],
      [
        "m",
        "##iddle"
      ],
      [
        "##iz",
        "##zy"
      ],
      [
        "sc",
        "##r"
      ],
      [
        "on",
        "##es"
      ],
      [
        "tr",
        "##ue"
      ],
      [
        "wa",
        "##gged"
      ],
      [
        "##at",
        "##es"
      ],
      [
        "ple",
        "##ased"
      ],
      [
        "cr",
        "##own"
      ],
      [
        "pick",
        "##s"
      ],
      [
        "##ill",
        "##ed"
      ],
      [
        "le",
        "##g"
      ],
      [
        "get",
        "##s"
      ],
      [
        "s",
        "##que"
      ],
      [
        "##ug",
        "##ar"
      ],
      [
        "b",
        "##oring"
      ],
      [
        "Bo",
        "##bby"
      ],
      [
        "##itt",
        "##er"
      ],
      [
        "##oo",
        "##f"
      ],
      [
        "t",
        "##ent"
      ],
      [
        "v",
        "##ase"
      ],
      [
        "as",
        "##king"
      ],
      [
        "##ue",
        "##en"
      ],
      [
        "##u",
        "##al"
      ],
      [
        ">",
        "##>"
      ],
      [
        "t",
        "##ie"
      ],
      [
        "##bo",
        "##dy"
      ],
      [
        "vegetable",
        "##s"
      ],
      [
        "br",
        "##ush"
      ],
      [
        "##et",
        "##e"
      ],
      [
        "c",
        "##ap"
      ],
      [
        "li",
        "##ft"
      ],
      [
        "bo",
        "##ss"
      ],
      [
        "gigg",
        "##led"
      ],
      [
        "##a",
        "##ff"
      ],
      [
        "##g",
        "##gs"
      ],
      [
        "##sp",
        "##eci"
      ],
      [
        "##speci",
        "##ally"
      ],
      [
        "c",
        "##age"
      ],
      [
        "e",
        "##ld"
      ],
      [
        "mist",
        "##ake"
      ],
      [
        "s",
        "##ugar"
      ],
      [
        "e",
        "##ggs"
      ],
      [
        "œ",
        "##L"
      ],
      [
        "rock",
        "##et"
      ],
      [
        "##l",
        "##ight"
      ],
      [
[...]
