{
  "version": "1.0",
  "truncation": null,
  "padding": null,
  "added_tokens": [
    {
      "id": 0,
      "content": "[PAD]",
      "single_word": false,
      "lstrip": false,
      "rstrip": false,
      "normalized": false,
      "special": true
    },
    {
      "id": 1,
      "content": "[UNK]",
      "single_word": false,
      "lstrip": false,
      "rstrip": false,
      "normalized": false,
      "special": true
    },
    {
      "id": 2,
      "content": "[BOS]",
      "single_word": false,
      "lstrip": false,
      "rstrip": false,
      "normalized": false,
      "special": true
    },
    {
      "id": 3,
      "content": "[EOS]",
      "single_word": false,
      "lstrip": false,
      "rstrip": false,
      "normalized": false,
      "special": true
    },
    {
      "id": 4,
      "content": "[INST]",
      "single_word": false,
      "lstrip": false,
      "rstrip": false,
      "normalized": false,
      "special": true
    },
    {
      "id": 5,
      "content": "[/INST]",
      "single_word": false,
      "lstrip": false,
      "rstrip": false,
      "normalized": false,
      "special": true
    },
    {
      "id": 6,
      "content": "[THINK]",
      "single_word": false,
      "lstrip": false,
      "rstrip": false,
      "normalized": false,
      "special": true
    },
    {
      "id": 7,
      "content": "[/THINK]",
      "single_word": false,
      "lstrip": false,
      "rstrip": false,
      "normalized": false,
      "special": true
    },
    {
      "id": 8,
      "content": "[ANSWER]",
      "single_word": false,
      "lstrip": false,
      "rstrip": false,
      "normalized": false,
      "special": true
    },
    {
      "id": 9,
      "content": "[/ANSWER]",
      "single_word": false,
      "lstrip": false,
      "rstrip": false,
      "normalized": false,
      "special": true
    }
  ],
  "normalizer": null,
  "pre_tokenizer": {
    "type": "Sequence",
    "pretokenizers": [
      {
        "type": "Whitespace"
      },
      {
        "type": "Split",
        "pattern": {
          "Regex": "\\d"
        },
        "behavior": "Isolated",
        "invert": false
      }
    ]
  },
  "post_processor": {
    "type": "TemplateProcessing",
    "single": [
      {
        "SpecialToken": {
          "id": "[BOS]",
          "type_id": 0
        }
      },
      {
        "Sequence": {
          "id": "A",
          "type_id": 0
        }
      },
      {
        "SpecialToken": {
          "id": "[EOS]",
          "type_id": 0
        }
      }
    ],
    "pair": [
      {
        "SpecialToken": {
          "id": "[BOS]",
          "type_id": 0
        }
      },
      {
        "Sequence": {
          "id": "A",
          "type_id": 0
        }
      },
      {
        "SpecialToken": {
          "id": "[EOS]",
          "type_id": 0
        }
      },
      {
        "Sequence": {
          "id": "B",
          "type_id": 1
        }
      },
      {
        "SpecialToken": {
          "id": "[EOS]",
          "type_id": 1
        }
      }
    ],
    "special_tokens": {
      "[BOS]": {
        "id": "[BOS]",
        "ids": [
          2
        ],
        "tokens": [
          "[BOS]"
        ]
      },
      "[EOS]": {
        "id": "[EOS]",
        "ids": [
          3
        ],
        "tokens": [
          "[EOS]"
        ]
      }
    }
  },
  "decoder": null,
  "model": {
    "type": "BPE",
    "dropout": null,
    "unk_token": "[UNK]",
    "continuing_subword_prefix": null,
    "end_of_word_suffix": null,
    "fuse_unk": false,
    "byte_fallback": false,
    "ignore_merges": false,
    "vocab": {
      "[PAD]": 0,
      "[UNK]": 1,
      "[BOS]": 2,
      "[EOS]": 3,
      "[INST]": 4,
      "[/INST]": 5,
      "[THINK]": 6,
      "[/THINK]": 7,
      "[ANSWER]": 8,
      "[/ANSWER]": 9,
      "\n": 10,
      " ": 11,
      "!": 12,
      "\"": 13,
      "#": 14,
      "$": 15,
      "%": 16,
      "&": 17,
      "'": 18,
      "(": 19,
      ")": 20,
      "*": 21,
      "+": 22,
      ",": 23,
      "-": 24,
      ".": 25,
      "/": 26,
      "0": 27,
      "1": 28,
      "2": 29,
      "3": 30,
      "4": 31,
      "5": 32,
      "6": 33,
      "7": 34,
      "8": 35,
      "9": 36,
      ":": 37,
      ";": 38,
      "<": 39,
      "=": 40,
      ">": 41,
      "?": 42,
      "@": 43,
      "A": 44,
      "B": 45,
      "C": 46,
      "D": 47,
      "E": 48,
      "F": 49,
      "G": 50,
      "H": 51,
      "I": 52,
      "J": 53,
      "K": 54,
      "L": 55,
      "M": 56,
      "N": 57,
      "O": 58,
      "P": 59,
      "Q": 60,
      "R": 61,
      "S": 62,
      "T": 63,
      "U": 64,
      "V": 65,
      "W": 66,
      "X": 67,
      "Y": 68,
      "Z": 69,
      "[": 70,
      "\\": 71,
      "]": 72,
      "^": 73,
      "_": 74,
      "`": 75,
      "a": 76,
      "b": 77,
      "c": 78,
      "d": 79,
      "e": 80,
      "f": 81,
      "g": 82,
      "h": 83,
      "i": 84,
      "j": 85,
      "k": 86,
      "l": 87,
      "m": 88,
      "n": 89,
      "o": 90,
      "p": 91,
      "q": 92,
      "r": 93,
      "s": 94,
      "t": 95,
      "u": 96,
      "v": 97,
      "w": 98,
      "x": 99,
      "y": 100,
      "z": 101,
      "{": 102,
      "|": 103,
      "}": 104,
      "~": 105,
      "¡": 106,
      "¢": 107,
      "£": 108,
      "¦": 109,
      "¨": 110,
      "©": 111,
      "«": 112,
      "¬": 113,
      "­": 114,
      "¯": 115,
      "±": 116,
      "³": 117,
      "´": 118,
      "¶": 119,
      "»": 120,
      "¼": 121,
      "½": 122,
      "¾": 123,
      "¿": 124,
      "Â": 125,
      "Ã": 126,
      "×": 127,
      "â": 128,
      "ã": 129,
      "ç": 130,
      "è": 131,
      "é": 132,
      "ï": 133,
      "ð": 134,
      "ñ": 135,
      "÷": 136,
      "œ": 137,
      "Š": 138,
      "Ÿ": 139,
      "ž": 140,
      "ˆ": 141,
      "˜": 142,
      "А": 143,
      "​": 144,
      "–": 145,
      "‘": 146,
      "’": 147,
      "‚": 148,
      "“": 149,
      "”": 150,
      "•": 151,
      "…": 152,
      "‰": 153,
      "‹": 154,
      "€": 155,
      "™": 156,
      "−": 157,
      "√": 158,
      "he": 159,
      "an": 160,
      "the": 161,
      "ed": 162,
      "and": 163,
      "to": 164,
      "in": 165,
      "re": 166,
      "ou": 167,
      "wa": 168,
      "it": 169,
      "ha": 170,
      "er": 171,
      "was": 172,
      "om": 173,
      "en": 174,
      "on": 175,
      "ar": 176,
      "The": 177,
      "is": 178,
      "ing": 179,
      "il": 180,
      "sa": 181,
      "id": 182,
      "le": 183,
      "ay": 184,
      "im": 185,
      "lo": 186,
      "al": 187,
      "st": 188,
      "or": 189,
      "her": 190,
      "He": 191,
      "She": 192,
      "ir": 193,
      "th": 194,
      "They": 195,
      "be": 196,
      "ne": 197,
      "hat": 198,
      "ver": 199,
      "ut": 200,
      "se": 201,
      "ke": 202,
      "at": 203,
      "no": 204,
      "ck": 205,
      "ce": 206,
      "ld": 207,
      "am": 208,
      "said": 209,
      "ve": 210,
      "ri": 211,
      "ily": 212,
      "she": 213,
      "pl": 214,
      "of": 215,
      "ith": 216,
      "pp": 217,
      "ad": 218,
      "with": 219,
      "ig": 220,
      "his": 221,
      "Lily": 222,
      "un": 223,
      "you": 224,
      "ked": 225,
      "so": 226,
      "day": 227,
      "ly": 228,
      "we": 229,
      "very": 230,
      "li": 231,
      "ome": 232,
      "that": 233,
      "ow": 234,
      "go": 235,
      "my": 236,
      "up": 237,
      "es": 238,
      "ant": 239,
      "ch": 240,
      "as": 241,
      "had": 242,
      "play": 243,
      "for": 244,
      "they": 245,
      "el": 246,
      "mom": 247,
      "nd": 248,
      "ould": 249,
      "all": 250,
      "end": 251,
      "bo": 252,
      "happ": 253,
      "are": 254,
      "ent": 255,
      "want": 256,
      "ok": 257,
      "ge": 258,
      "itt": 259,
      "It": 260,
      "tim": 261,
      "do": 262,
      "out": 263,
      "not": 264,
      "ro": 265,
      "ound": 266,
      "ther": 267,
      "ittle": 268,
      "time": 269,
      "ry": 270,
      "little": 271,
      "there": 272,
      "ht": 273,
      "ra": 274,
      "sh": 275,
      "happy": 276,
      "big": 277,
      "sm": 278,
      "ys": 279,
      "but": 280,
      "ake": 281,
      "fri": 282,
      "saw": 283,
      ".\"": 284,
      "friend": 285,
      "ter": 286,
      "ack": 287,
      "thing": 288,
      "ul": 289,
      "some": 290,
      "ide": 291,
      "One": 292,
      "one": 293,
      "Tim": 294,
      "!\"": 295,
      "ug": 296,
      "On": 297,
      "were": 298,
      "ved": 299,
      "Once": 300,
      "ho": 301,
      "car": 302,
      "him": 303,
      "fe": 304,
      "Tom": 305,
      "pe": 306,
      "irl": 307,
      "wanted": 308,
      "them": 309,
      "Ben": 310,
      "girl": 311,
      "upon": 312,
      "ful": 313,
      "ur": 314,
      "ill": 315,
      "their": 316,
      "ind": 317,
      "ag": 318,
      "did": 319,
      "co": 320,
      "me": 321,
      "have": 322,
      "smil": 323,
      "could": 324,
      "mo": 325,
      "ex": 326,
      "hen": 327,
      "can": 328,
      "But": 329,
      "rom": 330,
      "hel": 331,
      "went": 332,
      "ted": 333,
      "od": 334,
      "new": 335,
      "de": 336,
      "?\"": 337,
      "nam": 338,
      "um": 339,
      "friends": 340,
      "help": 341,
      "ab": 342,
      "hed": 343,
      "way": 344,
      "fel": 345,
      "back": 346,
      "man": 347,
      "You": 348,
      "ain": 349,
      "like": 350,
      "fun": 351,
      "fo": 352,
      "par": 353,
      "ic": 354,
      "ran": 355,
      "too": 356,
      "side": 357,
      "ght": 358,
      "po": 359,
      "Timmy": 360,
      "star": 361,
      "smiled": 362,
      "named": 363,
      "loved": 364,
      "low": 365,
      "et": 366,
      "loo": 367,
      "Mom": 368,
      "la": 369,
      "asked": 370,
      "see": 371,
      "felt": 372,
      "ick": 373,
      "sto": 374,
      "ard": 375,
      "looked": 376,
      "own": 377,
      "around": 378,
      "ame": 379,
      "make": 380,
      "pr": 381,
      "ure": 382,
      "bir": 383,
      "would": 384,
      "wor": 385,
      "fa": 386,
      "now": 387,
      "ong": 388,
      "other": 389,
      "boy": 390,
      "bird": 391,
      "gr": 392,
      "ll": 393,
      "park": 394,
      "ice": 395,
      "what": 396,
      "mad": 397,
      "op": 398,
      ",\"": 399,
      "tre": 400,
      "says": 401,
      "away": 402,
      "ca": 403,
      "gether": 404,
      "ss": 405,
      "dd": 406,
      "started": 407,
      "oud": 408,
      "ts": 409,
      "na": 410,
      "made": 411,
      "ight": 412,
      "came": 413,
      "something": 414,
      "together": 415,
      "look": 416,
      "ited": 417,
      "put": 418,
      "ach": 419,
      "sad": 420,
      "from": 421,
      "get": 422,
      "got": 423,
      "scar": 424,
      "exc": 425,
      "mu": 426,
      "if": 427,
      "again": 428,
      "ie": 429,
      "ue": 430,
      "home": 431,
      "good": 432,
      "who": 433,
      "wal": 434,
      "ried": 435,
      "then": 436,
      "found": 437,
      "more": 438,
      "pped": 439,
      "dec": 440,
      "hug": 441,
      "ep": 442,
      "when": 443,
      "king": 444,
      "ci": 445,
      "playing": 446,
      "ought": 447,
      "ave": 448,
      "Sam": 449,
      "by": 450,
      "ally": 451,
      "ru": 452,
      "things": 453,
      "An": 454,
      "liked": 455,
      "excited": 456,
      "ara": 457,
      "der": 458,
      "us": 459,
      "ous": 460,
      "ided": 461,
      "every": 462,
      "ouse": 463,
      "ny": 464,
      "decided": 465,
      "your": 466,
      "dog": 467,
      "care": 468,
      "scared": 469,
      "use": 470,
      "than": 471,
      "find": 472,
      "down": 473,
      "sha": 474,
      "We": 475,
      "pre": 476,
      "ax": 477,
      "take": 478,
      "ac": 479,
      "Sara": 480,
      "our": 481,
      "Anna": 482,
      "ate": 483,
      "ang": 484,
      "will": 485,
      "spe": 486,
      "arn": 487,
      "feel": 488,
      "jo": 489,
      "wo": 490,
      "dad": 491,
      "ways": 492,
      "udd": 493,
      "Max": 494,
      "clo": 495,
      "here": 496,
      "ers": 497,
      "qu": 498,
      "took": 499,
      "didn": 500,
      "bb": 501,
      "about": 502,
      "always": 503,
      "te": 504,
      "toys": 505,
      "ma": 506,
      "ive": 507,
      "ite": 508,
      "know": 509,
      "ise": 510,
      "So": 511,
      "old": 512,
      "mommy": 513,
      "sor": 514,
      "learn": 515,
      "tree": 516,
      "thought": 517,
      "outside": 518,
      "ust": 519,
      "ened": 520,
      "wh": 521,
      "room": 522,
      "cat": 523,
      "fore": 524,
      "ty": 525,
      "Jo": 526,
      "ball": 527,
      "laug": 528,
      "speci": 529,
      "special": 530,
      "red": 531,
      "run": 532,
      "any": 533,
      "When": 534,
      "pa": 535,
      "ged": 536,
      "knew": 537,
      "bu": 538,
      "udden": 539,
      "come": 540,
      "how": 541,
      "ish": 542,
      "house": 543,
      "ink": 544,
      "fter": 545,
      "Her": 546,
      "br": 547,
      "never": 548,
      "toy": 549,
      "ol": 550,
      "uddenly": 551,
      "ist": 552,
      "lf": 553,
      "sorry": 554,
      "show": 555,
      "ia": 556,
      "much": 557,
      "rd": 558,
      "sw": 559,
      "bl": 560,
      "cre": 561,
      "dre": 562,
      "Jack": 563,
      "Every": 564,
      "hand": 565,
      "careful": 566,
      "cle": 567,
      "able": 568,
      "ven": 569,
      "each": 570,
      "gave": 571,
      "sk": 572,
      "long": 573,
      "cl": 574,
      "water": 575,
      "box": 576,
      "sun": 577,
      "into": 578,
      "tried": 579,
      "ta": 580,
      "inside": 581,
      "this": 582,
      "ear": 583,
      "told": 584,
      "over": 585,
      "sp": 586,
      "proud": 587,
      "heard": 588,
      "tter": 589,
      "eat": 590,
      "couldn": 591,
      "love": 592,
      "ion": 593,
      "Let": 594,
      "Mia": 595,
      "gre": 596,
      "many": 597,
      "dy": 598,
      "ump": 599,
      "Then": 600,
      "pret": 601,
      "pick": 602,
      "led": 603,
      "cause": 604,
      "played": 605,
      "Suddenly": 606,
      "che": 607,
      "just": 608,
      "need": 609,
      "hugged": 610,
      "ct": 611,
      "off": 612,
      "com": 613,
      "wat": 614,
      "right": 615,
      "unt": 616,
      "And": 617,
      "because": 618,
      "nice": 619,
      "per": 620,
      "uc": 621,
      "fly": 622,
      "From": 623,
      "flow": 624,
      "pot": 625,
      "ile": 626,
      "ber": 627,
      "His": 628,
      "That": 629,
      "try": 630,
      "ving": 631,
      "iz": 632,
      "small": 633,
      "read": 634,
      "ine": 635,
      "uck": 636,
      "imal": 637,
      "animal": 638,
      "bear": 639,
      "lad": 640,
      "oug": 641,
      "ough": 642,
      "rabb": 643,
      "its": 644,
      "exp": 645,
      "learned": 646,
      "until": 647,
      "self": 648,
      "bed": 649,
      "fast": 650,
      "kind": 651,
      "ket": 652,
      "bea": 653,
      "better": 654,
      "don": 655,
      "call": 656,
      "ass": 657,
      "urn": 658,
      "vent": 659,
      "say": 660,
      "What": 661,
      "best": 662,
      "hur": 663,
      "fi": 664,
      "bra": 665,
      "Yes": 666,
      "where": 667,
      "nt": 668,
      "arden": 669,
      "garden": 670,
      "explo": 671,
      "let": 672,
      "beaut": 673,
      "fle": 674,
      "Mommy": 675,
      "thanked": 676,
      "even": 677,
      "pt": 678,
      "sky": 679,
      "jump": 680,
      "has": 681,
      "ell": 682,
      "safe": 683,
      "laughed": 684,
      "yes": 685,
      "loud": 686,
      "under": 687,
      "give": 688,
      "ace": 689,
      "list": 690,
      "iny": 691,
      "sur": 692,
      "ank": 693,
      "Can": 694,
      "iful": 695,
      "ched": 696,
      "beautiful": 697,
      "joy": 698,
      "rong": 699,
      "animals": 700,
      "fam": 701,
      "still": 702,
      "ama": 703,
      "lots": 704,
      "book": 705,
      "ning": 706,
      "rain": 707,
      "ree": 708,
      "Joh": 709,
      "Th": 710,
      "stay": 711,
      "won": 712,
      "John": 713,
      "turn": 714,
      "both": 715,
      "ble": 716,
      "No": 717,
      "two": 718,
      "pu": 719,
      "cks": 720,
      "ople": 721,
      "bad": 722,
      "fin": 723,
      "hard": 724,
      "Bo": 725,
      "lea": 726,
      "app": 727,
      "hurt": 728,
      "tru": 729,
      "con": 730,
      "As": 731,
      "people": 732,
      "Thank": 733,
      "lived": 734,
      "keep": 735,
      "should": 736,
      "ground": 737,
      "brave": 738,
      "angry": 739,
      "igh": 740,
      "Luc": 741,
      "Lucy": 742,
      "walked": 743,
      "ished": 744,
      "flew": 745,
      "family": 746,
      "After": 747,
      "ort": 748,
      "surpr": 749,
      "rm": 750,
      "tal": 751,
      "called": 752,
      "soon": 753,
      "ook": 754,
      "door": 755,
      "Dad": 756,
      "arm": 757,
      "share": 758,
      "real": 759,
      "kept": 760,
      "pic": 761,
      "ised": 762,
      "ting": 763,
      "sl": 764,
      "imp": 765,
      "ser": 766,
      "clean": 767,
      "going": 768,
      "lot": 769,
      "doll": 770,
      "pretty": 771,
      "ane": 772,
      "les": 773,
      "bro": 774,
      "noise": 775,
      "cu": 776,
      "shiny": 777,
      "ste": 778,
      "before": 779,
      "wind": 780,
      "opened": 781,
      "ummy": 782,
      "cry": 783,
      "advent": 784,
      "mor": 785,
      "place": 786,
      "illy": 787,
      "also": 788,
      "feeling": 789,
      "explore": 790,
      "dra": 791,
      "ild": 792,
      "lie": 793,
      "Bob": 794,
      "colo": 795,
      "nex": 796,
      "nodd": 797,
      "fish": 798,
      "idea": 799,
      "nodded": 800,
      "ies": 801,
      "€™": 802,
      "ied": 803,
      "hear": 804,
      "color": 805,
      "next": 806,
      "ask": 807,
      "picked": 808,
      "head": 809,
      "work": 810,
      "face": 811,
      "set": 812,
      "while": 813,
      "clim": 814,
      "uch": 815,
      "less": 816,
      "walking": 817,
      "ark": 818,
      "ture": 819,
      "thr": 820,
      "smile": 821,
      "aybe": 822,
      "ak": 823,
      "adventure": 824,
      "being": 825,
      "mber": 826,
      "hair": 827,
      "food": 828,
      "dif": 829,
      "looking": 830,
      "picture": 831,
      "iced": 832,
      "year": 833,
      "think": 834,
      "ever": 835,
      "used": 836,
      "night": 837,
      "walk": 838,
      "listen": 839,
      "after": 840,
      "ught": 841,
      "eyes": 842,
      "Do": 843,
      "irst": 844,
      "ess": 845,
      "stopped": 846,
      "flowers": 847,
      "vo": 848,
      "blo": 849,
      "ries": 850,
      "Spot": 851,
      "member": 852,
      "mon": 853,
      "blue": 854,
      "shout": 855,
      "weet": 856,
      "Sue": 857,
      "wonder": 858,
      "great": 859,
      "dis": 860,
      "wait": 861,
      "enjoy": 862,
      "ring": 863,
      "mean": 864,
      "repl": 865,
      "near": 866,
      "ized": 867,
      "hands": 868,
      "import": 869,
      "noticed": 870,
      "Look": 871,
      "slide": 872,
      "forest": 873,
      "bye": 874,
      "quick": 875,
      "cho": 876,
      "sho": 877,
      "remember": 878,
      "sound": 879,
      "watch": 880,
      "This": 881,
      "lease": 882,
      "ip": 883,
      "stick": 884,
      "important": 885,
      "amaz": 886,
      "cook": 887,
      "leave": 888,
      "cake": 889,
      "okay": 890,
      "top": 891,
      "tell": 892,
      "fere": 893,
      "truck": 894,
      "sing": 895,
      "showed": 896,
      "differe": 897,
      "does": 898,
      "boat": 899,
      "llow": 900,
      "gan": 901,
      "rest": 902,
      "replied": 903,
      "cream": 904,
      "bright": 905,
      "voice": 906,
      "cou": 907,
      "store": 908,
      "swing": 909,
      "follow": 910,
      "pul": 911,
      "everyone": 912,
      "Sarah": 913,
      "watched": 914,
      "tor": 915,
      "bow": 916,
      "sn": 917,
      "Maybe": 918,
      "strong": 919,
      "been": 920,
      "sure": 921,
      "quickly": 922,
      "stand": 923,
      "ner": 924,
      "different": 925,
      "curi": 926,
      "rabbit": 927,
      "tw": 928,
      "Jane": 929,
      "ward": 930,
      "mag": 931,
      "became": 932,
      "goodbye": 933,
      "ph": 934,
      "bre": 935,
      "oft": 936,
      "high": 937,
      "ila": 938,
      "closer": 939,
      "ance": 940,
      "ff": 941,
      "pie": 942,
      "warm": 943,
      "ung": 944,
      "first": 945,
      "mis": 946,
      "three": 947,
      "laugh": 948,
      "curious": 949,
      "Lila": 950,
      "dress": 951,
      "andma": 952,
      "unny": 953,
      "times": 954,
      "Joe": 955,
      "In": 956,
      "leep": 957,
      "anymore": 958,
      "open": 959,
      "ond": 960,
      "ready": 961,
      "fav": 962,
      "flo": 963,
      "ft": 964,
      "pain": 965,
      "grabb": 966,
      "flower": 967,
      "ached": 968,
      "squ": 969,
      "ired": 970,
      "light": 971,
      "only": 972,
      "kid": 973,
      "tow": 974,
      "kit": 975,
      "grabbed": 976,
      "bit": 977,
      "yel": 978,
      "fell": 979,
      "butter": 980,
      "med": 981,
      "Don": 982,
      "table": 983,
      "ered": 984,
      "fire": 985,
      "birds": 986,
      "Everyone": 987,
      "cut": 988,
      "isy": 989,
      "Hel": 990,
      "ster": 991,
      "sand": 992,
      "chen": 993,
      "cr": 994,
      "pare": 995,
      "kitchen": 996,
      "dro": 997,
      "deli": 998,
      "jumped": 999,
      "stop": 1000,
      "tr": 1001,
      "air": 1002,
      "rock": 1003,
      "helped": 1004,
      "cket": 1005,
      "cont": 1006,
      "glad": 1007,
      "sed": 1008,
      "happened": 1009,
      "sees": 1010,
      "fl": 1011,
      "ash": 1012,
      "shouted": 1013,
      "key": 1014,
      "brother": 1015,
      "grass": 1016,
      "IN": 1017,
      "bal": 1018,
      "reached": 1019,
      "story": 1020,
      "having": 1021,
      "Tommy": 1022,
      "piece": 1023,
      "shed": 1024,
      "realized": 1025,
      "draw": 1026,
      "bunny": 1027,
      "game": 1028,
      "lady": 1029,
      "prin": 1030,
      "bor": 1031,
      "yummy": 1032,
      "tra": 1033,
      "sweet": 1034,
      "ary": 1035,
      "cra": 1036,
      "soft": 1037,
      "col": 1038,
      "through": 1039,
      "pretend": 1040,
      "coming": 1041,
      "mum": 1042,
      "favor": 1043,
      "que": 1044,
      "din": 1045,
      "ins": 1046,
      "There": 1047,
      "favorite": 1048,
      "zy": 1049,
      "wel": 1050,
      "duck": 1051,
      "looks": 1052,
      "Wh": 1053,
      "making": 1054,
      "really": 1055,
      "Now": 1056,
      "magic": 1057,
      "done": 1058,
      "cars": 1059,
      "himself": 1060,
      "world": 1061,
      "kids": 1062,
      "nts": 1063,
      "began": 1064,
      "paper": 1065,
      "rel": 1066,
      "ater": 1067,
      "ds": 1068,
      "ike": 1069,
      "oney": 1070,
      "prom": 1071,
      "age": 1072,
      "fill": 1073,
      "ped": 1074,
      "pond": 1075,
      "move": 1076,
      "ons": 1077,
      "why": 1078,
      "waved": 1079,
      "fro": 1080,
      "touch": 1081,
      "tired": 1082,
      "Wow": 1083,
      "cked": 1084,
      "olly": 1085,
      "fix": 1086,
      "parents": 1087,
      "Fin": 1088,
      "pro": 1089,
      "ba": 1090,
      "name": 1091,
      "ple": 1092,
      "catch": 1093,
      "worry": 1094,
      "thank": 1095,
      "years": 1096,
      "funny": 1097,
      "bar": 1098,
      "hold": 1099,
      "mouse": 1100,
      "cried": 1101,
      "blocks": 1102,
      "another": 1103,
      "cor": 1104,
      "cold": 1105,
      "green": 1106,
      "seen": 1107,
      "Da": 1108,
      "gu": 1109,
      "cool": 1110,
      "dri": 1111,
      "hopped": 1112,
      "farm": 1113,
      "stre": 1114,
      "Sally": 1115,
      "uff": 1116,
      "doing": 1117,
      "bag": 1118,
      "mess": 1119,
      "surprise": 1120,
      "likes": 1121,
      "ation": 1122,
      "close": 1123,
      "floor": 1124,
      "swim": 1125,
      "turned": 1126,
      "\".": 1127,
      "hind": 1128,
      "anc": 1129,
      "trees": 1130,
      "climb": 1131,
      "window": 1132,
      "wood": 1133,
      "wished": 1134,
      "lesson": 1135,
      "andy": 1136,
      "full": 1137,
      "ppy": 1138,
      "ger": 1139,
      "To": 1140,
      "behind": 1141,
      "running": 1142,
      "dark": 1143,
      "sat": 1144,
      "worked": 1145,
      "wear": 1146,
      "yellow": 1147,
      "pet": 1148,
      "mar": 1149,
      "buy": 1150,
      "yard": 1151,
      "left": 1152,
      "hole": 1153,
      "aby": 1154,
      "ign": 1155,
      "Daisy": 1156,
      "sleep": 1157,
      "Jim": 1158,
      "cast": 1159,
      "race": 1160,
      "frog": 1161,
      "happily": 1162,
      "Em": 1163,
      "surprised": 1164,
      "slow": 1165,
      "lost": 1166,
      "Hello": 1167,
      "remembered": 1168,
      "At": 1169,
      "carefully": 1170,
      "held": 1171,
      "Benny": 1172,
      "tri": 1173,
      "cious": 1174,
      "butterfly": 1175,
      "<<": 1176,
      ">>": 1177,
      "far": 1178,
      "needed": 1179,
      "cla": 1180,
      "min": 1181,
      "chil": 1182,
      "dren": 1183,
      "fair": 1184,
      "tle": 1185,
      "children": 1186,
      "arri": 1187,
      "anything": 1188,
      "enjoyed": 1189,
      "wrong": 1190,
      "spot": 1191,
      "dream": 1192,
      "followed": 1193,
      "Billy": 1194,
      "reed": 1195,
      "bug": 1196,
      "bot": 1197,
      "stran": 1198,
      "please": 1199,
      "ens": 1200,
      "hung": 1201,
      "vis": 1202,
      "Finally": 1203,
      "hill": 1204,
      "friendly": 1205,
      "tall": 1206,
      "finished": 1207,
      "dir": 1208,
      "understand": 1209,
      "snow": 1210,
      "oken": 1211,
      "ross": 1212,
      "[/": 1213,
      "em": 1214,
      "mou": 1215,
      "herself": 1216,
      "art": 1217,
      "delicious": 1218,
      "hot": 1219,
      "ings": 1220,
      "spo": 1221,
      "hid": 1222,
      "contin": 1223,
      "broken": 1224,
      "agreed": 1225,
      "might": 1226,
      "oo": 1227,
      "cess": 1228,
      "else": 1229,
      "books": 1230,
      "Molly": 1231,
      "forgot": 1232,
      "ield": 1233,
      "ued": 1234,
      "colors": 1235,
      "arrived": 1236,
      "mat": 1237,
      "Jen": 1238,
      "gent": 1239,
      "ient": 1240,
      "wants": 1241,
      "gl": 1242,
      "Amy": 1243,
      "land": 1244,
      "build": 1245,
      "wonderful": 1246,
      "baby": 1247,
      "tight": 1248,
      "sit": 1249,
      "most": 1250,
      "song": 1251,
      "filled": 1252,
      "erous": 1253,
      "fr": 1254,
      "asure": 1255,
      "gone": 1256,
      "wards": 1257,
      "squir": 1258,
      "ather": 1259,
      "ves": 1260,
      "pat": 1261,
      "row": 1262,
      "leaves": 1263,
      "creat": 1264,
      "fru": 1265,
      "Why": 1266,
      "OK": 1267,
      "someone": 1268,
      "cha": 1269,
      "fight": 1270,
      "castle": 1271,
      "Go": 1272,
      "pink": 1273,
      "poin": 1274,
      "mother": 1275,
      "lion": 1276,
      "squirrel": 1277,
      "continued": 1278,
      "getting": 1279,
      "Gr": 1280,
      "break": 1281,
      "fall": 1282,
      "cookies": 1283,
      "enough": 1284,
      "morning": 1285,
      "stayed": 1286,
      "ju": 1287,
      "gon": 1288,
      "moment": 1289,
      "makes": 1290,
      "finally": 1291,
      "je": 1292,
      "pes": 1293,
      "pack": 1294,
      "ence": 1295,
      "grandma": 1296,
      "asks": 1297,
      "hungry": 1298,
      "scary": 1299,
      "dr": 1300,
      "ton": 1301,
      "sometimes": 1302,
      "whe": 1303,
      "beach": 1304,
      "few": 1305,
      "Come": 1306,
      "ze": 1307,
      "trying": 1308,
      "wet": 1309,
      "tast": 1310,
      "amazing": 1311,
      "dinner": 1312,
      "smiles": 1313,
      "fect": 1314,
      "climbed": 1315,
      "others": 1316,
      "tail": 1317,
      "cover": 1318,
      "listened": 1319,
      "icy": 1320,
      "talk": 1321,
      "pictures": 1322,
      "ot": 1323,
      "plain": 1324,
      "join": 1325,
      "white": 1326,
      "roll": 1327,
      "kay": 1328,
      "Jill": 1329,
      "mus": 1330,
      "perfect": 1331,
      "fur": 1332,
      "ballo": 1333,
      "clothe": 1334,
      "bike": 1335,
      "daddy": 1336,
      "bus": 1337,
      "ses": 1338,
      "plan": 1339,
      "clothes": 1340,
      "wall": 1341,
      "av": 1342,
      "puppy": 1343,
      "appear": 1344,
      "alone": 1345,
      "ious": 1346,
      "spl": 1347,
      "oup": 1348,
      "Oh": 1349,
      "train": 1350,
      "ated": 1351,
      "dang": 1352,
      "brought": 1353,
      "sail": 1354,
      "everything": 1355,
      "Be": 1356,
      "wasn": 1357,
      "spark": 1358,
      "strange": 1359,
      "woods": 1360,
      "met": 1361,
      "pulled": 1362,
      "ride": 1363,
      "pen": 1364,
      "grow": 1365,
      "sear": 1366,
      "deep": 1367,
      "pur": 1368,
      "ose": 1369,
      "pping": 1370,
      "mi": 1371,
      "ange": 1372,
      "uffy": 1373,
      "waited": 1374,
      "ps": 1375,
      "hor": 1376,
      "Some": 1377,
      "hide": 1378,
      "Mama": 1379,
      "money": 1380,
      "ucky": 1381,
      "af": 1382,
      "gi": 1383,
      "treat": 1384,
      "Soon": 1385,
      "fox": 1386,
      "ames": 1387,
      "pers": 1388,
      "zz": 1389,
      "amazed": 1390,
      "whis": 1391,
      "runs": 1392,
      "music": 1393,
      "teddy": 1394,
      "danc": 1395,
      "thy": 1396,
      "Daddy": 1397,
      "bath": 1398,
      "towards": 1399,
      "sis": 1400,
      "field": 1401,
      "All": 1402,
      "silly": 1403,
      "living": 1404,
      "thinks": 1405,
      "cloud": 1406,
      "cup": 1407,
      "gs": 1408,
      "flying": 1409,
      "pieces": 1410,
      "shared": 1411,
      "visit": 1412,
      "lice": 1413,
      "owner": 1414,
      "ises": 1415,
      "belie": 1416,
      "promised": 1417,
      "job": 1418,
      "Okay": 1419,
      "ek": 1420,
      "lake": 1421,
      "party": 1422,
      "sister": 1423,
      "Mr": 1424,
      "qui": 1425,
      "mind": 1426,
      "ich": 1427,
      "moral": 1428,
      "dance": 1429,
      "ually": 1430,
      "must": 1431,
      "Mary": 1432,
      "nap": 1433,
      "ctor": 1434,
      "ment": 1435,
      "quiet": 1436,
      "board": 1437,
      "faster": 1438,
      "candy": 1439,
      "plant": 1440,
      "bran": 1441,
      "worried": 1442,
      "Sure": 1443,
      "answ": 1444,
      "chair": 1445,
      "gif": 1446,
      "Just": 1447,
      "slowly": 1448,
      "ateful": 1449,
      "colorful": 1450,
      "pass": 1451,
      "grateful": 1452,
      "ele": 1453,
      "hes": 1454,
      "broke": 1455,
      "thre": 1456,
      "reach": 1457,
      "stu": 1458,
      "da": 1459,
      "bigger": 1460,
      "explain": 1461,
      "gra": 1462,
      "pull": 1463,
      "dry": 1464,
      "such": 1465,
      "kis": 1466,
      "TH": 1467,
      "heav": 1468,
      "win": 1469,
      "black": 1470,
      "snack": 1471,
      "treasure": 1472,
      "blan": 1473,
      "AN": 1474,
      "ST": 1475,
      "scream": 1476,
      "dangerous": 1477,
      "ER": 1478,
      "start": 1479,
      "magical": 1480,
      "river": 1481,
      "monster": 1482,
      "INK": 1483,
      "SW": 1484,
      "INST": 1485,
      "THINK": 1486,
      "ANSW": 1487,
      "ANSWER": 1488,
      "smart": 1489,
      "words": 1490,
      "dragon": 1491,
      "tower": 1492,
      "smel": 1493,
      "same": 1494,
      "dolls": 1495,
      "rot": 1496,
      "mouth": 1497,
      "everywhere": 1498,
      "ches": 1499,
      "bee": 1500,
      "helping": 1501,
      "ours": 1502,
      "How": 1503,
      "Hi": 1504,
      "ub": 1505,
      "igg": 1506,
      "across": 1507,
      "farmer": 1508,
      "sign": 1509,
      "threw": 1510,
      "twins": 1511,
      "swa": 1512,
      "doctor": 1513,
      "Grandma": 1514,
      "des": 1515,
      "ourse": 1516,
      "bowl": 1517,
      "Mum": 1518,
      "Jimmy": 1519,
      "stepped": 1520,
      "heavy": 1521,
      "chool": 1522,
      "dirty": 1523,
      "mix": 1524,
      "bas": 1525,
      "crying": 1526,
      "ng": 1527,
      "bite": 1528,
      "Please": 1529,
      "takes": 1530,
      "school": 1531,
      "appeared": 1532,
      "heal": 1533,
      "shar": 1534,
      "hoped": 1535,
      "press": 1536,
      "har": 1537,
      "unch": 1538,
      "believe": 1539,
      "closed": 1540,
      "hig": 1541,
      "sc": 1542,
      "teac": 1543,
      "sy": 1544,
      "paint": 1545,
      "ident": 1546,
      "town": 1547,
      "wouldn": 1548,
      "princess": 1549,
      "stuck": 1550,
      "swam": 1551,
      "balloon": 1552,
      "ap": 1553,
      "cray": 1554,
      "spr": 1555,
      "brown": 1556,
      "pow": 1557,
      "button": 1558,
      "feels": 1559,
      "basket": 1560,
      "wr": 1561,
      "round": 1562,
      "iting": 1563,
      "Emma": 1564,
      "eating": 1565,
      "val": 1566,
      "suddenly": 1567,
      "fairy": 1568,
      "course": 1569,
      "neigh": 1570,
      "child": 1571,
      "pushed": 1572,
      "ire": 1573,
      "num": 1574,
      "comfor": 1575,
      "plane": 1576,
      "gentle": 1577,
      "clapped": 1578,
      "ventually": 1579,
      "stood": 1580,
      "free": 1581,
      "oun": 1582,
      "teacher": 1583,
      "games": 1584,
      "without": 1585,
      "phone": 1586,
      "welcome": 1587,
      "Inside": 1588,
      "shine": 1589,
      "kno": 1590,
      "today": 1591,
      "higher": 1592,
      "drove": 1593,
      "mil": 1594,
      "sea": 1595,
      "blanket": 1596,
      "moved": 1597,
      "swings": 1598,
      "stead": 1599,
      "add": 1600,
      "noises": 1601,
      "str": 1602,
      "jour": 1603,
      "ben": 1604,
      "cheered": 1605,
      "Their": 1606,
      "wings": 1607,
      "If": 1608,
      "turns": 1609,
      "cident": 1610,
      "well": 1611,
      "longer": 1612,
      "wish": 1613,
      "shoes": 1614,
      "late": 1615,
      "sang": 1616,
      "neck": 1617,
      "throw": 1618,
      "hugs": 1619,
      "explained": 1620,
      "ible": 1621,
      "wise": 1622,
      "phant": 1623,
      "Fl": 1624,
      "stone": 1625,
      "accident": 1626,
      "along": 1627,
      "happen": 1628,
      "ney": 1629,
      "ined": 1630,
      "ars": 1631,
      "ling": 1632,
      "apple": 1633,
      "itting": 1634,
      "fence": 1635,
      "itch": 1636,
      "dist": 1637,
      "days": 1638,
      "El": 1639,
      "trou": 1640,
      "mine": 1641,
      "pol": 1642,
      "del": 1643,
      "lunch": 1644,
      "secre": 1645,
      "elephant": 1646,
      "stories": 1647,
      "though": 1648,
      "heart": 1649,
      "onely": 1650,
      "shop": 1651,
      "singing": 1652,
      "lonely": 1653,
      "stars": 1654,
      "shook": 1655,
      "adventures": 1656,
      "cal": 1657,
      "upset": 1658,
      "caught": 1659,
      "ship": 1660,
      "nee": 1661,
      "sent": 1662,
      "Fluffy": 1663,
      "young": 1664,
      "belong": 1665,
      "pocket": 1666,
      "part": 1667,
      "Pe": 1668,
      "rocks": 1669,
      "ughty": 1670,
      "Le": 1671,
      "Sammy": 1672,
      "street": 1673,
      "naughty": 1674,
      "nearby": 1675,
      "jar": 1676,
      "drink": 1677,
      "forget": 1678,
      "ntain": 1679,
      "fused": 1680,
      "dropped": 1681,
      "purple": 1682,
      "ming": 1683,
      "minut": 1684,
      "bring": 1685,
      "taking": 1686,
      "ions": 1687,
      "orange": 1688,
      "exploring": 1689,
      "My": 1690,
      "backyard": 1691,
      "monkey": 1692,
      "att": 1693,
      "soup": 1694,
      "daught": 1695,
      "owl": 1696,
      "shapes": 1697,
      "body": 1698,
      "daughter": 1699,
      "seemed": 1700,
      "woke": 1701,
      "mail": 1702,
      "coat": 1703,
      "comes": 1704,
      "hit": 1705,
      "past": 1706,
      "hello": 1707,
      "juice": 1708,
      "relie": 1709,
      "count": 1710,
      "ese": 1711,
      "bench": 1712,
      "fing": 1713,
      "busy": 1714,
      "mer": 1715,
      "driver": 1716,
      "nothing": 1717,
      "fit": 1718,
      "nose": 1719,
      "band": 1720,
      "cow": 1721,
      "sounds": 1722,
      "arms": 1723,
      "tiny": 1724,
      "pra": 1725,
      "shell": 1726,
      "ier": 1727,
      "erful": 1728,
      "sco": 1729,
      "nest": 1730,
      "Later": 1731,
      "wondered": 1732,
      "ull": 1733,
      "holding": 1734,
      "rainbow": 1735,
      "pil": 1736,
      "pig": 1737,
      "amp": 1738,
      "smell": 1739,
      "Good": 1740,
      "thday": 1741,
      "cir": 1742,
      "chas": 1743,
      "sitting": 1744,
      "With": 1745,
      "boun": 1746,
      "ining": 1747,
      "brea": 1748,
      "sick": 1749,
      "branch": 1750,
      "eg": 1751,
      "secret": 1752,
      "sug": 1753,
      "oom": 1754,
      "mach": 1755,
      "raid": 1756,
      "pper": 1757,
      "cute": 1758,
      "afraid": 1759,
      "gift": 1760,
      "loves": 1761,
      "patient": 1762,
      "push": 1763,
      "bread": 1764,
      "Of": 1765,
      "quest": 1766,
      "promise": 1767,
      "kite": 1768,
      "hu": 1769,
      "bought": 1770,
      "touc": 1771,
      "touched": 1772,
      "letter": 1773,
      "idge": 1774,
      "forever": 1775,
      "peace": 1776,
      "carry": 1777,
      "relieved": 1778,
      "cheese": 1779,
      "gest": 1780,
      "huge": 1781,
      "bucket": 1782,
      "wand": 1783,
      "vel": 1784,
      "uni": 1785,
      "covered": 1786,
      "gives": 1787,
      "grab": 1788,
      "su": 1789,
      "wra": 1790,
      "live": 1791,
      "birthday": 1792,
      "colle": 1793,
      "orn": 1794,
      "ittens": 1795,
      "inte": 1796,
      "Ted": 1797,
      "interest": 1798,
      "di": 1799,
      "Tweet": 1800,
      "act": 1801,
      "life": 1802,
      "ian": 1803,
      "swimming": 1804,
      "Hey": 1805,
      "onto": 1806,
      "exciting": 1807,
      "net": 1808,
      "apples": 1809,
      "milk": 1810,
      "va": 1811,
      "wom": 1812,
      "craw": 1813,
      "laughing": 1814,
      "bush": 1815,
      "creature": 1816,
      "coun": 1817,
      "sunny": 1818,
      "kick": 1819,
      "bottle": 1820,
      "Jenny": 1821,
      "journey": 1822,
      "ye": 1823,
      "ade": 1824,
      "woman": 1825,
      "gged": 1826,
      "puts": 1827,
      "neighbor": 1828,
      "hope": 1829,
      "instead": 1830,
      "lucky": 1831,
      "ness": 1832,
      "Emily": 1833,
      "cozy": 1834,
      "ducks": 1835,
      "spin": 1836,
      "pointed": 1837,
      "imag": 1838,
      "watching": 1839,
      "ced": 1840,
      "sunshine": 1841,
      "road": 1842,
      "cave": 1843,
      "eas": 1844,
      "miss": 1845,
      "pudd": 1846,
      "snake": 1847,
      "later": 1848,
      "accidentally": 1849,
      "number": 1850,
      "person": 1851,
      "gen": 1852,
      "suc": 1853,
      "word": 1854,
      "bru": 1855,
      "ize": 1856,
      "honey": 1857,
      "blem": 1858,
      "sli": 1859,
      "problem": 1860,
      "sharp": 1861,
      "smiling": 1862,
      "shes": 1863,
      "sandw": 1864,
      "anyone": 1865,
      "itten": 1866,
      "talked": 1867,
      "gather": 1868,
      "rope": 1869,
      "which": 1870,
      "searched": 1871,
      "crayons": 1872,
      "irt": 1873,
      "wide": 1874,
      "healthy": 1875,
      "meet": 1876,
      "nic": 1877,
      "Where": 1878,
      "ast": 1879,
      "circle": 1880,
      "storm": 1881,
      "trouble": 1882,
      "ugg": 1883,
      "inv": 1884,
      "clouds": 1885,
      "interesting": 1886,
      "hours": 1887,
      "tasty": 1888,
      "clever": 1889,
      "smelled": 1890,
      "pile": 1891,
      "feet": 1892,
      "zoom": 1893,
      "organ": 1894,
      "Are": 1895,
      "fron": 1896,
      "last": 1897,
      "gigg": 1898,
      "log": 1899,
      "dest": 1900,
      "wheel": 1901,
      "matter": 1902,
      "front": 1903,
      "spoon": 1904,
      "bled": 1905,
      "shining": 1906,
      "wash": 1907,
      "shelf": 1908,
      "prote": 1909,
      "spent": 1910,
      "feather": 1911,
      "pract": 1912,
      "respe": 1913,
      "eag": 1914,
      "path": 1915,
      "roar": 1916,
      "comfortable": 1917,
      "vill": 1918,
      "spotted": 1919,
      "mud": 1920,
      "Ro": 1921,
      "fruit": 1922,
      "screamed": 1923,
      "present": 1924,
      "berries": 1925,
      "zoo": 1926,
      "tea": 1927,
      "andpa": 1928,
      "puzz": 1929,
      "goes": 1930,
      "isa": 1931,
      "week": 1932,
      "cer": 1933,
      "Mittens": 1934,
      "lay": 1935,
      "orm": 1936,
      "seat": 1937,
      "minutes": 1938,
      "splash": 1939,
      "horse": 1940,
      "spid": 1941,
      "card": 1942,
      "war": 1943,
      "myster": 1944,
      "answer": 1945,
      "asleep": 1946,
      "lovely": 1947,
      "pan": 1948,
      "vie": 1949,
      "hop": 1950,
      "Jake": 1951,
      "lock": 1952,
      "izz": 1953,
      "ned": 1954,
      "whole": 1955,
      "teach": 1956,
      "danced": 1957,
      "gy": 1958,
      "snowman": 1959,
      "ones": 1960,
      "Together": 1961,
      "Lisa": 1962,
      "rolled": 1963,
      "œI": 1964,
      "thin": 1965,
      "worm": 1966,
      "wild": 1967,
      "eth": 1968,
      "fli": 1969,
      "tries": 1970,
      "gently": 1971,
      "kets": 1972,
      "rubb": 1973,
      "respect": 1974,
      "wearing": 1975,
      "forgive": 1976,
      "tun": 1977,
      "Sometimes": 1978,
      "corn": 1979,
      "pill": 1980,
      "ching": 1981,
      "places": 1982,
      "bubb": 1983,
      "corner": 1984,
      "confused": 1985,
      "teeth": 1986,
      "impress": 1987,
      "string": 1988,
      "giant": 1989,
      "tur": 1990,
      "drive": 1991,
      "dirt": 1992,
      "tool": 1993,
      "rude": 1994,
      "wave": 1995,
      "ity": 1996,
      "cean": 1997,
      "ocean": 1998,
      "lar": 1999,
      "Mummy": 2000,
      "slid": 2001,
      "step": 2002,
      "chick": 2003,
      "itty": 2004,
      "pretended": 2005,
      "ased": 2006,
      "pop": 2007,
      "lace": 2008,
      "cookie": 2009,
      "tasted": 2010,
      "uce": 2011,
      "faces": 2012,
      "rich": 2013,
      "calm": 2014,
      "pour": 2015,
      "oven": 2016,
      "Here": 2017,
      "finish": 2018,
      "res": 2019,
      "machine": 2020,
      "delight": 2021,
      "coin": 2022,
      "picnic": 2023,
      "chocol": 2024,
      "furry": 2025,
      "ult": 2026,
      "mel": 2027,
      "test": 2028,
      "bell": 2029,
      "trip": 2030,
      "ladder": 2031,
      "swe": 2032,
      "hang": 2033,
      "foot": 2034,
      "stair": 2035,
      "pay": 2036,
      "ten": 2037,
      "peaceful": 2038,
      "helpful": 2039,
      "seek": 2040,
      "ipped": 2041,
      "building": 2042,
      "Peter": 2043,
      "bel": 2044,
      "eventually": 2045,
      "bugs": 2046,
      "remind": 2047,
      "necklace": 2048,
      "fold": 2049,
      "Little": 2050,
      "tomor": 2051,
      "tomorrow": 2052,
      "sack": 2053,
      "shy": 2054,
      "smoo": 2055,
      "collect": 2056,
      "pread": 2057,
      "stret": 2058,
      "cur": 2059,
      "spread": 2060,
      "couch": 2061,
      "spider": 2062,
      "mir": 2063,
      "tid": 2064,
      "shr": 2065,
      "Who": 2066,
      "pool": 2067,
      "smooth": 2068,
      "blew": 2069,
      "talking": 2070,
      "sol": 2071,
      "mountain": 2072,
      "shad": 2073,
      "songs": 2074,
      "rank": 2075,
      "ban": 2076,
      "joke": 2077,
      "chased": 2078,
      "spit": 2079,
      "ighed": 2080,
      "hiding": 2081,
      "erly": 2082,
      "knee": 2083,
      "protect": 2084,
      "cele": 2085,
      "write": 2086,
      "Re": 2087,
      "wore": 2088,
      "leaf": 2089,
      "fighting": 2090,
      "embar": 2091,
      "waiting": 2092,
      "chocolate": 2093,
      "cloth": 2094,
      "embarr": 2095,
      "ife": 2096,
      "banan": 2097,
      "Stop": 2098,
      "shake": 2099,
      "Teddy": 2100,
      "puddle": 2101,
      "village": 2102,
      "cannot": 2103,
      "Ann": 2104,
      "hum": 2105,
      "whenever": 2106,
      "large": 2107,
      "embarrass": 2108,
      "carrot": 2109,
      "cord": 2110,
      "Sus": 2111,
      "Fred": 2112,
      "den": 2113,
      "treats": 2114,
      "elly": 2115,
      "paw": 2116,
      "lves": 2117,
      "maybe": 2118,
      "stra": 2119,
      "selfish": 2120,
      "Everywhere": 2121,
      "colour": 2122,
      "cage": 2123,
      "cross": 2124,
      "Rex": 2125,
      "taste": 2126,
      "Pa": 2127,
      "scre": 2128,
      "barked": 2129,
      "tie": 2130,
      "gets": 2131,
      "rots": 2132,
      "tidy": 2133,
      "Alice": 2134,
      "shirt": 2135,
      "fixed": 2136,
      "ird": 2137,
      "umpy": 2138,
      "spray": 2139,
      "oin": 2140,
      "TV": 2141,
      "ee": 2142,
      "sticks": 2143,
      "stir": 2144,
      "Help": 2145,
      "celebr": 2146,
      "cted": 2147,
      "deter": 2148,
      "asha": 2149,
      "crab": 2150,
      "missed": 2151,
      "emp": 2152,
      "carrots": 2153,
      "ungle": 2154,
      "forward": 2155,
      "hears": 2156,
      "creative": 2157,
      "appoin": 2158,
      "Johnny": 2159,
      "embarrassed": 2160,
      "trust": 2161,
      "sup": 2162,
      "prince": 2163,
      "jumping": 2164,
      "coura": 2165,
      "jungle": 2166,
      "kiss": 2167,
      "tu": 2168,
      "legs": 2169,
      "spend": 2170,
      "determin": 2171,
      "pri": 2172,
      "sold": 2173,
      "clear": 2174,
      "While": 2175,
      "sharing": 2176,
      "landed": 2177,
      "total": 2178,
      "orry": 2179,
      "cop": 2180,
      "whistle": 2181,
      "plate": 2182,
      "save": 2183,
      "sque": 2184,
      "these": 2185,
      "decor": 2186,
      "robot": 2187,
      "getable": 2188,
      "disappoin": 2189,
      "Sorry": 2190,
      "tells": 2191,
      "pizz": 2192,
      "knocked": 2193,
      "sour": 2194,
      "hero": 2195,
      "moon": 2196,
      "vegetable": 2197,
      "ail": 2198,
      "block": 2199,
      "sheep": 2200,
      "empty": 2201,
      "gas": 2202,
      "almost": 2203,
      "breath": 2204,
      "grew": 2205,
      "stairs": 2206,
      "ashamed": 2207,
      "cape": 2208,
      "Even": 2209,
      "onest": 2210,
      "balls": 2211,
      "gray": 2212,
      "brush": 2213,
      "meant": 2214,
      "police": 2215,
      "adow": 2216,
      "tightly": 2217,
      "glow": 2218,
      "line": 2219,
      "meadow": 2220,
      "seed": 2221,
      "gold": 2222,
      "understood": 2223,
      "yelled": 2224,
      "nut": 2225,
      "jewel": 2226,
      "nods": 2227,
      "gun": 2228,
      "polite": 2229,
      "Give": 2230,
      "honest": 2231,
      "law": 2232,
      "carried": 2233,
      "Today": 2234,
      "snacks": 2235,
      "ants": 2236,
      "plants": 2237,
      "Leo": 2238,
      "disappointed": 2239,
      "spital": 2240,
      "burn": 2241,
      "hospital": 2242,
      "success": 2243,
      "blow": 2244,
      "pillow": 2245,
      "ina": 2246,
      "ob": 2247,
      "fla": 2248,
      "lemon": 2249,
      "kitten": 2250,
      "jelly": 2251,
      "Me": 2252,
      "ancy": 2253,
      "spa": 2254,
      "Your": 2255,
      "pizza": 2256,
      "group": 2257,
      "van": 2258,
      "sparkly": 2259,
      "cy": 2260,
      "Mark": 2261,
      "bored": 2262,
      "bedroom": 2263,
      "mark": 2264,
      "rag": 2265,
      "rad": 2266,
      "spicy": 2267,
      "flies": 2268,
      "kin": 2269,
      "powerful": 2270,
      "fear": 2271,
      "vous": 2272,
      "feed": 2273,
      "bat": 2274,
      "puzzle": 2275,
      "needs": 2276,
      "sage": 2277,
      "pin": 2278,
      "generous": 2279,
      "frustr": 2280,
      "drew": 2281,
      "hidden": 2282,
      "returned": 2283,
      "taught": 2284,
      "easy": 2285,
      "class": 2286,
      "era": 2287,
      "sell": 2288,
      "waves": 2289,
      "note": 2290,
      "mysterious": 2291,
      "standing": 2292,
      "pair": 2293,
      "sighed": 2294,
      "shore": 2295,
      "lit": 2296,
      "finger": 2297,
      "ony": 2298,
      "knowing": 2299,
      "scarf": 2300,
      "thankful": 2301,
      "packed": 2302,
      "determined": 2303,
      "fig": 2304,
      "bul": 2305,
      "itter": 2306,
      "cand": 2307,
      "dle": 2308,
      "chew": 2309,
      "kissed": 2310,
      "tent": 2311,
      "cater": 2312,
      "caterpill": 2313,
      "ken": 2314,
      "whisper": 2315,
      "sandwich": 2316,
      "closet": 2317,
      "messy": 2318,
      "sleepy": 2319,
      "cries": 2320,
      "pir": 2321,
      "ugly": 2322,
      "frustrated": 2323,
      "case": 2324,
      "yourself": 2325,
      "tears": 2326,
      "space": 2327,
      "fancy": 2328,
      "hose": 2329,
      "gate": 2330,
      "poor": 2331,
      "towel": 2332,
      "keeper": 2333,
      "nervous": 2334,
      "berry": 2335,
      "working": 2336,
      "crown": 2337,
      "spla": 2338,
      "Ch": 2339,
      "rid": 2340,
      "passed": 2341,
      "form": 2342,
      "bridge": 2343,
      "spoil": 2344,
      "Susie": 2345,
      "ensive": 2346,
      "grumpy": 2347,
      "gathered": 2348,
      "wolf": 2349,
      "chest": 2350,
      "hopping": 2351,
      "expensive": 2352,
      "flag": 2353,
      "Dan": 2354,
      "twirl": 2355,
      "allow": 2356,
      "saved": 2357,
      "excite": 2358,
      "taken": 2359,
      "often": 2360,
      "dogs": 2361,
      "eggs": 2362,
      "mummy": 2363,
      "ates": 2364,
      "saur": 2365,
      "leg": 2366,
      "See": 2367,
      "lif": 2368,
      "mid": 2369,
      "issor": 2370,
      "ignor": 2371,
      "caterpillar": 2372,
      "stum": 2373,
      "vase": 2374,
      "boring": 2375,
      "change": 2376,
      "fil": 2377,
      "issors": 2378,
      "osaur": 2379,
      "fre": 2380,
      "picks": 2381,
      "known": 2382,
      "ual": 2383,
      "distance": 2384,
      "fruits": 2385,
      "order": 2386,
      "lown": 2387,
      "answered": 2388,
      "scissors": 2389,
      "dinosaur": 2390,
      "izzy": 2391,
      "bark": 2392,
      "dancing": 2393,
      "ror": 2394,
      "Mar": 2395,
      "true": 2396,
      "deer": 2397,
      "Lo": 2398,
      "clown": 2399,
      "middle": 2400,
      "excitement": 2401,
      "lose": 2402,
      "bers": 2403,
      "boss": 2404,
      "licked": 2405,
      "au": 2406,
      "mistake": 2407,
      "wagged": 2408,
      "walks": 2409,
      "Bl": 2410,
      "exam": 2411,
      "usual": 2412,
      "match": 2413,
      "illed": 2414,
      "giggled": 2415,
      "toes": 2416,
      "espe": 2417,
      "glass": 2418,
      "pleased": 2419,
      "ella": 2420,
      "medic": 2421,
      "Kitty": 2422,
      "four": 2423,
      "son": 2424,
      "tig": 2425,
      "asking": 2426,
      "rocket": 2427,
      "knight": 2428,
      "stuff": 2429,
      "painting": 2430,
      "vegetables": 2431,
      "wake": 2432,
      "moving": 2433,
      "sugar": 2434,
      "bone": 2435,
      "Bobby": 2436,
      "drum": 2437,
      "wip": 2438,
      "iness": 2439,
      "boys": 2440,
      "lying": 2441,
      "cially": 2442,
      "sight": 2443,
      "especially": 2444,
      "kn": 2445,
      "father": 2446,
      "mirror": 2447,
      "medicine": 2448,
      "tory": 2449,
      "inc": 2450,
      "tape": 2451,
      "drawing": 2452,
      "bake": 2453,
      "calling": 2454,
      "nel": 2455,
      "jog": 2456,
      "als": 2457,
      "smelly": 2458,
      "lly": 2459,
      "fake": 2460,
      "$<<": 2461,
      "Eventually": 2462,
      "lazy": 2463,
      "weak": 2464,
      "soar": 2465,
      "playground": 2466,
      "locked": 2467,
      "glue": 2468,
      "disappeared": 2469,
      "become": 2470,
      "cri": 2471,
      "Pet": 2472,
      "team": 2473,
      "eld": 2474,
      "feathers": 2475,
      "aged": 2476,
      "questions": 2477,
      "ipe": 2478,
      "Well": 2479,
      "flut": 2480,
      "sweetie": 2481,
      "bathroom": 2482,
      "ham": 2483,
      "drank": 2484,
      "nod": 2485,
      "fluffy": 2486,
      "Br": 2487,
      "measure": 2488,
      "dish": 2489,
      "cil": 2490,
      "mic": 2491,
      "lead": 2492,
      "horn": 2493,
      "ruined": 2494,
      "giving": 2495,
      "half": 2496,
      "means": 2497,
      "ppo": 2498,
      "splashed": 2499,
      "stones": 2500,
      "yours": 2501,
      "famous": 2502,
      "rela": 2503,
      "check": 2504,
      "relax": 2505,
      "decide": 2506,
      "incred": 2507,
      "boxes": 2508,
      "cher": 2509,
      "yal": 2510,
      "skipped": 2511,
      "noisy": 2512,
      "queen": 2513,
      "Pete": 2514,
      "pencil": 2515,
      "ator": 2516,
      "suggest": 2517,
      "illi": 2518,
      "eng": 2519,
      "micro": 2520,
      "ating": 2521,
      "jam": 2522,
      "og": 2523,
      "shows": 2524,
      "Blue": 2525,
      "motor": 2526,
      "pray": 2527,
      "fu": 2528,
      "moms": 2529,
      "gue": 2530,
      "aser": 2531,
      "juicy": 2532,
      "Mrs": 2533,
      "vide": 2534,
      "extra": 2535,
      "coins": 2536,
      "vest": 2537,
      "Ella": 2538,
      "Mandy": 2539,
      "rote": 2540,
      "Ellie": 2541,
      "Letâ": 2542,
      "figure": 2543,
      "dig": 2544,
      "Whe": 2545,
      "content": 2546,
      "swan": 2547,
      "wrote": 2548,
      "fine": 2549,
      "chase": 2550,
      "ears": 2551,
      "eager": 2552,
      "wis": 2553,
      "straw": 2554,
      "dol": 2555,
      "tro": 2556,
      "chicken": 2557,
      "ging": 2558,
      "Rose": 2559,
      "bs": 2560,
      "chang": 2561,
      "zed": 2562,
      "?\".": 2563,
      "incredible": 2564,
      "ending": 2565,
      "organized": 2566,
      "dolph": 2567,
      "tub": 2568,
      "rare": 2569,
      "sailed": 2570,
      "cleaned": 2571,
      "elderly": 2572,
      "borrow": 2573,
      "soap": 2574,
      "alous": 2575,
      "wha": 2576,
      "branches": 2577,
      "lamp": 2578,
      "Ne": 2579,
      "jealous": 2580,
      "using": 2581,
      "End": 2582,
      "adventur": 2583,
      "men": 2584,
      "loyal": 2585,
      "cro": 2586,
      "discovered": 2587,
      "adventurous": 2588,
      "sil": 2589,
      "hurts": 2590,
      "bubbles": 2591,
      "arage": 2592,
      "tag": 2593,
      "garage": 2594,
      "once": 2595,
      "tiger": 2596,
      "St": 2597,
      "frown": 2598,
      "offered": 2599,
      "trucks": 2600,
      "Brown": 2601,
      "realised": 2602,
      "runk": 2603,
      "happening": 2604,
      "Ow": 2605,
      "colourful": 2606,
      "flash": 2607,
      "lid": 2608,
      "fic": 2609,
      "eye": 2610,
      "pump": 2611,
      "balance": 2612,
      "smo": 2613,
      "Bobo": 2614,
      "Bella": 2615,
      "ular": 2616,
      "selves": 2617,
      "added": 2618,
      "tom": 2619,
      "cient": 2620,
      "wrapped": 2621,
      "louder": 2622,
      "sword": 2623,
      "balloons": 2624,
      "market": 2625,
      "ately": 2626,
      "ero": 2627,
      "lifted": 2628,
      "unique": 2629,
      "lift": 2630,
      "bottom": 2631,
      "diffic": 2632,
      "shells": 2633,
      "rat": 2634,
      "yog": 2635,
      "already": 2636,
      "knife": 2637,
      "managed": 2638,
      "banana": 2639,
      "weird": 2640,
      "map": 2641,
      "imed": 2642,
      "toug": 2643,
      "dep": 2644,
      "mighty": 2645,
      "record": 2646,
      "crawled": 2647,
      "thick": 2648,
      "pal": 2649,
      "city": 2650,
      "gust": 2651,
      "difficult": 2652,
      "ert": 2653,
      "whale": 2654,
      "movie": 2655,
      "fright": 2656,
      "barn": 2657,
      "unusual": 2658,
      "goat": 2659,
      "harm": 2660,
      "kindness": 2661,
      "norm": 2662,
      "ured": 2663,
      "hats": 2664,
      "edge": 2665,
      "ery": 2666,
      "rough": 2667,
      "Dave": 2668,
      "cab": 2669,
      "laughs": 2670,
      "Ju": 2671,
      "squee": 2672,
      "boo": 2673,
      "cheerful": 2674,
      "fool": 2675,
      "ature": 2676,
      "ado": 2677,
      "harder": 2678,
      "apo": 2679,
      "learning": 2680,
      "bags": 2681,
      "dizzy": 2682,
      "guit": 2683,
      "smoke": 2684,
      "Grandpa": 2685,
      "valu": 2686,
      "Bu": 2687,
      "grown": 2688,
      "apolog": 2689,
      "tough": 2690,
      "search": 2691,
      "island": 2692,
      "favour": 2693,
      "pointing": 2694,
      "brothers": 2695,
      "spun": 2696,
      "suit": 2697,
      "yell": 2698,
      "guess": 2699,
      "grand": 2700,
      "enjoying": 2701,
      "stri": 2702,
      "agree": 2703,
      "shape": 2704,
      "belonged": 2705,
      "circles": 2706,
      "loudly": 2707,
      "buttons": 2708,
      "cabin": 2709,
      "against": 2710,
      "comple": 2711,
      "normal": 2712,
      "impressed": 2713,
      "choose": 2714,
      "bloom": 2715,
      "falls": 2716,
      "bald": 2717,
      "dreamed": 2718,
      "uggled": 2719,
      "ilt": 2720,
      "brilli": 2721,
      "clay": 2722,
      "favourite": 2723,
      "skin": 2724,
      "stubb": 2725,
      "scr": 2726,
      "saying": 2727,
      "Tweety": 2728,
      "houses": 2729,
      "Lola": 2730,
      "aw": 2731,
      "depend": 2732,
      "courage": 2733,
      "safely": 2734,
      "brilliant": 2735,
      "helps": 2736,
      "grace": 2737,
      "batter": 2738,
      "pee": 2739,
      "lean": 2740,
      "trunk": 2741,
      "bossy": 2742,
      "marble": 2743,
      "libr": 2744,
      "guitar": 2745,
      "cam": 2746,
      "scare": 2747,
      "lights": 2748,
      "compet": 2749,
      "oph": 2750,
      "knows": 2751,
      "secon": 2752,
      "port": 2753,
      "breakfast": 2754,
      "fat": 2755,
      "ages": 2756,
      "stubborn": 2757,
      "Would": 2758,
      "ext": 2759,
      "Nemo": 2760,
      "crayon": 2761,
      "notice": 2762,
      "nail": 2763,
      "ination": 2764,
      "valuable": 2765,
      "slipped": 2766,
      "adm": 2767,
      "wing": 2768,
      "proudly": 2769,
      "sca": 2770,
      "wagon": 2771,
      "study": 2772,
      "competit": 2773,
      "invited": 2774,
      "cudd": 2775,
      "successful": 2776,
      "walls": 2777,
      "main": 2778,
      "aced": 2779,
      "keys": 2780,
      "happiness": 2781,
      "shark": 2782,
      "frightened": 2783,
      "foolish": 2784,
      "escape": 2785,
      "obed": 2786,
      "terri": 2787,
      "cate": 2788,
      "Ge": 2789,
      "Ducky": 2790,
      "fridge": 2791,
      "clap": 2792,
      "snee": 2793,
      "cost": 2794,
      "orge": 2795,
      "ancient": 2796,
      "stru": 2797,
      "turtle": 2798,
      "bounce": 2799,
      "shadow": 2800,
      "nosy": 2801,
      "dough": 2802,
      "jac": 2803,
      "Next": 2804,
      "office": 2805,
      "rubbed": 2806,
      "Soph": 2807,
      "birdie": 2808,
      "square": 2809,
      "news": 2810,
      "useful": 2811,
      "egg": 2812,
      "acce": 2813,
      "uring": 2814,
      "roof": 2815,
      "obedient": 2816,
      "dead": 2817,
      "delicate": 2818,
      "toma": 2819,
      "fier": 2820,
      "counted": 2821,
      "orig": 2822,
      "sounded": 2823,
      "hi": 2824,
      "remain": 2825,
      "zip": 2826,
      "graceful": 2827,
      "wiped": 2828,
      "stream": 2829,
      "bove": 2830,
      "fresh": 2831,
      "reg": 2832,
      "vi": 2833,
      "crack": 2834,
      "smaller": 2835,
      "fierce": 2836,
      "excla": 2837,
      "dreams": 2838,
      "grandpa": 2839,
      "guard": 2840,
      "dependable": 2841,
      "rh": 2842,
      "rode": 2843,
      "nur": 2844,
      "tools": 2845,
      "cing": 2846,
      "origin": 2847,
      "ince": 2848,
      "Will": 2849,
      "exclaimed": 2850,
      "kinds": 2851,
      "mixed": 2852,
      "cart": 2853,
      "rose": 2854,
      "angel": 2855,
      "erry": 2856,
      "nicely": 2857,
      "fingers": 2858,
      "suggested": 2859,
      "sal": 2860,
      "above": 2861,
      "tele": 2862,
      "Mike": 2863,
      "Whenever": 2864,
      "practice": 2865,
      "ines": 2866,
      "weal": 2867,
      "ountain": 2868,
      "Toby": 2869,
      "bean": 2870,
      "stove": 2871,
      "mes": 2872,
      "poured": 2873,
      "hun": 2874,
      "excitedly": 2875,
      "George": 2876,
      "bitter": 2877,
      "arry": 2878,
      "tem": 2879,
      "fountain": 2880,
      "stumbled": 2881,
      "load": 2882,
      "oc": 2883,
      "showing": 2884,
      "epend": 2885,
      "witch": 2886,
      "scrat": 2887,
      "bushes": 2888,
      "design": 2889,
      "robe": 2890,
      "original": 2891,
      "Mil": 2892,
      "themselves": 2893,
      "ges": 2894,
      "pumpkin": 2895,
      "explored": 2896,
      "thoughtful": 2897,
      "independ": 2898,
      "post": 2899,
      "tank": 2900,
      "brightly": 2901,
      "print": 2902,
      "vice": 2903,
      "meal": 2904,
      "built": 2905,
      "dge": 2906,
      "spinning": 2907,
      "changed": 2908,
      "cleaning": 2909,
      "parrot": 2910,
      "gem": 2911,
      "popcorn": 2912,
      "twig": 2913,
      "rece": 2914,
      "sof": 2915,
      "bees": 2916,
      "whispered": 2917,
      "those": 2918,
      "admired": 2919,
      "frag": 2920,
      "reminded": 2921,
      "dom": 2922,
      "anut": 2923,
      "playful": 2924,
      "ray": 2925,
      "jolly": 2926,
      "seem": 2927,
      "Pat": 2928,
      "shone": 2929,
      "handed": 2930,
      "bump": 2931,
      "kicked": 2932,
      "snif": 2933,
      "stronger": 2934,
      "joined": 2935,
      "delighted": 2936,
      "beak": 2937,
      "steal": 2938,
      "!\".": 2939,
      "reli": 2940,
      "ents": 2941,
      "enorm": 2942,
      "enormous": 2943,
      "ti": 2944,
      "cone": 2945,
      "aunt": 2946,
      "wrap": 2947,
      "spoiled": 2948,
      "stat": 2949,
      "fragile": 2950,
      "raced": 2951,
      "power": 2952,
      "dust": 2953,
      "tummy": 2954,
      "arrow": 2955,
      "lli": 2956,
      "Ho": 2957,
      "reliable": 2958,
      "independent": 2959,
      "hoop": 2960,
      "holds": 2961,
      "solve": 2962,
      "dove": 2963,
      "tunnel": 2964,
      "metal": 2965,
      "boats": 2966,
      "hammer": 2967,
      "ended": 2968,
      "bble": 2969,
      "amond": 2970,
      "leaving": 2971,
      "chir": 2972,
      "finding": 2973,
      "yarn": 2974,
      "unknown": 2975,
      "lolli": 2976,
      "rushed": 2977,
      "liz": 2978,
      "cod": 2979,
      "upid": 2980,
      "painted": 2981,
      "diamond": 2982,
      "Joey": 2983,
      "Al": 2984,
      "doesn": 2985,
      "hay": 2986,
      "vet": 2987,
      "pota": 2988,
      "chose": 2989,
      "serious": 2990,
      "cheer": 2991,
      "allowed": 2992,
      "memor": 2993,
      "acorn": 2994,
      "sink": 2995,
      "hairy": 2996,
      "fed": 2997,
      "tain": 2998,
      "velo": 2999,
      "Kim": 3000,
      "clum": 3001,
      "salad": 3002,
      "cards": 3003,
      "tic": 3004,
      "camera": 3005,
      "Bye": 3006,
      "stupid": 3007,
      "beet": 3008,
      "gum": 3009,
      "noon": 3010,
      "iver": 3011,
      "picking": 3012,
      "yet": 3013,
      "wealthy": 3014,
      "cube": 3015,
      "telling": 3016,
      "peanut": 3017,
      "opens": 3018,
      "umbre": 3019,
      "crocod": 3020,
      "screen": 3021,
      "forth": 3022,
      "deliver": 3023,
      "sleeping": 3024,
      "compass": 3025,
      "envelo": 3026,
      "toast": 3027,
      "view": 3028,
      "goose": 3029,
      "popul": 3030,
      "Polly": 3031,
      "gasped": 3032,
      "regular": 3033,
      "thirst": 3034,
      "washed": 3035,
      "clock": 3036,
      "glo": 3037,
      "thunder": 3038,
      "barber": 3039,
      "ugged": 3040,
      "moder": 3041,
      "Bill": 3042,
      "ilty": 3043,
      "guilty": 3044,
      "Char": 3045,
      "seeds": 3046,
      "host": 3047,
      "clumsy": 3048,
      "terrible": 3049,
      "thinking": 3050,
      "œYes": 3051,
      "Bear": 3052,
      "sauce": 3053,
      "ingred": 3054,
      "missing": 3055,
      "ingredient": 3056,
      "lives": 3057,
      "pige": 3058,
      "rug": 3059,
      "travel": 3060,
      "ations": 3061,
      "Paul": 3062,
      "Ale": 3063,
      "ley": 3064,
      "dolphin": 3065,
      "driving": 3066,
      "wheels": 3067,
      "popular": 3068,
      "flex": 3069,
      "create": 3070,
      "stage": 3071,
      "fort": 3072,
      "stud": 3073,
      "dull": 3074,
      "searching": 3075,
      "cakes": 3076,
      "advice": 3077,
      "thirsty": 3078,
      "planet": 3079,
      "œWhat": 3080,
      "five": 3081,
      "asses": 3082,
      "march": 3083,
      "careless": 3084,
      "roy": 3085,
      "Alex": 3086,
      "Or": 3087,
      "ject": 3088,
      "stack": 3089,
      "nurse": 3090,
      "comput": 3091,
      "wander": 3092,
      "tti": 3093,
      "carrying": 3094,
      "illa": 3095,
      "dreaming": 3096,
      "modern": 3097,
      "ither": 3098,
      "stops": 3099,
      "=<<": 3100,
      "compassion": 3101,
      "speed": 3102,
      "sty": 3103,
      "sses": 3104,
      "tern": 3105,
      "patch": 3106,
      "stranger": 3107,
      "sne": 3108,
      "shocked": 3109,
      "nature": 3110,
      "given": 3111,
      "impressive": 3112,
      "flexible": 3113,
      "cran": 3114,
      "Andy": 3115,
      "destroy": 3116,
      "tered": 3117,
      "persist": 3118,
      "hetti": 3119,
      "aghetti": 3120,
      "isted": 3121,
      "doors": 3122,
      "biggest": 3123,
      "friendship": 3124,
      "cane": 3125,
      "tied": 3126,
      "engine": 3127,
      "jacket": 3128,
      "shiver": 3129,
      "sparkled": 3130,
      "rise": 3131,
      "pup": 3132,
      "ordin": 3133,
      "hunter": 3134,
      "reward": 3135,
      "numbers": 3136,
      "older": 3137,
      "ordinary": 3138,
      "pirate": 3139,
      "comb": 3140,
      "desk": 3141,
      "steps": 3142,
      "beetle": 3143,
      "sudden": 3144,
      "crocodile": 3145,
      "œIt": 3146,
      "spaghetti": 3147,
      "thus": 3148,
      "verse": 3149,
      "peeked": 3150,
      "coo": 3151,
      "brace": 3152,
      "pengu": 3153,
      "towers": 3154,
      "ingredients": 3155,
      "beep": 3156,
      "reading": 3157,
      "crazy": 3158,
      "windows": 3159,
      "intell": 3160,
      "flashlight": 3161,
      "intellig": 3162,
      "warned": 3163,
      "lla": 3164,
      "spilled": 3165,
      "discover": 3166,
      "io": 3167,
      "cheap": 3168,
      "statue": 3169,
      "pattern": 3170,
      "umbrella": 3171,
      "enthus": 3172,
      "sadly": 3173,
      "ghost": 3174,
      "charm": 3175,
      "serve": 3176,
      "Sophie": 3177,
      "env": 3178,
      "prize": 3179,
      "super": 3180,
      "truth": 3181,
      "library": 3182,
      "Ru": 3183,
      "may": 3184,
      "early": 3185,
      "fork": 3186,
      "anda": 3187,
      "return": 3188,
      "earth": 3189,
      "avo": 3190,
      "jug": 3191,
      "complete": 3192,
      "Hen": 3193,
      "handle": 3194,
      "placed": 3195,
      "lim": 3196,
      "aid": 3197,
      "reci": 3198,
      "value": 3199,
      "envelope": 3200,
      "imagined": 3201,
      "scale": 3202,
      "iches": 3203,
      "sorts": 3204,
      "stal": 3205,
      "bent": 3206,
      "ribb": 3207,
      "jumps": 3208,
      "cupboard": 3209,
      "spring": 3210,
      "ahead": 3211,
      "tract": 3212,
      "pale": 3213,
      "bull": 3214,
      "Un": 3215,
      "wire": 3216,
      "torn": 3217,
      "thie": 3218,
      "penny": 3219,
      "crane": 3220,
      "spoke": 3221,
      "suppl": 3222,
      "sandwiches": 3223,
      "pho": 3224,
      "mailbox": 3225,
      "humble": 3226,
      "counting": 3227,
      "pian": 3228,
      "est": 3229,
      "photo": 3230,
      "coco": 3231,
      "growing": 3232,
      "badly": 3233,
      "pretending": 3234,
      "sailor": 3235,
      "computer": 3236,
      "cco": 3237,
      "œLetâ": 3238,
      "shut": 3239,
      "drop": 3240,
      "lizard": 3241,
      "piano": 3242,
      "harmless": 3243,
      "couldnâ": 3244,
      "persistent": 3245,
      "bracelet": 3246,
      "ience": 3247,
      "inde": 3248,
      "fan": 3249,
      "polish": 3250,
      "quar": 3251,
      "triang": 3252,
      "second": 3253,
      "aches": 3254,
      "slides": 3255,
      "bet": 3256,
      "gling": 3257,
      "paid": 3258,
      "ckets": 3259,
      "Jerry": 3260,
      "jet": 3261,
      "flute": 3262,
      "beauty": 3263,
      "stickers": 3264,
      "trash": 3265,
      "parade": 3266,
      "letters": 3267,
      "butterflies": 3268,
      "scat": 3269,
      "base": 3270,
      "turkey": 3271,
      "names": 3272,
      "celebrate": 3273,
      "track": 3274,
      "sofa": 3275,
      "shoot": 3276,
      "club": 3277,
      "gloom": 3278,
      "sity": 3279,
      "crawl": 3280,
      "os": 3281,
      "anx": 3282,
      "rice": 3283,
      "Yay": 3284,
      "coll": 3285,
      "gie": 3286,
      "octop": 3287,
      "shroom": 3288,
      "exper": 3289,
      "Annie": 3290,
      "bin": 3291,
      "cooking": 3292,
      "trick": 3293,
      "tooth": 3294,
      "flour": 3295,
      "uncomfortable": 3296,
      "intelligent": 3297,
      "cereal": 3298,
      "icycle": 3299,
      "uncle": 3300,
      "anxious": 3301,
      "sum": 3302,
      "whist": 3303,
      "Henry": 3304,
      "refused": 3305,
      "chance": 3306,
      "question": 3307,
      "ubby": 3308,
      "rub": 3309,
      "uddy": 3310,
      "neighb": 3311,
      "tire": 3312,
      "Mag": 3313,
      "bicycle": 3314,
      "mushroom": 3315,
      "charming": 3316,
      "ffin": 3317,
      "bandage": 3318,
      "twirled": 3319,
      "octopus": 3320,
      "station": 3321,
      "gifted": 3322,
      "scoo": 3323,
      "chasing": 3324,
      "neat": 3325,
      "supp": 3326,
      "az": 3327,
      "starts": 3328,
      "pants": 3329,
      "tion": 3330,
      "sheet": 3331,
      "sunflower": 3332,
      "pigeon": 3333,
      "mole": 3334,
      "anywhere": 3335,
      "rules": 3336,
      "cture": 3337,
      "snuggled": 3338,
      "Grace": 3339,
      "Charlie": 3340,
      "drawer": 3341,
      "curtain": 3342,
      "competitive": 3343,
      "collar": 3344,
      "ceed": 3345,
      "gloomy": 3346,
      "ignorant": 3347,
      "melon": 3348,
      "disgust": 3349,
      "ween": 3350,
      "pasta": 3351,
      "package": 3352,
      "gain": 3353,
      "yaw": 3354,
      "cap": 3355,
      "stretched": 3356,
      "deaf": 3357,
      "tray": 3358,
      "Before": 3359,
      "math": 3360,
      "Sandy": 3361,
      "cycle": 3362,
      "skip": 3363,
      "vol": 3364,
      "leash": 3365,
      "carpet": 3366,
      "ffle": 3367,
      "pear": 3368,
      "aur": 3369,
      "arian": 3370,
      "bounced": 3371,
      "soldier": 3372,
      "hurry": 3373,
      "igator": 3374,
      "lively": 3375,
      "leo": 3376,
      "zebra": 3377,
      "compassionate": 3378,
      "alert": 3379,
      "cats": 3380,
      "pressed": 3381,
      "hood": 3382,
      "carto": 3383,
      "pony": 3384,
      "repe": 3385,
      "clu": 3386,
      "restaur": 3387,
      "chubby": 3388,
      "dug": 3389,
      "gir": 3390,
      "stic": 3391,
      "cob": 3392,
      "hook": 3393,
      "erable": 3394,
      "wishes": 3395,
      "scooter": 3396,
      "Bet": 3397,
      "pepper": 3398,
      "gor": 3399,
      "creatures": 3400,
      "camp": 3401,
      "helpless": 3402,
      "miserable": 3403,
      "hippo": 3404,
      "separ": 3405,
      "squash": 3406,
      "itself": 3407,
      "thief": 3408,
      "ener": 3409,
      "helmet": 3410,
      "trap": 3411,
      "alligator": 3412,
      "scoop": 3413,
      "swee": 3414,
      "shaking": 3415,
      "screw": 3416,
      "attract": 3417,
      "glasses": 3418,
      "Tweetie": 3419,
      "works": 3420,
      "nuts": 3421,
      "distur": 3422,
      "listening": 3423,
      "hive": 3424,
      "poem": 3425,
      "œThat": 3426,
      "fearful": 3427,
      "cli": 3428,
      "iss": 3429,
      "cocoa": 3430,
      "afternoon": 3431,
      "ador": 3432,
      "needle": 3433,
      "Bun": 3434,
      "restaurant": 3435,
      "aff": 3436,
      "impat": 3437,
      "shouts": 3438,
      "points": 3439,
      "leopar": 3440,
      "Everything": 3441,
      "knot": 3442,
      "succeed": 3443,
      "bri": 3444,
      "ded": 3445,
      "mission": 3446,
      "brighter": 3447,
      "Did": 3448,
      "Sm": 3449,
      "James": 3450,
      "practiced": 3451,
      "envious": 3452,
      "waffle": 3453,
      "sie": 3454,
      "further": 3455,
      "zi": 3456,
      "disgusting": 3457,
      "meow": 3458,
      "impatient": 3459,
      "Brownie": 3460,
      "nobody": 3461,
      "knock": 3462,
      "ath": 3463,
      "trum": 3464,
      "crystal": 3465,
      "hall": 3466,
      "sandbox": 3467,
      "candle": 3468,
      "First": 3469,
      "otter": 3470,
      "monkeys": 3471,
      "human": 3472,
      "fee": 3473,
      "Millie": 3474,
      "muffin": 3475,
      "backpack": 3476,
      "respectful": 3477,
      "somewhere": 3478,
      "meas": 3479,
      "Danny": 3480,
      "pun": 3481,
      "ino": 3482,
      "olin": 3483,
      "attractive": 3484,
      "ost": 3485,
      "purse": 3486,
      "desser": 3487,
      "cows": 3488,
      "spir": 3489,
      "mug": 3490,
      "cups": 3491,
      "tube": 3492,
      "Jess": 3493,
      "unk": 3494,
      "finds": 3495,
      "jeep": 3496,
      "aroo": 3497,
      "angaroo": 3498,
      "stretch": 3499,
      "lollipop": 3500,
      "anyway": 3501,
      "bur": 3502,
      "heli": 3503,
      "fireman": 3504,
      "filthy": 3505,
      "adorable": 3506,
      "restless": 3507,
      "decorate": 3508,
      "Lee": 3509,
      "copter": 3510,
      "cano": 3511,
      "repair": 3512,
      "belt": 3513,
      "aked": 3514,
      "attic": 3515,
      "gn": 3516,
      "troubled": 3517,
      "minute": 3518,
      "giggle": 3519,
      "sle": 3520,
      "shoe": 3521,
      "cooked": 3522,
      "perform": 3523,
      "summer": 3524,
      "helicopter": 3525,
      "thread": 3526,
      "lk": 3527,
      "iest": 3528,
      "impro": 3529,
      "size": 3530,
      "grabs": 3531,
      "Red": 3532,
      "nowhere": 3533,
      "barrel": 3534,
      "stirred": 3535,
      "raven": 3536,
      "twist": 3537,
      "kangaroo": 3538,
      "enthusia": 3539,
      "Is": 3540,
      "enthusiastic": 3541,
      "pit": 3542,
      "theart": 3543,
      "Maria": 3544,
      "kers": 3545,
      "gorilla": 3546,
      "leopard": 3547,
      "complain": 3548,
      "barking": 3549,
      "magnet": 3550,
      "pipe": 3551,
      "split": 3552,
      "bikes": 3553,
      "radio": 3554,
      "vine": 3555,
      "tax": 3556,
      "meat": 3557,
      "distant": 3558,
      "Each": 3559,
      "Cl": 3560,
      "organize": 3561,
      "riding": 3562,
      "harsh": 3563,
      "Harry": 3564,
      "admi": 3565,
      "volcano": 3566,
      "stared": 3567,
      "Snow": 3568,
      "jellyfish": 3569,
      "Bunny": 3570,
      "offee": 3571,
      "paws": 3572,
      "cricket": 3573,
      "These": 3574,
      "happier": 3575,
      "trumpet": 3576,
      "Buddy": 3577,
      "quite": 3578,
      "lions": 3579,
      "sweetheart": 3580,
      "spell": 3581,
      "pulls": 3582,
      "speak": 3583,
      "por": 3584,
      "seal": 3585,
      "chalk": 3586,
      "modest": 3587,
      "bathtub": 3588,
      "comet": 3589,
      "sport": 3590,
      "ache": 3591,
      "castles": 3592,
      "pilot": 3593,
      "didnâ": 3594,
      "sort": 3595,
      "wever": 3596,
      "tripped": 3597,
      "sweater": 3598,
      "aero": 3599,
      "message": 3600,
      "shield": 3601,
      "admire": 3602,
      "Lilly": 3603,
      "mama": 3604,
      "grapes": 3605,
      "Baby": 3606,
      "salt": 3607,
      "haircut": 3608,
      "pushing": 3609,
      "nes": 3610,
      "tick": 3611,
      "frowned": 3612,
      "Papa": 3613,
      "ostrich": 3614,
      "dessert": 3615,
      "behave": 3616,
      "weigh": 3617,
      "either": 3618,
      "choice": 3619,
      "bubble": 3620,
      "ides": 3621,
      "sock": 3622,
      "mill": 3623,
      "mask": 3624,
      "fac": 3625,
      "Smith": 3626,
      "dishes": 3627,
      "triangle": 3628,
      "Kate": 3629,
      "ccoli": 3630,
      "Maggie": 3631,
      "Whis": 3632,
      "starting": 3633,
      "holes": 3634,
      "silver": 3635,
      "resc": 3636,
      "rescue": 3637,
      "bears": 3638,
      "vator": 3639,
      "gro": 3640,
      "kne": 3641,
      "country": 3642,
      "pole": 3643,
      "buzz": 3644,
      "basketball": 3645,
      "violin": 3646,
      "papers": 3647,
      "reco": 3648,
      "elevator": 3649,
      "ucked": 3650,
      "lightning": 3651,
      "scold": 3652,
      "coffee": 3653,
      "shakes": 3654,
      "fis": 3655,
      "palace": 3656,
      "stume": 3657,
      "costume": 3658,
      "roared": 3659,
      "oy": 3660,
      "send": 3661,
      "luck": 3662,
      "sau": 3663,
      "laun": 3664,
      "trains": 3665,
      "pushes": 3666,
      "evening": 3667,
      "switch": 3668,
      "checked": 3669,
      "forgave": 3670,
      "pebble": 3671,
      "sticker": 3672,
      "support": 3673,
      "cush": 3674,
      "recogn": 3675,
      "dive": 3676,
      "teas": 3677,
      "peek": 3678,
      "swinging": 3679,
      "lands": 3680,
      "Po": 3681,
      "between": 3682,
      "broccoli": 3683,
      "shade": 3684,
      "ction": 3685,
      "astic": 3686,
      "rolling": 3687,
      "shopkeeper": 3688,
      "bananas": 3689,
      "jokes": 3690,
      "rod": 3691,
      "bby": 3692,
      "wallet": 3693,
      "Car": 3694,
      "alive": 3695,
      "journ": 3696,
      "energy": 3697,
      "shel": 3698,
      "mas": 3699,
      "phy": 3700,
      "raft": 3701,
      "falling": 3702,
      "visited": 3703,
      "wheat": 3704,
      "goal": 3705,
      "learnt": 3706,
      "appreci": 3707,
      "oat": 3708,
      "cado": 3709,
      "cel": 3710,
      "softly": 3711,
      "rubber": 3712,
      "laundry": 3713,
      "dar": 3714,
      "judge": 3715,
      "microphone": 3716,
      "neighbour": 3717,
      "steak": 3718,
      "avail": 3719,
      "boots": 3720,
      "cact": 3721,
      "inse": 3722,
      "colours": 3723,
      "Whiskers": 3724,
      "Thanks": 3725,
      "barks": 3726,
      "penguin": 3727,
      "hedge": 3728,
      "reinde": 3729,
      "Flo": 3730,
      "urt": 3731,
      "aled": 3732,
      "object": 3733,
      "avocado": 3734,
      "journal": 3735,
      "clapping": 3736,
      "ris": 3737,
      "zoomed": 3738,
      "ills": 3739,
      "eraser": 3740,
      "marched": 3741,
      "unhappy": 3742,
      "taxi": 3743,
      "spirit": 3744,
      "inking": 3745,
      "shovel": 3746,
      "edy": 3747,
      "breaks": 3748,
      "mild": 3749,
      "œYou": 3750,
      "bol": 3751,
      "inclu": 3752,
      "available": 3753,
      "resp": 3754,
      "imi": 3755,
      "enter": 3756,
      "comm": 3757,
      "panda": 3758,
      "drawings": 3759,
      "shelter": 3760,
      "cardboard": 3761,
      "chain": 3762,
      "seum": 3763,
      "museum": 3764,
      "wool": 3765,
      "climbing": 3766,
      "sprink": 3767,
      "raining": 3768,
      "strawberry": 3769,
      "resist": 3770,
      "bulance": 3771,
      "reindeer": 3772,
      "Tony": 3773,
      "trem": 3774,
      "putting": 3775,
      "ambulance": 3776,
      "appl": 3777,
      "slice": 3778,
      "poke": 3779,
      "belongs": 3780,
      "motorcycle": 3781,
      "iling": 3782,
      "Mimi": 3783,
      "soil": 3784,
      "smells": 3785,
      "lap": 3786,
      "painter": 3787,
      "trophy": 3788,
      "uli": 3789,
      "mule": 3790,
      "danger": 3791,
      "comfort": 3792,
      "iron": 3793,
      "task": 3794,
      "feelings": 3795,
      "tricks": 3796,
      "tomato": 3797,
      "hadn": 3798,
      "tap": 3799,
      "awe": 3800,
      "sub": 3801,
      "beam": 3802,
      "page": 3803,
      "ense": 3804,
      "marry": 3805,
      "counter": 3806,
      "heads": 3807,
      "vroom": 3808,
      "donâ": 3809,
      "frame": 3810,
      "bey": 3811,
      "hoping": 3812,
      "thanks": 3813,
      "drops": 3814,
      "factory": 3815,
      "pages": 3816,
      "cauli": 3817,
      "vend": 3818,
      "football": 3819,
      "oe": 3820,
      "web": 3821,
      "leaned": 3822,
      "si": 3823,
      "tip": 3824,
      "notebook": 3825,
      "cactus": 3826,
      "fields": 3827,
      "rend": 3828,
      "treasures": 3829,
      "quarrel": 3830,
      "celery": 3831,
      "ait": 3832,
      "chan": 3833,
      "petal": 3834,
      "pine": 3835,
      "ms": 3836,
      "hotel": 3837,
      "yach": 3838,
      "unlock": 3839,
      "folder": 3840,
      "onion": 3841,
      "golf": 3842,
      "apologized": 3843,
      "airport": 3844,
      "magaz": 3845,
      "point": 3846,
      "flame": 3847,
      "Kat": 3848,
      "shrimp": 3849,
      "frogs": 3850,
      "diary": 3851,
      "Su": 3852,
      "scope": 3853,
      "aeroplane": 3854,
      "lawy": 3855,
      "imagine": 3856,
      "medal": 3857,
      "stuffed": 3858,
      "kitty": 3859,
      "sym": 3860,
      "shouldn": 3861,
      "throws": 3862,
      "cauliflower": 3863,
      "vendor": 3864,
      "eagerly": 3865,
      "swung": 3866,
      "planes": 3867,
      "yacht": 3868,
      "Because": 3869,
      "porch": 3870,
      "yogurt": 3871,
      "trave": 3872,
      "leton": 3873,
      "keleton": 3874,
      "€“": 3875,
      "closely": 3876,
      "winter": 3877,
      "ccer": 3878,
      "izes": 3879,
      "..": 3880,
      "quit": 3881,
      "ornam": 3882,
      "flea": 3883,
      "poss": 3884,
      "crow": 3885,
      "cooler": 3886,
      "Rosie": 3887,
      "affe": 3888,
      "Ste": 3889,
      "azz": 3890,
      "rhino": 3891,
      "May": 3892,
      "worth": 3893,
      "shouting": 3894,
      "attent": 3895,
      "player": 3896,
      "crash": 3897,
      "seeing": 3898,
      "cheek": 3899,
      "ding": 3900,
      "Instead": 3901,
      "soccer": 3902,
      "Tr": 3903,
      "video": 3904,
      "wife": 3905,
      "imagination": 3906,
      "pru": 3907,
      "zzy": 3908,
      "baking": 3909,
      "iture": 3910,
      "chickens": 3911,
      "Tina": 3912,
      "coal": 3913,
      "furn": 3914,
      "hut": 3915,
      "perfectly": 3916,
      "grocer": 3917,
      "offer": 3918,
      "created": 3919,
      "reeze": 3920,
      "headed": 3921,
      "forgotten": 3922,
      "furniture": 3923,
      "equ": 3924,
      "Clara": 3925,
      "chanic": 3926,
      "laser": 3927,
      "twink": 3928,
      "trail": 3929,
      "tuna": 3930,
      "theater": 3931,
      "Miss": 3932,
      "skeleton": 3933,
      "cell": 3934,
      "mechanic": 3935,
      "squi": 3936,
      "symbol": 3937,
      "tear": 3938,
      "oil": 3939,
      "enny": 3940,
      "slept": 3941,
      "Sp": 3942,
      "temple": 3943,
      "attention": 3944,
      "mixer": 3945,
      "bbles": 3946,
      "sir": 3947,
      "petals": 3948,
      "chor": 3949,
      "horses": 3950,
      "Wait": 3951,
      "peach": 3952,
      "hoc": 3953,
      "sunset": 3954,
      "bulb": 3955,
      "cherries": 3956,
      "giraffe": 3957,
      "pted": 3958,
      "disappear": 3959,
      "loop": 3960,
      "pirates": 3961,
      "lawyer": 3962,
      "breathe": 3963,
      "hockey": 3964,
      "collected": 3965,
      "argue": 3966,
      "mosqui": 3967,
      "waving": 3968,
      "skull": 3969,
      "calls": 3970,
      "parent": 3971,
      "Have": 3972,
      "sna": 3973,
      "fireplace": 3974,
      "chirp": 3975,
      "weather": 3976,
      "urch": 3977,
      "igloo": 3978,
      "swamp": 3979,
      "eaten": 3980,
      "ws": 3981,
      "shoo": 3982,
      "sting": 3983,
      "since": 3984,
      "cabinet": 3985,
      "church": 3986,
      "blowing": 3987,
      "axe": 3988,
      "weeks": 3989,
      "umber": 3990,
      "glove": 3991,
      "meeting": 3992,
      "pas": 3993,
      "wipe": 3994,
      "zipper": 3995,
      "iv": 3996,
      "freez": 3997,
      "grin": 3998,
      "golden": 3999,
      "short": 4000,
      "surrend": 4001,
      "sneak": 4002,
      "shower": 4003,
      "cushion": 4004,
      "powder": 4005,
      "washer": 4006,
      "cable": 4007,
      "miles": 4008,
      "comed": 4009,
      "fishing": 4010,
      "maze": 4011,
      "reef": 4012,
      "knob": 4013,
      "glowing": 4014,
      "unpack": 4015,
      "medi": 4016,
      "God": 4017,
      "breeze": 4018,
      "invest": 4019,
      "plastic": 4020,
      "welcomed": 4021,
      "mm": 4022,
      "ason": 4023,
      "squirrels": 4024,
      "lime": 4025,
      "stamp": 4026,
      "served": 4027,
      "bouncing": 4028,
      "celebrated": 4029,
      "angu": 4030,
      "slipper": 4031,
      "Iâ": 4032,
      "vision": 4033,
      "itâ": 4034,
      "incre": 4035,
      "slippery": 4036,
      "fisher": 4037,
      "ox": 4038,
      "sunglasses": 4039,
      "langu": 4040,
      "popped": 4041,
      "baseball": 4042,
      "Zoe": 4043,
      "hanging": 4044,
      "greedy": 4045,
      "ceros": 4046,
      "kingdom": 4047,
      "lotion": 4048,
      "apart": 4049,
      "oking": 4050,
      "streng": 4051,
      "sniffed": 4052,
      "staff": 4053,
      "bury": 4054,
      "battery": 4055,
      "tol": 4056,
      "flapped": 4057,
      "oyster": 4058,
      "potato": 4059,
      "Sun": 4060,
      "wags": 4061,
      "superhero": 4062,
      "rooms": 4063,
      "shoulder": 4064,
      "novel": 4065,
      "yoga": 4066,
      "tress": 4067,
      "uniform": 4068,
      "strength": 4069,
      "istol": 4070,
      "dear": 4071,
      "fauce": 4072,
      "ceiling": 4073,
      "mystery": 4074,
      "trod": 4075,
      "buck": 4076,
      "introd": 4077,
      "una": 4078,
      "pistol": 4079,
      "surround": 4080,
      "chairs": 4081,
      "moves": 4082,
      "dishwasher": 4083,
      "anchor": 4084,
      "ilet": 4085,
      "ison": 4086,
      "fog": 4087,
      "toilet": 4088,
      "capt": 4089,
      "writing": 4090,
      "rhinoceros": 4091,
      "hopes": 4092,
      "burned": 4093,
      "possible": 4094,
      "True": 4095
    },
    "merges": [
      [
        "h",
        "e"
      ],
      [
        "a",
        "n"
      ],
      [
        "t",
        "he"
      ],
      [
        "e",
        "d"
      ],
      [
        "an",
        "d"
      ],
      [
        "t",
        "o"
      ],
      [
        "i",
        "n"
      ],
      [
        "r",
        "e"
      ],
      [
        "o",
        "u"
      ],
      [
        "w",
        "a"
      ],
      [
        "i",
        "t"
      ],
      [
        "h",
        "a"
      ],
      [
        "e",
        "r"
      ],
      [
        "wa",
        "s"
      ],
      [
        "o",
        "m"
      ],
      [
        "e",
        "n"
      ],
      [
        "o",
        "n"
      ],
      [
        "a",
        "r"
      ],
      [
        "T",
        "he"
      ],
      [
        "i",
        "s"
      ],
      [
        "in",
        "g"
      ],
      [
        "i",
        "l"
      ],
      [
        "s",
        "a"
      ],
      [
        "i",
        "d"
      ],
      [
        "l",
        "e"
      ],
      [
        "a",
        "y"
      ],
      [
        "i",
        "m"
      ],
      [
        "l",
        "o"
      ],
      [
        "a",
        "l"
      ],
      [
        "s",
        "t"
      ],
      [
        "o",
        "r"
      ],
      [
        "he",
        "r"
      ],
      [
        "H",
        "e"
      ],
      [
        "S",
        "he"
      ],
      [
        "i",
        "r"
      ],
      [
        "t",
        "h"
      ],
      [
        "The",
        "y"
      ],
      [
        "b",
        "e"
      ],
      [
        "n",
        "e"
      ],
      [
        "ha",
        "t"
      ],
      [
        "v",
        "er"
      ],
      [
        "u",
        "t"
      ],
      [
        "s",
        "e"
      ],
      [
        "k",
        "e"
      ],
      [
        "a",
        "t"
      ],
      [
        "n",
        "o"
      ],
      [
        "c",
        "k"
      ],
      [
        "c",
        "e"
      ],
      [
        "l",
        "d"
      ],
      [
        "a",
        "m"
      ],
      [
        "sa",
        "id"
      ],
      [
        "v",
        "e"
      ],
      [
        "r",
        "i"
      ],
      [
        "il",
        "y"
      ],
      [
        "s",
        "he"
      ],
      [
        "p",
        "l"
      ],
      [
        "o",
        "f"
      ],
      [
        "it",
        "h"
      ],
      [
        "p",
        "p"
      ],
      [
        "a",
        "d"
      ],
      [
        "w",
        "ith"
      ],
      [
        "i",
        "g"
      ],
      [
        "h",
        "is"
      ],
      [
        "L",
        "ily"
      ],
      [
        "u",
        "n"
      ],
      [
        "y",
        "ou"
      ],
      [
        "k",
        "ed"
      ],
      [
        "s",
        "o"
      ],
      [
        "d",
        "ay"
      ],
      [
        "l",
        "y"
      ],
      [
        "w",
        "e"
      ],
      [
        "ver",
        "y"
      ],
      [
        "l",
        "i"
      ],
      [
        "om",
        "e"
      ],
      [
        "t",
        "hat"
      ],
      [
        "o",
        "w"
      ],
      [
        "g",
        "o"
      ],
      [
        "m",
        "y"
      ],
      [
        "u",
        "p"
      ],
      [
        "e",
        "s"
      ],
      [
        "an",
        "t"
      ],
      [
        "c",
        "h"
      ],
      [
        "a",
        "s"
      ],
      [
        "ha",
        "d"
      ],
      [
        "pl",
        "ay"
      ],
      [
        "f",
        "or"
      ],
      [
        "the",
        "y"
      ],
      [
        "e",
        "l"
      ],
      [
        "m",
        "om"
      ],
      [
        "n",
        "d"
      ],
      [
        "ou",
        "ld"
      ],
      [
        "al",
        "l"
      ],
      [
        "en",
        "d"
      ],
      [
        "b",
        "o"
      ],
      [
        "ha",
        "pp"
      ],
      [
        "a",
        "re"
      ],
      [
        "en",
        "t"
      ],
      [
        "w",
        "ant"
      ],
      [
        "o",
        "k"
      ],
      [
        "g",
        "e"
      ],
      [
        "it",
        "t"
      ],
      [
        "I",
        "t"
      ],
      [
        "t",
        "im"
      ],
      [
        "d",
        "o"
      ],
      [
        "ou",
        "t"
      ],
      [
        "no",
        "t"
      ],
      [
        "r",
        "o"
      ],
      [
        "ou",
        "nd"
      ],
      [
        "the",
        "r"
      ],
      [
        "itt",
        "le"
      ],
      [
        "tim",
        "e"
      ],
      [
        "r",
        "y"
      ],
      [
        "l",
        "ittle"
      ],
      [
        "the",
        "re"
      ],
      [
        "h",
        "t"
      ],
      [
        "r",
        "a"
      ],
      [
        "s",
        "h"
      ],
      [
        "happ",
        "y"
      ],
      [
        "b",
        "ig"
      ],
      [
        "s",
        "m"
      ],
      [
        "y",
        "s"
      ],
      [
        "b",
        "ut"
      ],
      [
        "a",
        "ke"
      ],
      [
        "f",
        "ri"
      ],
      [
        "sa",
        "w"
      ],
      [
        ".",
        "\""
      ],
      [
        "fri",
        "end"
      ],
      [
        "t",
        "er"
      ],
      [
        "a",
        "ck"
      ],
      [
        "th",
        "ing"
      ],
      [
        "u",
        "l"
      ],
      [
        "s",
        "ome"
      ],
      [
        "id",
        "e"
      ],
      [
        "O",
        "ne"
      ],
      [
        "on",
        "e"
      ],
      [
        "T",
        "im"
      ],
      [
        "!",
        "\""
      ],
      [
        "u",
        "g"
      ],
      [
        "O",
        "n"
      ],
      [
        "we",
        "re"
      ],
      [
        "v",
        "ed"
      ],
      [
        "On",
        "ce"
      ],
      [
        "h",
        "o"
      ],
      [
        "c",
        "ar"
      ],
      [
        "h",
        "im"
      ],
      [
        "f",
        "e"
      ],
      [
        "T",
        "om"
      ],
      [
        "p",
        "e"
      ],
      [
        "ir",
        "l"
      ],
      [
        "want",
        "ed"
      ],
      [
        "the",
        "m"
      ],
      [
        "B",
        "en"
      ],
      [
        "g",
        "irl"
      ],
      [
        "up",
        "on"
      ],
      [
        "f",
        "ul"
      ],
      [
        "u",
        "r"
      ],
      [
        "il",
        "l"
      ],
      [
        "the",
        "ir"
      ],
      [
        "in",
        "d"
      ],
      [
        "a",
        "g"
      ],
      [
        "d",
        "id"
      ],
      [
        "c",
        "o"
      ],
      [
        "m",
        "e"
      ],
      [
        "ha",
        "ve"
      ],
      [
        "sm",
        "il"
      ],
      [
        "c",
        "ould"
      ],
      [
        "m",
        "o"
      ],
      [
        "e",
        "x"
      ],
      [
        "he",
        "n"
      ],
      [
        "c",
        "an"
      ],
      [
        "B",
        "ut"
      ],
      [
        "r",
        "om"
      ],
      [
        "he",
        "l"
      ],
      [
        "w",
        "ent"
      ],
      [
        "t",
        "ed"
      ],
      [
        "o",
        "d"
      ],
      [
        "ne",
        "w"
      ],
      [
        "d",
        "e"
      ],
      [
        "?",
        "\""
      ],
      [
        "n",
        "am"
      ],
      [
        "u",
        "m"
      ],
      [
        "friend",
        "s"
      ],
      [
        "hel",
        "p"
      ],
      [
        "a",
        "b"
      ],
      [
        "he",
        "d"
      ],
      [
        "wa",
        "y"
      ],
      [
        "f",
        "el"
      ],
      [
        "b",
        "ack"
      ],
      [
        "m",
        "an"
      ],
      [
        "Y",
        "ou"
      ],
      [
        "a",
        "in"
      ],
      [
        "li",
        "ke"
      ],
      [
        "f",
        "un"
      ],
      [
        "f",
        "o"
      ],
      [
        "p",
        "ar"
      ],
      [
        "i",
        "c"
      ],
      [
        "r",
        "an"
      ],
      [
        "to",
        "o"
      ],
      [
        "s",
        "ide"
      ],
      [
        "g",
        "ht"
      ],
      [
        "p",
        "o"
      ],
      [
        "Tim",
        "my"
      ],
      [
        "st",
        "ar"
      ],
      [
        "smil",
        "ed"
      ],
      [
        "nam",
        "ed"
      ],
      [
        "lo",
        "ved"
      ],
      [
        "lo",
        "w"
      ],
      [
        "e",
        "t"
      ],
      [
        "lo",
        "o"
      ],
      [
        "M",
        "om"
      ],
      [
        "l",
        "a"
      ],
      [
        "as",
        "ked"
      ],
      [
        "se",
        "e"
      ],
      [
        "fel",
        "t"
      ],
      [
        "i",
        "ck"
      ],
      [
        "s",
        "to"
      ],
      [
        "ar",
        "d"
      ],
      [
        "loo",
        "ked"
      ],
      [
        "ow",
        "n"
      ],
      [
        "ar",
        "ound"
      ],
      [
        "am",
        "e"
      ],
      [
        "m",
        "ake"
      ],
      [
        "p",
        "r"
      ],
      [
        "u",
        "re"
      ],
      [
        "b",
        "ir"
      ],
      [
        "w",
        "ould"
      ],
      [
        "w",
        "or"
      ],
      [
        "f",
        "a"
      ],
      [
        "no",
        "w"
      ],
      [
        "on",
        "g"
      ],
      [
        "o",
        "ther"
      ],
      [
        "bo",
        "y"
      ],
      [
        "bir",
        "d"
      ],
      [
        "g",
        "r"
      ],
      [
        "l",
        "l"
      ],
      [
        "par",
        "k"
      ],
      [
        "i",
        "ce"
      ],
      [
        "w",
        "hat"
      ],
      [
        "m",
        "ad"
      ],
      [
        "o",
        "p"
      ],
      [
        ",",
        "\""
      ],
      [
        "t",
        "re"
      ],
      [
        "sa",
        "ys"
      ],
      [
        "a",
        "way"
      ],
      [
        "c",
        "a"
      ],
      [
        "ge",
        "ther"
      ],
      [
        "s",
        "s"
      ],
      [
        "d",
        "d"
      ],
      [
        "star",
        "ted"
      ],
      [
        "ou",
        "d"
      ],
      [
        "t",
        "s"
      ],
      [
        "n",
        "a"
      ],
      [
        "mad",
        "e"
      ],
      [
        "ig",
        "ht"
      ],
      [
        "c",
        "ame"
      ],
      [
        "some",
        "thing"
      ],
      [
        "to",
        "gether"
      ],
      [
        "lo",
        "ok"
      ],
      [
        "it",
        "ed"
      ],
      [
        "p",
        "ut"
      ],
      [
        "a",
        "ch"
      ],
      [
        "sa",
        "d"
      ],
      [
        "f",
        "rom"
      ],
      [
        "ge",
        "t"
      ],
      [
        "go",
        "t"
      ],
      [
        "s",
        "car"
      ],
      [
        "ex",
        "c"
      ],
      [
        "m",
        "u"
      ],
      [
        "i",
        "f"
      ],
      [
        "ag",
        "ain"
      ],
      [
        "i",
        "e"
      ],
      [
        "u",
        "e"
      ],
      [
        "h",
        "ome"
      ],
      [
        "go",
        "od"
      ],
      [
        "w",
        "ho"
      ],
      [
        "wa",
        "l"
      ],
      [
        "ri",
        "ed"
      ],
      [
        "the",
        "n"
      ],
      [
        "f",
        "ound"
      ],
      [
        "mo",
        "re"
      ],
      [
        "pp",
        "ed"
      ],
      [
        "de",
        "c"
      ],
      [
        "h",
        "ug"
      ],
      [
        "e",
        "p"
      ],
      [
        "w",
        "hen"
      ],
      [
        "k",
        "ing"
      ],
      [
        "c",
        "i"
      ],
      [
        "play",
        "ing"
      ],
      [
        "ou",
        "ght"
      ],
      [
        "a",
        "ve"
      ],
      [
        "S",
        "am"
      ],
      [
        "b",
        "y"
      ],
      [
        "al",
        "ly"
      ],
      [
        "r",
        "u"
      ],
      [
        "thing",
        "s"
      ],
      [
        "A",
        "n"
      ],
      [
        "li",
        "ked"
      ],
      [
        "exc",
        "ited"
      ],
      [
        "ar",
        "a"
      ],
      [
        "d",
        "er"
      ],
      [
        "u",
        "s"
      ],
      [
        "ou",
        "s"
      ],
      [
        "id",
        "ed"
      ],
      [
        "e",
        "very"
      ],
      [
        "ou",
        "se"
      ],
      [
        "n",
        "y"
      ],
      [
        "dec",
        "ided"
      ],
      [
        "you",
        "r"
      ],
      [
        "do",
        "g"
      ],
      [
        "c",
        "are"
      ],
      [
        "scar",
        "ed"
      ],
      [
        "u",
        "se"
      ],
      [
        "th",
        "an"
      ],
      [
        "f",
        "ind"
      ],
      [
        "d",
        "own"
      ],
      [
        "s",
        "ha"
      ],
      [
        "W",
        "e"
      ],
      [
        "p",
        "re"
      ],
      [
        "a",
        "x"
      ],
      [
        "t",
        "ake"
      ],
      [
        "a",
        "c"
      ],
      [
        "S",
        "ara"
      ],
      [
        "ou",
        "r"
      ],
      [
        "An",
        "na"
      ],
      [
        "at",
        "e"
      ],
      [
        "an",
        "g"
      ],
      [
        "w",
        "ill"
      ],
      [
        "s",
        "pe"
      ],
      [
        "ar",
        "n"
      ],
      [
        "fe",
        "el"
      ],
      [
        "j",
        "o"
      ],
      [
        "w",
        "o"
      ],
      [
        "d",
        "ad"
      ],
      [
        "wa",
        "ys"
      ],
      [
        "u",
        "dd"
      ],
      [
        "M",
        "ax"
      ],
      [
        "c",
        "lo"
      ],
      [
        "he",
        "re"
      ],
      [
        "er",
        "s"
      ],
      [
        "q",
        "u"
      ],
      [
        "to",
        "ok"
      ],
      [
        "did",
        "n"
      ],
      [
        "b",
        "b"
      ],
      [
        "ab",
        "out"
      ],
      [
        "al",
        "ways"
      ],
      [
        "t",
        "e"
      ],
      [
        "to",
        "ys"
      ],
      [
        "m",
        "a"
      ],
      [
        "i",
        "ve"
      ],
      [
        "it",
        "e"
      ],
      [
        "k",
        "now"
      ],
      [
        "is",
        "e"
      ],
      [
        "S",
        "o"
      ],
      [
        "o",
        "ld"
      ],
      [
        "mom",
        "my"
      ],
      [
        "s",
        "or"
      ],
      [
        "le",
        "arn"
      ],
      [
        "tre",
        "e"
      ],
      [
        "th",
        "ought"
      ],
      [
        "out",
        "side"
      ],
      [
        "u",
        "st"
      ],
      [
        "en",
        "ed"
      ],
      [
        "w",
        "h"
      ],
      [
        "ro",
        "om"
      ],
      [
        "c",
        "at"
      ],
      [
        "fo",
        "re"
      ],
      [
        "t",
        "y"
      ],
      [
        "J",
        "o"
      ],
      [
        "b",
        "all"
      ],
      [
        "la",
        "ug"
      ],
      [
        "spe",
        "ci"
      ],
      [
        "speci",
        "al"
      ],
      [
        "r",
        "ed"
      ],
      [
        "r",
        "un"
      ],
      [
        "an",
        "y"
      ],
      [
        "W",
        "hen"
      ],
      [
        "p",
        "a"
      ],
      [
        "g",
        "ed"
      ],
      [
        "k",
        "new"
      ],
      [
        "b",
        "u"
      ],
      [
        "udd",
        "en"
      ],
      [
        "c",
        "ome"
      ],
      [
        "h",
        "ow"
      ],
      [
        "is",
        "h"
      ],
      [
        "h",
        "ouse"
      ],
      [
        "in",
        "k"
      ],
      [
        "f",
        "ter"
      ],
      [
        "H",
        "er"
      ],
      [
        "b",
        "r"
      ],
      [
        "ne",
        "ver"
      ],
      [
        "to",
        "y"
      ],
      [
        "o",
        "l"
      ],
      [
        "udden",
        "ly"
      ],
      [
        "is",
        "t"
      ],
      [
        "l",
        "f"
      ],
      [
        "sor",
        "ry"
      ],
      [
        "sh",
        "ow"
      ],
      [
        "i",
        "a"
      ],
      [
        "mu",
        "ch"
      ],
      [
        "r",
        "d"
      ],
      [
        "s",
        "w"
      ],
      [
        "b",
        "l"
      ],
      [
        "c",
        "re"
      ],
      [
        "d",
        "re"
      ],
      [
        "J",
        "ack"
      ],
      [
        "E",
        "very"
      ],
      [
        "h",
        "and"
      ],
      [
        "care",
        "ful"
      ],
      [
        "c",
        "le"
      ],
      [
        "ab",
        "le"
      ],
      [
        "v",
        "en"
      ],
      [
        "e",
        "ach"
      ],
      [
        "g",
        "ave"
      ],
      [
        "s",
        "k"
      ],
      [
        "l",
        "ong"
      ],
      [
        "c",
        "l"
      ],
      [
        "wa",
        "ter"
      ],
      [
        "bo",
        "x"
      ],
      [
        "s",
        "un"
      ],
      [
        "in",
        "to"
      ],
      [
        "t",
        "ried"
      ],
      [
        "t",
        "a"
      ],
      [
        "in",
        "side"
      ],
      [
        "th",
        "is"
      ],
      [
        "e",
        "ar"
      ],
      [
        "to",
        "ld"
      ],
      [
        "o",
        "ver"
      ],
      [
        "s",
        "p"
      ],
      [
        "pr",
        "oud"
      ],
      [
        "he",
        "ard"
      ],
      [
        "t",
        "ter"
      ],
      [
        "e",
        "at"
      ],
      [
        "could",
        "n"
      ],
      [
        "lo",
        "ve"
      ],
      [
        "i",
        "on"
      ],
      [
        "L",
        "et"
      ],
      [
        "M",
        "ia"
      ],
      [
        "g",
        "re"
      ],
      [
        "man",
        "y"
      ],
      [
        "d",
        "y"
      ],
      [
        "um",
        "p"
      ],
      [
        "The",
        "n"
      ],
      [
        "pre",
        "t"
      ],
      [
        "p",
        "ick"
      ],
      [
        "l",
        "ed"
      ],
      [
        "ca",
        "use"
      ],
      [
        "play",
        "ed"
      ],
      [
        "S",
        "uddenly"
      ],
      [
        "c",
        "he"
      ],
      [
        "j",
        "ust"
      ],
      [
        "ne",
        "ed"
      ],
      [
        "hug",
        "ged"
      ],
      [
        "c",
        "t"
      ],
      [
        "of",
        "f"
      ],
      [
        "c",
        "om"
      ],
      [
        "wa",
        "t"
      ],
      [
        "ri",
        "ght"
      ],
      [
        "un",
        "t"
      ],
      [
        "A",
        "nd"
      ],
      [
        "be",
        "cause"
      ],
      [
        "n",
        "ice"
      ],
      [
        "p",
        "er"
      ],
      [
        "u",
        "c"
      ],
      [
        "f",
        "ly"
      ],
      [
        "F",
        "rom"
      ],
      [
        "f",
        "low"
      ],
      [
        "po",
        "t"
      ],
      [
        "il",
        "e"
      ],
      [
        "b",
        "er"
      ],
      [
        "H",
        "is"
      ],
      [
        "T",
        "hat"
      ],
      [
        "t",
        "ry"
      ],
      [
        "v",
        "ing"
      ],
      [
        "i",
        "z"
      ],
      [
        "sm",
        "all"
      ],
      [
        "re",
        "ad"
      ],
      [
        "in",
        "e"
      ],
      [
        "u",
        "ck"
      ],
      [
        "im",
        "al"
      ],
      [
        "an",
        "imal"
      ],
      [
        "be",
        "ar"
      ],
      [
        "l",
        "ad"
      ],
      [
        "ou",
        "g"
      ],
      [
        "oug",
        "h"
      ],
      [
        "ra",
        "bb"
      ],
      [
        "it",
        "s"
      ],
      [
        "ex",
        "p"
      ],
      [
        "learn",
        "ed"
      ],
      [
        "unt",
        "il"
      ],
      [
        "se",
        "lf"
      ],
      [
        "b",
        "ed"
      ],
      [
        "fa",
        "st"
      ],
      [
        "k",
        "ind"
      ],
      [
        "ke",
        "t"
      ],
      [
        "be",
        "a"
      ],
      [
        "be",
        "tter"
      ],
      [
        "d",
        "on"
      ],
      [
        "c",
        "all"
      ],
      [
        "as",
        "s"
      ],
      [
        "ur",
        "n"
      ],
      [
        "v",
        "ent"
      ],
      [
        "sa",
        "y"
      ],
      [
        "W",
        "hat"
      ],
      [
        "be",
        "st"
      ],
      [
        "h",
        "ur"
      ],
      [
        "f",
        "i"
      ],
      [
        "b",
        "ra"
      ],
      [
        "Y",
        "es"
      ],
      [
        "w",
        "here"
      ],
      [
        "n",
        "t"
      ],
      [
        "ard",
        "en"
      ],
      [
        "g",
        "arden"
      ],
      [
        "exp",
        "lo"
      ],
      [
        "le",
        "t"
      ],
      [
        "bea",
        "ut"
      ],
      [
        "f",
        "le"
      ],
      [
        "Mom",
        "my"
      ],
      [
        "than",
        "ked"
      ],
      [
        "e",
        "ven"
      ],
      [
        "p",
        "t"
      ],
      [
        "sk",
        "y"
      ],
      [
        "j",
        "ump"
      ],
      [
        "ha",
        "s"
      ],
      [
        "el",
        "l"
      ],
      [
        "sa",
        "fe"
      ],
      [
        "laug",
        "hed"
      ],
      [
        "y",
        "es"
      ],
      [
        "l",
        "oud"
      ],
      [
        "un",
        "der"
      ],
      [
        "g",
        "ive"
      ],
      [
        "a",
        "ce"
      ],
      [
        "l",
        "ist"
      ],
      [
        "in",
        "y"
      ],
      [
        "s",
        "ur"
      ],
      [
        "an",
        "k"
      ],
      [
        "C",
        "an"
      ],
      [
        "i",
        "ful"
      ],
      [
        "c",
        "hed"
      ],
      [
        "beaut",
        "iful"
      ],
      [
        "jo",
        "y"
      ],
      [
        "r",
        "ong"
      ],
      [
        "animal",
        "s"
      ],
      [
        "f",
        "am"
      ],
      [
        "st",
        "ill"
      ],
      [
        "am",
        "a"
      ],
      [
        "lo",
        "ts"
      ],
      [
        "bo",
        "ok"
      ],
      [
        "n",
        "ing"
      ],
      [
        "ra",
        "in"
      ],
      [
        "re",
        "e"
      ],
      [
        "Jo",
        "h"
      ],
      [
        "T",
        "h"
      ],
      [
        "st",
        "ay"
      ],
      [
        "w",
        "on"
      ],
      [
        "Joh",
        "n"
      ],
      [
        "t",
        "urn"
      ],
      [
        "bo",
        "th"
      ],
      [
        "b",
        "le"
      ],
      [
        "N",
        "o"
      ],
      [
        "t",
        "wo"
      ],
      [
        "p",
        "u"
      ],
      [
        "ck",
        "s"
      ],
      [
        "op",
        "le"
      ],
      [
        "b",
        "ad"
      ],
      [
        "f",
        "in"
      ],
      [
        "ha",
        "rd"
      ],
      [
        "B",
        "o"
      ],
      [
        "le",
        "a"
      ],
      [
        "a",
        "pp"
      ],
      [
        "hur",
        "t"
      ],
      [
        "t",
        "ru"
      ],
      [
        "c",
        "on"
      ],
      [
        "A",
        "s"
      ],
      [
        "pe",
        "ople"
      ],
      [
        "Th",
        "ank"
      ],
      [
        "li",
        "ved"
      ],
      [
        "ke",
        "ep"
      ],
      [
        "sh",
        "ould"
      ],
      [
        "gr",
        "ound"
      ],
      [
        "bra",
        "ve"
      ],
      [
        "ang",
        "ry"
      ],
      [
        "ig",
        "h"
      ],
      [
        "L",
        "uc"
      ],
      [
        "Luc",
        "y"
      ],
      [
        "wal",
        "ked"
      ],
      [
        "is",
        "hed"
      ],
      [
        "fle",
        "w"
      ],
      [
        "fam",
        "ily"
      ],
      [
        "A",
        "fter"
      ],
      [
        "or",
        "t"
      ],
      [
        "sur",
        "pr"
      ],
      [
        "r",
        "m"
      ],
      [
        "t",
        "al"
      ],
      [
        "call",
        "ed"
      ],
      [
        "so",
        "on"
      ],
      [
        "o",
        "ok"
      ],
      [
        "do",
        "or"
      ],
      [
        "D",
        "ad"
      ],
      [
        "ar",
        "m"
      ],
      [
        "sha",
        "re"
      ],
      [
        "re",
        "al"
      ],
      [
        "ke",
        "pt"
      ],
      [
        "p",
        "ic"
      ],
      [
        "is",
        "ed"
      ],
      [
        "t",
        "ing"
      ],
      [
        "s",
        "l"
      ],
      [
        "im",
        "p"
      ],
      [
        "s",
        "er"
      ],
      [
        "cle",
        "an"
      ],
      [
        "go",
        "ing"
      ],
      [
        "lo",
        "t"
      ],
      [
        "do",
        "ll"
      ],
      [
        "pret",
        "ty"
      ],
      [
        "an",
        "e"
      ],
      [
        "le",
        "s"
      ],
      [
        "b",
        "ro"
      ],
      [
        "no",
        "ise"
      ],
      [
        "c",
        "u"
      ],
      [
        "sh",
        "iny"
      ],
      [
        "st",
        "e"
      ],
      [
        "be",
        "fore"
      ],
      [
        "w",
        "ind"
      ],
      [
        "op",
        "ened"
      ],
      [
        "um",
        "my"
      ],
      [
        "c",
        "ry"
      ],
      [
        "ad",
        "vent"
      ],
      [
        "m",
        "or"
      ],
      [
        "pl",
        "ace"
      ],
      [
        "il",
        "ly"
      ],
      [
        "al",
        "so"
      ],
      [
        "feel",
        "ing"
      ],
      [
        "explo",
        "re"
      ],
      [
        "d",
        "ra"
      ],
      [
        "il",
        "d"
      ],
      [
        "li",
        "e"
      ],
      [
        "Bo",
        "b"
      ],
      [
        "co",
        "lo"
      ],
      [
        "ne",
        "x"
      ],
      [
        "no",
        "dd"
      ],
      [
        "f",
        "ish"
      ],
      [
        "ide",
        "a"
      ],
      [
        "nodd",
        "ed"
      ],
      [
        "i",
        "es"
      ],
      [
        "€",
        "™"
      ],
      [
        "i",
        "ed"
      ],
      [
        "he",
        "ar"
      ],
      [
        "colo",
        "r"
      ],
      [
        "nex",
        "t"
      ],
      [
        "as",
        "k"
      ],
      [
        "pick",
        "ed"
      ],
      [
        "he",
        "ad"
      ],
      [
        "wor",
        "k"
      ],
      [
        "fa",
        "ce"
      ],
      [
        "se",
        "t"
      ],
      [
        "wh",
        "ile"
      ],
      [
        "cl",
        "im"
      ],
      [
        "u",
        "ch"
      ],
      [
        "le",
        "ss"
      ],
      [
        "wal",
        "king"
      ],
      [
        "ar",
        "k"
      ],
      [
        "t",
        "ure"
      ],
      [
        "th",
        "r"
      ],
      [
        "smil",
        "e"
      ],
      [
        "ay",
        "be"
      ],
      [
        "a",
        "k"
      ],
      [
        "advent",
        "ure"
      ],
      [
        "be",
        "ing"
      ],
      [
        "m",
        "ber"
      ],
      [
        "ha",
        "ir"
      ],
      [
        "fo",
        "od"
      ],
      [
        "d",
        "if"
      ],
      [
        "look",
        "ing"
      ],
      [
        "pic",
        "ture"
      ],
      [
        "ic",
        "ed"
      ],
      [
        "y",
        "ear"
      ],
      [
        "th",
        "ink"
      ],
      [
        "e",
        "ver"
      ],
      [
        "us",
        "ed"
      ],
      [
        "n",
        "ight"
      ],
      [
        "wal",
        "k"
      ],
      [
        "list",
        "en"
      ],
      [
        "a",
        "fter"
      ],
      [
        "ug",
        "ht"
      ],
      [
        "e",
        "yes"
      ],
      [
        "D",
        "o"
      ],
      [
        "ir",
        "st"
      ],
      [
        "es",
        "s"
      ],
      [
        "sto",
        "pped"
      ],
      [
        "flow",
        "ers"
      ],
      [
        "v",
        "o"
      ],
      [
        "b",
        "lo"
      ],
      [
        "ri",
        "es"
      ],
      [
        "S",
        "pot"
      ],
      [
        "me",
        "mber"
      ],
      [
        "m",
        "on"
      ],
      [
        "bl",
        "ue"
      ],
      [
        "sh",
        "out"
      ],
      [
        "we",
        "et"
      ],
      [
        "S",
        "ue"
      ],
      [
        "won",
        "der"
      ],
      [
        "gre",
        "at"
      ],
      [
        "d",
        "is"
      ],
      [
        "wa",
        "it"
      ],
      [
        "en",
        "joy"
      ],
      [
        "r",
        "ing"
      ],
      [
        "me",
        "an"
      ],
      [
        "re",
        "pl"
      ],
      [
        "ne",
        "ar"
      ],
      [
        "iz",
        "ed"
      ],
      [
        "hand",
        "s"
      ],
      [
        "imp",
        "ort"
      ],
      [
        "not",
        "iced"
      ],
      [
        "L",
        "ook"
      ],
      [
        "sl",
        "ide"
      ],
      [
        "fore",
        "st"
      ],
      [
        "by",
        "e"
      ],
      [
        "qu",
        "ick"
      ],
      [
        "ch",
        "o"
      ],
      [
        "sh",
        "o"
      ],
      [
        "re",
        "member"
      ],
      [
        "s",
        "ound"
      ],
      [
        "wat",
        "ch"
      ],
      [
        "T",
        "his"
      ],
      [
        "lea",
        "se"
      ],
      [
        "i",
        "p"
      ],
      [
        "st",
        "ick"
      ],
      [
        "import",
        "ant"
      ],
      [
        "ama",
        "z"
      ],
      [
        "co",
        "ok"
      ],
      [
        "le",
        "ave"
      ],
      [
        "c",
        "ake"
      ],
      [
        "ok",
        "ay"
      ],
      [
        "to",
        "p"
      ],
      [
        "t",
        "ell"
      ],
      [
        "fe",
        "re"
      ],
      [
        "tru",
        "ck"
      ],
      [
        "s",
        "ing"
      ],
      [
        "show",
        "ed"
      ],
      [
        "dif",
        "fere"
      ],
      [
        "do",
        "es"
      ],
      [
        "bo",
        "at"
      ],
      [
        "l",
        "low"
      ],
      [
        "g",
        "an"
      ],
      [
        "re",
        "st"
      ],
      [
        "repl",
        "ied"
      ],
      [
        "cre",
        "am"
      ],
      [
        "b",
        "right"
      ],
      [
        "vo",
        "ice"
      ],
      [
        "c",
        "ou"
      ],
      [
        "sto",
        "re"
      ],
      [
        "sw",
        "ing"
      ],
      [
        "fo",
        "llow"
      ],
      [
        "p",
        "ul"
      ],
      [
        "every",
        "one"
      ],
      [
        "Sara",
        "h"
      ],
      [
        "wat",
        "ched"
      ],
      [
        "to",
        "r"
      ],
      [
        "b",
        "ow"
      ],
      [
        "s",
        "n"
      ],
      [
        "M",
        "aybe"
      ],
      [
        "st",
        "rong"
      ],
      [
        "be",
        "en"
      ],
      [
        "s",
        "ure"
      ],
      [
        "quick",
        "ly"
      ],
      [
        "st",
        "and"
      ],
      [
        "n",
        "er"
      ],
      [
        "differe",
        "nt"
      ],
      [
        "cu",
        "ri"
      ],
      [
        "rabb",
        "it"
      ],
      [
        "t",
        "w"
      ],
      [
        "J",
        "ane"
      ],
      [
        "wa",
        "rd"
      ],
      [
        "m",
        "ag"
      ],
      [
        "be",
        "came"
      ],
      [
        "good",
        "bye"
      ],
      [
        "p",
        "h"
      ],
      [
        "b",
        "re"
      ],
      [
        "of",
        "t"
      ],
      [
        "h",
        "igh"
      ],
      [
        "il",
        "a"
      ],
      [
        "clo",
        "ser"
      ],
      [
        "an",
        "ce"
      ],
      [
        "f",
        "f"
      ],
      [
        "p",
        "ie"
      ],
      [
        "wa",
        "rm"
      ],
      [
        "un",
        "g"
      ],
      [
        "f",
        "irst"
      ],
      [
        "m",
        "is"
      ],
      [
        "th",
        "ree"
      ],
      [
        "laug",
        "h"
      ],
      [
        "curi",
        "ous"
      ],
      [
        "L",
        "ila"
      ],
      [
        "dre",
        "ss"
      ],
      [
        "and",
        "ma"
      ],
      [
        "un",
        "ny"
      ],
      [
        "tim",
        "es"
      ],
      [
        "Jo",
        "e"
      ],
      [
        "I",
        "n"
      ],
      [
        "le",
        "ep"
      ],
      [
        "any",
        "more"
      ],
      [
        "op",
        "en"
      ],
      [
        "on",
        "d"
      ],
      [
        "read",
        "y"
      ],
      [
        "fa",
        "v"
      ],
      [
        "f",
        "lo"
      ],
      [
        "f",
        "t"
      ],
      [
        "p",
        "ain"
      ],
      [
        "g",
        "rabb"
      ],
      [
        "flow",
        "er"
      ],
      [
        "ac",
        "hed"
      ],
      [
        "s",
        "qu"
      ],
      [
        "ir",
        "ed"
      ],
      [
        "l",
        "ight"
      ],
      [
        "on",
        "ly"
      ],
      [
        "k",
        "id"
      ],
      [
        "to",
        "w"
      ],
      [
        "k",
        "it"
      ],
      [
        "grabb",
        "ed"
      ],
      [
        "b",
        "it"
      ],
      [
        "y",
        "el"
      ],
      [
        "fel",
        "l"
      ],
      [
        "but",
        "ter"
      ],
      [
        "m",
        "ed"
      ],
      [
        "D",
        "on"
      ],
      [
        "t",
        "able"
      ],
      [
        "er",
        "ed"
      ],
      [
        "fi",
        "re"
      ],
      [
        "bird",
        "s"
      ],
      [
        "Every",
        "one"
      ],
      [
        "c",
        "ut"
      ],
      [
        "is",
        "y"
      ],
      [
        "He",
        "l"
      ],
      [
        "st",
        "er"
      ],
      [
        "s",
        "and"
      ],
      [
        "c",
        "hen"
      ],
      [
        "c",
        "r"
      ],
      [
        "p",
        "are"
      ],
      [
        "kit",
        "chen"
      ],
      [
        "d",
        "ro"
      ],
      [
        "de",
        "li"
      ],
      [
        "jump",
        "ed"
      ],
      [
        "sto",
        "p"
      ],
      [
        "t",
        "r"
      ],
      [
        "a",
        "ir"
      ],
      [
        "ro",
        "ck"
      ],
      [
        "help",
        "ed"
      ],
      [
        "c",
        "ket"
      ],
      [
        "con",
        "t"
      ],
      [
        "g",
        "lad"
      ],
      [
        "s",
        "ed"
      ],
      [
        "happ",
        "ened"
      ],
      [
        "se",
        "es"
      ],
      [
        "f",
        "l"
      ],
      [
        "as",
        "h"
      ],
      [
        "shout",
        "ed"
      ],
      [
        "ke",
        "y"
      ],
      [
        "bro",
        "ther"
      ],
      [
        "gr",
        "ass"
      ],
      [
        "I",
        "N"
      ],
      [
        "b",
        "al"
      ],
      [
        "re",
        "ached"
      ],
      [
        "sto",
        "ry"
      ],
      [
        "ha",
        "ving"
      ],
      [
        "Tom",
        "my"
      ],
      [
        "pie",
        "ce"
      ],
      [
        "she",
        "d"
      ],
      [
        "real",
        "ized"
      ],
      [
        "dra",
        "w"
      ],
      [
        "b",
        "unny"
      ],
      [
        "g",
        "ame"
      ],
      [
        "lad",
        "y"
      ],
      [
        "pr",
        "in"
      ],
      [
        "b",
        "or"
      ],
      [
        "y",
        "ummy"
      ],
      [
        "t",
        "ra"
      ],
      [
        "s",
        "weet"
      ],
      [
        "ar",
        "y"
      ],
      [
        "c",
        "ra"
      ],
      [
        "s",
        "oft"
      ],
      [
        "co",
        "l"
      ],
      [
        "thr",
        "ough"
      ],
      [
        "pret",
        "end"
      ],
      [
        "com",
        "ing"
      ],
      [
        "m",
        "um"
      ],
      [
        "fav",
        "or"
      ],
      [
        "q",
        "ue"
      ],
      [
        "d",
        "in"
      ],
      [
        "in",
        "s"
      ],
      [
        "The",
        "re"
      ],
      [
        "favor",
        "ite"
      ],
      [
        "z",
        "y"
      ],
      [
        "we",
        "l"
      ],
      [
        "d",
        "uck"
      ],
      [
        "look",
        "s"
      ],
      [
        "W",
        "h"
      ],
      [
        "ma",
        "king"
      ],
      [
        "re",
        "ally"
      ],
      [
        "N",
        "ow"
      ],
      [
        "mag",
        "ic"
      ],
      [
        "d",
        "one"
      ],
      [
        "car",
        "s"
      ],
      [
        "him",
        "self"
      ],
      [
        "wor",
        "ld"
      ],
      [
        "kid",
        "s"
      ],
      [
        "n",
        "ts"
      ],
      [
        "be",
        "gan"
      ],
      [
        "pa",
        "per"
      ],
      [
        "re",
        "l"
      ],
      [
        "at",
        "er"
      ],
      [
        "d",
        "s"
      ],
      [
        "i",
        "ke"
      ],
      [
        "one",
        "y"
      ],
      [
        "p",
        "rom"
      ],
      [
        "a",
        "ge"
      ],
      [
        "f",
        "ill"
      ],
      [
        "p",
        "ed"
      ],
      [
        "p",
        "ond"
      ],
      [
        "mo",
        "ve"
      ],
      [
        "on",
        "s"
      ],
      [
        "wh",
        "y"
      ],
      [
        "wa",
        "ved"
      ],
      [
        "f",
        "ro"
      ],
      [
        "to",
        "uch"
      ],
      [
        "t",
        "ired"
      ],
      [
        "W",
        "ow"
      ],
      [
        "ck",
        "ed"
      ],
      [
        "ol",
        "ly"
      ],
      [
        "fi",
        "x"
      ],
      [
        "pare",
        "nts"
      ],
      [
        "F",
        "in"
      ],
      [
        "p",
        "ro"
      ],
      [
        "b",
        "a"
      ],
      [
        "nam",
        "e"
      ],
      [
        "p",
        "le"
      ],
      [
        "cat",
        "ch"
      ],
      [
        "wor",
        "ry"
      ],
      [
        "than",
        "k"
      ],
      [
        "year",
        "s"
      ],
      [
        "fun",
        "ny"
      ],
      [
        "b",
        "ar"
      ],
      [
        "ho",
        "ld"
      ],
      [
        "m",
        "ouse"
      ],
      [
        "c",
        "ried"
      ],
      [
        "blo",
        "cks"
      ],
      [
        "an",
        "other"
      ],
      [
        "c",
        "or"
      ],
      [
        "co",
        "ld"
      ],
      [
        "gre",
        "en"
      ],
      [
        "se",
        "en"
      ],
      [
        "D",
        "a"
      ],
      [
        "g",
        "u"
      ],
      [
        "co",
        "ol"
      ],
      [
        "d",
        "ri"
      ],
      [
        "ho",
        "pped"
      ],
      [
        "f",
        "arm"
      ],
      [
        "st",
        "re"
      ],
      [
        "S",
        "ally"
      ],
      [
        "u",
        "ff"
      ],
      [
        "do",
        "ing"
      ],
      [
        "b",
        "ag"
      ],
      [
        "m",
        "ess"
      ],
      [
        "surpr",
        "ise"
      ],
      [
        "like",
        "s"
      ],
      [
        "at",
        "ion"
      ],
      [
        "clo",
        "se"
      ],
      [
        "flo",
        "or"
      ],
      [
        "sw",
        "im"
      ],
      [
        "turn",
        "ed"
      ],
      [
        "\"",
        "."
      ],
      [
        "h",
        "ind"
      ],
      [
        "an",
        "c"
      ],
      [
        "tre",
        "es"
      ],
      [
        "clim",
        "b"
      ],
      [
        "wind",
        "ow"
      ],
      [
        "wo",
        "od"
      ],
      [
        "w",
        "ished"
      ],
      [
        "less",
        "on"
      ],
      [
        "and",
        "y"
      ],
      [
        "ful",
        "l"
      ],
      [
        "pp",
        "y"
      ],
      [
        "g",
        "er"
      ],
      [
        "T",
        "o"
      ],
      [
        "be",
        "hind"
      ],
      [
        "run",
        "ning"
      ],
      [
        "d",
        "ark"
      ],
      [
        "sa",
        "t"
      ],
      [
        "wor",
        "ked"
      ],
      [
        "we",
        "ar"
      ],
      [
        "yel",
        "low"
      ],
      [
        "pe",
        "t"
      ],
      [
        "m",
        "ar"
      ],
      [
        "bu",
        "y"
      ],
      [
        "y",
        "ard"
      ],
      [
        "le",
        "ft"
      ],
      [
        "ho",
        "le"
      ],
      [
        "ab",
        "y"
      ],
      [
        "ig",
        "n"
      ],
      [
        "Da",
        "isy"
      ],
      [
        "s",
        "leep"
      ],
      [
        "J",
        "im"
      ],
      [
        "ca",
        "st"
      ],
      [
        "ra",
        "ce"
      ],
      [
        "fro",
        "g"
      ],
      [
        "happ",
        "ily"
      ],
      [
        "E",
        "m"
      ],
      [
        "surpr",
        "ised"
      ],
      [
        "s",
        "low"
      ],
      [
        "lo",
        "st"
      ],
      [
        "Hel",
        "lo"
      ],
      [
        "remember",
        "ed"
      ],
      [
        "A",
        "t"
      ],
      [
        "careful",
        "ly"
      ],
      [
        "he",
        "ld"
      ],
      [
        "Ben",
        "ny"
      ],
      [
        "t",
        "ri"
      ],
      [
        "ci",
        "ous"
      ],
      [
        "butter",
        "fly"
      ],
      [
        "<",
        "<"
      ],
      [
        ">",
        ">"
      ],
      [
        "f",
        "ar"
      ],
      [
        "need",
        "ed"
      ],
      [
        "c",
        "la"
      ],
      [
        "m",
        "in"
      ],
      [
        "ch",
        "il"
      ],
      [
        "dre",
        "n"
      ],
      [
        "fa",
        "ir"
      ],
      [
        "t",
        "le"
      ],
      [
        "chil",
        "dren"
      ],
      [
        "ar",
        "ri"
      ],
      [
        "any",
        "thing"
      ],
      [
        "enjoy",
        "ed"
      ],
      [
        "w",
        "rong"
      ],
      [
        "s",
        "pot"
      ],
      [
        "dre",
        "am"
      ],
      [
        "follow",
        "ed"
      ],
      [
        "B",
        "illy"
      ],
      [
        "re",
        "ed"
      ],
      [
        "b",
        "ug"
      ],
      [
        "bo",
        "t"
      ],
      [
        "st",
        "ran"
      ],
      [
        "p",
        "lease"
      ],
      [
        "en",
        "s"
      ],
      [
        "h",
        "ung"
      ],
      [
        "v",
        "is"
      ],
      [
        "Fin",
        "ally"
      ],
      [
        "h",
        "ill"
      ],
      [
        "friend",
        "ly"
      ],
      [
        "t",
        "all"
      ],
      [
        "fin",
        "ished"
      ],
      [
        "d",
        "ir"
      ],
      [
        "under",
        "stand"
      ],
      [
        "s",
        "now"
      ],
      [
        "ok",
        "en"
      ],
      [
        "ro",
        "ss"
      ],
      [
        "[",
        "/"
      ],
      [
        "e",
        "m"
      ],
      [
        "m",
        "ou"
      ],
      [
        "her",
        "self"
      ],
      [
        "ar",
        "t"
      ],
      [
        "deli",
        "cious"
      ],
      [
        "ho",
        "t"
      ],
      [
        "ing",
        "s"
      ],
      [
        "s",
        "po"
      ],
      [
        "h",
        "id"
      ],
      [
        "cont",
        "in"
      ],
      [
        "br",
        "oken"
      ],
      [
        "ag",
        "reed"
      ],
      [
        "m",
        "ight"
      ],
      [
        "o",
        "o"
      ],
      [
        "ce",
        "ss"
      ],
      [
        "el",
        "se"
      ],
      [
        "book",
        "s"
      ],
      [
        "M",
        "olly"
      ],
      [
        "for",
        "got"
      ],
      [
        "ie",
        "ld"
      ],
      [
        "u",
        "ed"
      ],
      [
        "color",
        "s"
      ],
      [
        "arri",
        "ved"
      ],
      [
        "m",
        "at"
      ],
      [
        "J",
        "en"
      ],
      [
        "g",
        "ent"
      ],
      [
        "i",
        "ent"
      ],
      [
        "want",
        "s"
      ],
      [
        "g",
        "l"
      ],
      [
        "A",
        "my"
      ],
      [
        "l",
        "and"
      ],
      [
        "bu",
        "ild"
      ],
      [
        "wonder",
        "ful"
      ],
      [
        "b",
        "aby"
      ],
      [
        "t",
        "ight"
      ],
      [
        "s",
        "it"
      ],
      [
        "mo",
        "st"
      ],
      [
        "s",
        "ong"
      ],
      [
        "fill",
        "ed"
      ],
      [
        "er",
        "ous"
      ],
      [
        "f",
        "r"
      ],
      [
        "as",
        "ure"
      ],
      [
        "g",
        "one"
      ],
      [
        "ward",
        "s"
      ],
      [
        "squ",
        "ir"
      ],
      [
        "a",
        "ther"
      ],
      [
        "ve",
        "s"
      ],
      [
        "p",
        "at"
      ],
      [
        "r",
        "ow"
      ],
      [
        "leave",
        "s"
      ],
      [
        "cre",
        "at"
      ],
      [
        "f",
        "ru"
      ],
      [
        "Wh",
        "y"
      ],
      [
        "O",
        "K"
      ],
      [
        "some",
        "one"
      ],
      [
        "c",
        "ha"
      ],
      [
        "f",
        "ight"
      ],
      [
        "cast",
        "le"
      ],
      [
        "G",
        "o"
      ],
      [
        "p",
        "ink"
      ],
      [
        "po",
        "in"
      ],
      [
        "mo",
        "ther"
      ],
      [
        "li",
        "on"
      ],
      [
        "squir",
        "rel"
      ],
      [
        "contin",
        "ued"
      ],
      [
        "get",
        "ting"
      ],
      [
        "G",
        "r"
      ],
      [
        "bre",
        "ak"
      ],
      [
        "f",
        "all"
      ],
      [
        "cook",
        "ies"
      ],
      [
        "en",
        "ough"
      ],
      [
        "mor",
        "ning"
      ],
      [
        "stay",
        "ed"
      ],
      [
        "j",
        "u"
      ],
      [
        "g",
        "on"
      ],
      [
        "mom",
        "ent"
      ],
      [
        "make",
        "s"
      ],
      [
        "fin",
        "ally"
      ],
      [
        "j",
        "e"
      ],
      [
        "p",
        "es"
      ],
      [
        "p",
        "ack"
      ],
      [
        "en",
        "ce"
      ],
      [
        "gr",
        "andma"
      ],
      [
        "ask",
        "s"
      ],
      [
        "hung",
        "ry"
      ],
      [
        "scar",
        "y"
      ],
      [
        "d",
        "r"
      ],
      [
        "to",
        "n"
      ],
      [
        "some",
        "times"
      ],
      [
        "w",
        "he"
      ],
      [
        "be",
        "ach"
      ],
      [
        "fe",
        "w"
      ],
      [
        "C",
        "ome"
      ],
      [
        "z",
        "e"
      ],
      [
        "try",
        "ing"
      ],
      [
        "we",
        "t"
      ],
      [
        "ta",
        "st"
      ],
      [
        "amaz",
        "ing"
      ],
      [
        "din",
        "ner"
      ],
      [
        "smil",
        "es"
      ],
      [
        "fe",
        "ct"
      ],
      [
        "clim",
        "bed"
      ],
      [
        "other",
        "s"
      ],
      [
        "ta",
        "il"
      ],
      [
        "co",
        "ver"
      ],
      [
        "list",
        "ened"
      ],
      [
        "ic",
        "y"
      ],
      [
        "tal",
        "k"
      ],
      [
        "picture",
        "s"
      ],
      [
        "o",
        "t"
      ],
      [
        "pl",
        "ain"
      ],
      [
        "jo",
        "in"
      ],
      [
        "wh",
        "ite"
      ],
      [
        "ro",
        "ll"
      ],
      [
        "k",
        "ay"
      ],
      [
        "J",
        "ill"
      ],
      [
        "mu",
        "s"
      ],
      [
        "per",
        "fect"
      ],
      [
        "f",
        "ur"
      ],
      [
        "bal",
        "lo"
      ],
      [
        "clo",
        "the"
      ],
      [
        "b",
        "ike"
      ],
      [
        "dad",
        "dy"
      ],
      [
        "b",
        "us"
      ],
      [
        "se",
        "s"
      ],
      [
        "pl",
        "an"
      ],
      [
        "clothe",
        "s"
      ],
      [
        "wa",
        "ll"
      ],
      [
        "a",
        "v"
      ],
      [
        "pu",
        "ppy"
      ],
      [
        "app",
        "ear"
      ],
      [
        "al",
        "one"
      ],
      [
        "i",
        "ous"
      ],
      [
        "s",
        "pl"
      ],
      [
        "ou",
        "p"
      ],
      [
        "O",
        "h"
      ],
      [
        "t",
        "rain"
      ],
      [
        "at",
        "ed"
      ],
      [
        "d",
        "ang"
      ],
      [
        "br",
        "ought"
      ],
      [
        "sa",
        "il"
      ],
      [
        "every",
        "thing"
      ],
      [
        "B",
        "e"
      ],
      [
        "was",
        "n"
      ],
      [
        "s",
        "park"
      ],
      [
        "stran",
        "ge"
      ],
      [
        "wood",
        "s"
      ],
      [
        "me",
        "t"
      ],
      [
        "pul",
        "led"
      ],
      [
        "r",
        "ide"
      ],
      [
        "p",
        "en"
      ],
      [
        "gr",
        "ow"
      ],
      [
        "se",
        "ar"
      ],
      [
        "de",
        "ep"
      ],
      [
        "p",
        "ur"
      ],
      [
        "o",
        "se"
      ],
      [
        "pp",
        "ing"
      ],
      [
        "m",
        "i"
      ],
      [
        "an",
        "ge"
      ],
      [
        "uff",
        "y"
      ],
      [
        "wa",
        "ited"
      ],
      [
        "p",
        "s"
      ],
      [
        "h",
        "or"
      ],
      [
        "S",
        "ome"
      ],
      [
        "h",
        "ide"
      ],
      [
        "M",
        "ama"
      ],
      [
        "m",
        "oney"
      ],
      [
        "uck",
        "y"
      ],
      [
        "a",
        "f"
      ],
      [
        "g",
        "i"
      ],
      [
        "tre",
        "at"
      ],
      [
        "So",
        "on"
      ],
      [
        "fo",
        "x"
      ],
      [
        "am",
        "es"
      ],
      [
        "p",
        "ers"
      ],
      [
        "z",
        "z"
      ],
      [
        "amaz",
        "ed"
      ],
      [
        "w",
        "his"
      ],
      [
        "run",
        "s"
      ],
      [
        "mus",
        "ic"
      ],
      [
        "ted",
        "dy"
      ],
      [
        "d",
        "anc"
      ],
      [
        "th",
        "y"
      ],
      [
        "Dad",
        "dy"
      ],
      [
        "ba",
        "th"
      ],
      [
        "to",
        "wards"
      ],
      [
        "s",
        "is"
      ],
      [
        "f",
        "ield"
      ],
      [
        "A",
        "ll"
      ],
      [
        "s",
        "illy"
      ],
      [
        "li",
        "ving"
      ],
      [
        "think",
        "s"
      ],
      [
        "cl",
        "oud"
      ],
      [
        "c",
        "up"
      ],
      [
        "g",
        "s"
      ],
      [
        "fly",
        "ing"
      ],
      [
        "piece",
        "s"
      ],
      [
        "sha",
        "red"
      ],
      [
        "vis",
        "it"
      ],
      [
        "li",
        "ce"
      ],
      [
        "own",
        "er"
      ],
      [
        "is",
        "es"
      ],
      [
        "be",
        "lie"
      ],
      [
        "prom",
        "ised"
      ],
      [
        "jo",
        "b"
      ],
      [
        "O",
        "kay"
      ],
      [
        "e",
        "k"
      ],
      [
        "l",
        "ake"
      ],
      [
        "par",
        "ty"
      ],
      [
        "sis",
        "ter"
      ],
      [
        "M",
        "r"
      ],
      [
        "qu",
        "i"
      ],
      [
        "m",
        "ind"
      ],
      [
        "i",
        "ch"
      ],
      [
        "mor",
        "al"
      ],
      [
        "d",
        "ance"
      ],
      [
        "u",
        "ally"
      ],
      [
        "mu",
        "st"
      ],
      [
        "M",
        "ary"
      ],
      [
        "na",
        "p"
      ],
      [
        "c",
        "tor"
      ],
      [
        "m",
        "ent"
      ],
      [
        "qui",
        "et"
      ],
      [
        "bo",
        "ard"
      ],
      [
        "fast",
        "er"
      ],
      [
        "c",
        "andy"
      ],
      [
        "pl",
        "ant"
      ],
      [
        "b",
        "ran"
      ],
      [
        "wor",
        "ried"
      ],
      [
        "S",
        "ure"
      ],
      [
        "an",
        "sw"
      ],
      [
        "c",
        "hair"
      ],
      [
        "g",
        "if"
      ],
      [
        "J",
        "ust"
      ],
      [
        "slow",
        "ly"
      ],
      [
        "ate",
        "ful"
      ],
      [
        "color",
        "ful"
      ],
      [
        "p",
        "ass"
      ],
      [
        "gr",
        "ateful"
      ],
      [
        "e",
        "le"
      ],
      [
        "he",
        "s"
      ],
      [
        "bro",
        "ke"
      ],
      [
        "th",
        "re"
      ],
      [
        "re",
        "ach"
      ],
      [
        "st",
        "u"
      ],
      [
        "d",
        "a"
      ],
      [
        "big",
        "ger"
      ],
      [
        "ex",
        "plain"
      ],
      [
        "g",
        "ra"
      ],
      [
        "pul",
        "l"
      ],
      [
        "d",
        "ry"
      ],
      [
        "s",
        "uch"
      ],
      [
        "k",
        "is"
      ],
      [
        "T",
        "H"
      ],
      [
        "he",
        "av"
      ],
      [
        "w",
        "in"
      ],
      [
        "bl",
        "ack"
      ],
      [
        "sn",
        "ack"
      ],
      [
        "tre",
        "asure"
      ],
      [
        "bl",
        "an"
      ],
      [
        "A",
        "N"
      ],
      [
        "S",
        "T"
      ],
      [
        "s",
        "cream"
      ],
      [
        "dang",
        "erous"
      ],
      [
        "E",
        "R"
      ],
      [
        "star",
        "t"
      ],
      [
        "magic",
        "al"
      ],
      [
        "ri",
        "ver"
      ],
      [
        "mon",
        "ster"
      ],
      [
        "IN",
        "K"
      ],
      [
        "S",
        "W"
      ],
      [
        "IN",
        "ST"
      ],
      [
        "TH",
        "INK"
      ],
      [
        "AN",
        "SW"
      ],
      [
        "ANSW",
        "ER"
      ],
      [
        "sm",
        "art"
      ],
      [
        "wor",
        "ds"
      ],
      [
        "dra",
        "gon"
      ],
      [
        "tow",
        "er"
      ],
      [
        "sm",
        "el"
      ],
      [
        "sa",
        "me"
      ],
      [
        "doll",
        "s"
      ],
      [
        "ro",
        "t"
      ],
      [
        "mou",
        "th"
      ],
      [
        "every",
        "where"
      ],
      [
        "che",
        "s"
      ],
      [
        "be",
        "e"
      ],
      [
        "help",
        "ing"
      ],
      [
        "our",
        "s"
      ],
      [
        "H",
        "ow"
      ],
      [
        "H",
        "i"
      ],
      [
        "u",
        "b"
      ],
      [
        "ig",
        "g"
      ],
      [
        "ac",
        "ross"
      ],
      [
        "farm",
        "er"
      ],
      [
        "s",
        "ign"
      ],
      [
        "thre",
        "w"
      ],
      [
        "tw",
        "ins"
      ],
      [
        "s",
        "wa"
      ],
      [
        "do",
        "ctor"
      ],
      [
        "Gr",
        "andma"
      ],
      [
        "d",
        "es"
      ],
      [
        "our",
        "se"
      ],
      [
        "bow",
        "l"
      ],
      [
        "M",
        "um"
      ],
      [
        "Jim",
        "my"
      ],
      [
        "ste",
        "pped"
      ],
      [
        "heav",
        "y"
      ],
      [
        "cho",
        "ol"
      ],
      [
        "dir",
        "ty"
      ],
      [
        "mi",
        "x"
      ],
      [
        "b",
        "as"
      ],
      [
        "cry",
        "ing"
      ],
      [
        "n",
        "g"
      ],
      [
        "b",
        "ite"
      ],
      [
        "P",
        "lease"
      ],
      [
        "take",
        "s"
      ],
      [
        "s",
        "chool"
      ],
      [
        "appear",
        "ed"
      ],
      [
        "he",
        "al"
      ],
      [
        "sha",
        "r"
      ],
      [
        "ho",
        "ped"
      ],
      [
        "pre",
        "ss"
      ],
      [
        "ha",
        "r"
      ],
      [
        "un",
        "ch"
      ],
      [
        "belie",
        "ve"
      ],
      [
        "clo",
        "sed"
      ],
      [
        "h",
        "ig"
      ],
      [
        "s",
        "c"
      ],
      [
        "te",
        "ac"
      ],
      [
        "s",
        "y"
      ],
      [
        "pain",
        "t"
      ],
      [
        "id",
        "ent"
      ],
      [
        "tow",
        "n"
      ],
      [
        "would",
        "n"
      ],
      [
        "prin",
        "cess"
      ],
      [
        "st",
        "uck"
      ],
      [
        "swa",
        "m"
      ],
      [
        "ballo",
        "on"
      ],
      [
        "a",
        "p"
      ],
      [
        "cr",
        "ay"
      ],
      [
        "s",
        "pr"
      ],
      [
        "br",
        "own"
      ],
      [
        "p",
        "ow"
      ],
      [
        "but",
        "ton"
      ],
      [
        "feel",
        "s"
      ],
      [
        "bas",
        "ket"
      ],
      [
        "w",
        "r"
      ],
      [
        "r",
        "ound"
      ],
      [
        "it",
        "ing"
      ],
      [
        "Em",
        "ma"
      ],
      [
        "eat",
        "ing"
      ],
      [
        "v",
        "al"
      ],
      [
        "s",
        "uddenly"
      ],
      [
        "fair",
        "y"
      ],
      [
        "c",
        "ourse"
      ],
      [
        "ne",
        "igh"
      ],
      [
        "ch",
        "ild"
      ],
      [
        "pu",
        "shed"
      ],
      [
        "i",
        "re"
      ],
      [
        "n",
        "um"
      ],
      [
        "com",
        "for"
      ],
      [
        "pl",
        "ane"
      ],
      [
        "gent",
        "le"
      ],
      [
        "cla",
        "pped"
      ],
      [
        "vent",
        "ually"
      ],
      [
        "sto",
        "od"
      ],
      [
        "f",
        "ree"
      ],
      [
        "ou",
        "n"
      ],
      [
        "teac",
        "her"
      ],
      [
        "g",
        "ames"
      ],
      [
        "with",
        "out"
      ],
      [
        "ph",
        "one"
      ],
      [
        "wel",
        "come"
      ],
      [
        "In",
        "side"
      ],
      [
        "sh",
        "ine"
      ],
      [
        "k",
        "no"
      ],
      [
        "to",
        "day"
      ],
      [
        "hig",
        "her"
      ],
      [
        "dro",
        "ve"
      ],
      [
        "m",
        "il"
      ],
      [
        "se",
        "a"
      ],
      [
        "blan",
        "ket"
      ],
      [
        "mo",
        "ved"
      ],
      [
        "swing",
        "s"
      ],
      [
        "ste",
        "ad"
      ],
      [
        "ad",
        "d"
      ],
      [
        "no",
        "ises"
      ],
      [
        "st",
        "r"
      ],
      [
        "j",
        "our"
      ],
      [
        "b",
        "en"
      ],
      [
        "che",
        "ered"
      ],
      [
        "The",
        "ir"
      ],
      [
        "w",
        "ings"
      ],
      [
        "I",
        "f"
      ],
      [
        "turn",
        "s"
      ],
      [
        "c",
        "ident"
      ],
      [
        "we",
        "ll"
      ],
      [
        "long",
        "er"
      ],
      [
        "w",
        "ish"
      ],
      [
        "sho",
        "es"
      ],
      [
        "l",
        "ate"
      ],
      [
        "s",
        "ang"
      ],
      [
        "ne",
        "ck"
      ],
      [
        "thr",
        "ow"
      ],
      [
        "hug",
        "s"
      ],
      [
        "explain",
        "ed"
      ],
      [
        "i",
        "ble"
      ],
      [
        "w",
        "ise"
      ],
      [
        "ph",
        "ant"
      ],
      [
        "F",
        "l"
      ],
      [
        "sto",
        "ne"
      ],
      [
        "ac",
        "cident"
      ],
      [
        "al",
        "ong"
      ],
      [
        "happ",
        "en"
      ],
      [
        "ne",
        "y"
      ],
      [
        "in",
        "ed"
      ],
      [
        "ar",
        "s"
      ],
      [
        "l",
        "ing"
      ],
      [
        "app",
        "le"
      ],
      [
        "itt",
        "ing"
      ],
      [
        "f",
        "ence"
      ],
      [
        "it",
        "ch"
      ],
      [
        "d",
        "ist"
      ],
      [
        "day",
        "s"
      ],
      [
        "E",
        "l"
      ],
      [
        "tr",
        "ou"
      ],
      [
        "m",
        "ine"
      ],
      [
        "po",
        "l"
      ],
      [
        "d",
        "el"
      ],
      [
        "l",
        "unch"
      ],
      [
        "se",
        "cre"
      ],
      [
        "ele",
        "phant"
      ],
      [
        "sto",
        "ries"
      ],
      [
        "th",
        "ough"
      ],
      [
        "hear",
        "t"
      ],
      [
        "one",
        "ly"
      ],
      [
        "sh",
        "op"
      ],
      [
        "sing",
        "ing"
      ],
      [
        "l",
        "onely"
      ],
      [
        "star",
        "s"
      ],
      [
        "sh",
        "ook"
      ],
      [
        "adventure",
        "s"
      ],
      [
        "c",
        "al"
      ],
      [
        "up",
        "set"
      ],
      [
        "ca",
        "ught"
      ],
      [
        "sh",
        "ip"
      ],
      [
        "ne",
        "e"
      ],
      [
        "s",
        "ent"
      ],
      [
        "Fl",
        "uffy"
      ],
      [
        "you",
        "ng"
      ],
      [
        "be",
        "long"
      ],
      [
        "po",
        "cket"
      ],
      [
        "par",
        "t"
      ],
      [
        "P",
        "e"
      ],
      [
        "ro",
        "cks"
      ],
      [
        "ught",
        "y"
      ],
      [
        "L",
        "e"
      ],
      [
        "Sam",
        "my"
      ],
      [
        "stre",
        "et"
      ],
      [
        "na",
        "ughty"
      ],
      [
        "near",
        "by"
      ],
      [
        "j",
        "ar"
      ],
      [
        "dr",
        "ink"
      ],
      [
        "for",
        "get"
      ],
      [
        "nt",
        "ain"
      ],
      [
        "f",
        "used"
      ],
      [
        "dro",
        "pped"
      ],
      [
        "pur",
        "ple"
      ],
      [
        "m",
        "ing"
      ],
      [
        "min",
        "ut"
      ],
      [
        "br",
        "ing"
      ],
      [
        "ta",
        "king"
      ],
      [
        "ion",
        "s"
      ],
      [
        "or",
        "ange"
      ],
      [
        "explo",
        "ring"
      ],
      [
        "M",
        "y"
      ],
      [
        "back",
        "yard"
      ],
      [
        "mon",
        "key"
      ],
      [
        "at",
        "t"
      ],
      [
        "s",
        "oup"
      ],
      [
        "da",
        "ught"
      ],
      [
        "ow",
        "l"
      ],
      [
        "sha",
        "pes"
      ],
      [
        "bo",
        "dy"
      ],
      [
        "daught",
        "er"
      ],
      [
        "see",
        "med"
      ],
      [
        "wo",
        "ke"
      ],
      [
        "ma",
        "il"
      ],
      [
        "co",
        "at"
      ],
      [
        "come",
        "s"
      ],
      [
        "h",
        "it"
      ],
      [
        "pa",
        "st"
      ],
      [
        "hel",
        "lo"
      ],
      [
        "ju",
        "ice"
      ],
      [
        "re",
        "lie"
      ],
      [
        "cou",
        "nt"
      ],
      [
        "e",
        "se"
      ],
      [
        "ben",
        "ch"
      ],
      [
        "f",
        "ing"
      ],
      [
        "bus",
        "y"
      ],
      [
        "m",
        "er"
      ],
      [
        "dri",
        "ver"
      ],
      [
        "no",
        "thing"
      ],
      [
        "f",
        "it"
      ],
      [
        "no",
        "se"
      ],
      [
        "b",
        "and"
      ],
      [
        "c",
        "ow"
      ],
      [
        "sound",
        "s"
      ],
      [
        "arm",
        "s"
      ],
      [
        "t",
        "iny"
      ],
      [
        "p",
        "ra"
      ],
      [
        "she",
        "ll"
      ],
      [
        "i",
        "er"
      ],
      [
        "er",
        "ful"
      ],
      [
        "s",
        "co"
      ],
      [
        "ne",
        "st"
      ],
      [
        "L",
        "ater"
      ],
      [
        "wonder",
        "ed"
      ],
      [
        "ul",
        "l"
      ],
      [
        "hold",
        "ing"
      ],
      [
        "rain",
        "bow"
      ],
      [
        "p",
        "il"
      ],
      [
        "p",
        "ig"
      ],
      [
        "am",
        "p"
      ],
      [
        "sm",
        "ell"
      ],
      [
        "Go",
        "od"
      ],
      [
        "th",
        "day"
      ],
      [
        "c",
        "ir"
      ],
      [
        "c",
        "has"
      ],
      [
        "s",
        "itting"
      ],
      [
        "W",
        "ith"
      ],
      [
        "b",
        "oun"
      ],
      [
        "in",
        "ing"
      ],
      [
        "bre",
        "a"
      ],
      [
        "s",
        "ick"
      ],
      [
        "bran",
        "ch"
      ],
      [
        "e",
        "g"
      ],
      [
        "secre",
        "t"
      ],
      [
        "s",
        "ug"
      ],
      [
        "o",
        "om"
      ],
      [
        "m",
        "ach"
      ],
      [
        "ra",
        "id"
      ],
      [
        "pp",
        "er"
      ],
      [
        "cut",
        "e"
      ],
      [
        "af",
        "raid"
      ],
      [
        "gif",
        "t"
      ],
      [
        "love",
        "s"
      ],
      [
        "pat",
        "ient"
      ],
      [
        "pu",
        "sh"
      ],
      [
        "b",
        "read"
      ],
      [
        "O",
        "f"
      ],
      [
        "que",
        "st"
      ],
      [
        "prom",
        "ise"
      ],
      [
        "k",
        "ite"
      ],
      [
        "h",
        "u"
      ],
      [
        "b",
        "ought"
      ],
      [
        "to",
        "uc"
      ],
      [
        "touc",
        "hed"
      ],
      [
        "le",
        "tter"
      ],
      [
        "id",
        "ge"
      ],
      [
        "fore",
        "ver"
      ],
      [
        "pe",
        "ace"
      ],
      [
        "car",
        "ry"
      ],
      [
        "relie",
        "ved"
      ],
      [
        "che",
        "ese"
      ],
      [
        "ge",
        "st"
      ],
      [
        "hu",
        "ge"
      ],
      [
        "bu",
        "cket"
      ],
      [
        "w",
        "and"
      ],
      [
        "ve",
        "l"
      ],
      [
        "un",
        "i"
      ],
      [
        "cover",
        "ed"
      ],
      [
        "give",
        "s"
      ],
      [
        "gra",
        "b"
      ],
      [
        "s",
        "u"
      ],
      [
        "w",
        "ra"
      ],
      [
        "li",
        "ve"
      ],
      [
        "bir",
        "thday"
      ],
      [
        "col",
        "le"
      ],
      [
        "or",
        "n"
      ],
      [
        "itt",
        "ens"
      ],
      [
        "in",
        "te"
      ],
      [
        "T",
        "ed"
      ],
      [
        "inte",
        "rest"
      ],
      [
        "d",
        "i"
      ],
      [
        "T",
        "weet"
      ],
      [
        "ac",
        "t"
      ],
      [
        "li",
        "fe"
      ],
      [
        "i",
        "an"
      ],
      [
        "swim",
        "ming"
      ],
      [
        "He",
        "y"
      ],
      [
        "on",
        "to"
      ],
      [
        "exc",
        "iting"
      ],
      [
        "ne",
        "t"
      ],
      [
        "app",
        "les"
      ],
      [
        "mil",
        "k"
      ],
      [
        "v",
        "a"
      ],
      [
        "w",
        "om"
      ],
      [
        "cra",
        "w"
      ],
      [
        "laugh",
        "ing"
      ],
      [
        "bu",
        "sh"
      ],
      [
        "creat",
        "ure"
      ],
      [
        "cou",
        "n"
      ],
      [
        "sun",
        "ny"
      ],
      [
        "k",
        "ick"
      ],
      [
        "bot",
        "tle"
      ],
      [
        "Jen",
        "ny"
      ],
      [
        "jour",
        "ney"
      ],
      [
        "y",
        "e"
      ],
      [
        "ad",
        "e"
      ],
      [
        "wom",
        "an"
      ],
      [
        "g",
        "ged"
      ],
      [
        "put",
        "s"
      ],
      [
        "neigh",
        "bor"
      ],
      [
        "ho",
        "pe"
      ],
      [
        "in",
        "stead"
      ],
      [
        "l",
        "ucky"
      ],
      [
        "ne",
        "ss"
      ],
      [
        "Em",
        "ily"
      ],
      [
        "co",
        "zy"
      ],
      [
        "duck",
        "s"
      ],
      [
        "sp",
        "in"
      ],
      [
        "poin",
        "ted"
      ],
      [
        "im",
        "ag"
      ],
      [
        "watch",
        "ing"
      ],
      [
        "c",
        "ed"
      ],
      [
        "sun",
        "shine"
      ],
      [
        "ro",
        "ad"
      ],
      [
        "ca",
        "ve"
      ],
      [
        "e",
        "as"
      ],
      [
        "mis",
        "s"
      ],
      [
        "p",
        "udd"
      ],
      [
        "sn",
        "ake"
      ],
      [
        "l",
        "ater"
      ],
      [
        "accident",
        "ally"
      ],
      [
        "num",
        "ber"
      ],
      [
        "pers",
        "on"
      ],
      [
        "g",
        "en"
      ],
      [
        "s",
        "uc"
      ],
      [
        "wor",
        "d"
      ],
      [
        "b",
        "ru"
      ],
      [
        "iz",
        "e"
      ],
      [
        "h",
        "oney"
      ],
      [
        "ble",
        "m"
      ],
      [
        "s",
        "li"
      ],
      [
        "pro",
        "blem"
      ],
      [
        "shar",
        "p"
      ],
      [
        "smil",
        "ing"
      ],
      [
        "she",
        "s"
      ],
      [
        "sand",
        "w"
      ],
      [
        "any",
        "one"
      ],
      [
        "itt",
        "en"
      ],
      [
        "tal",
        "ked"
      ],
      [
        "g",
        "ather"
      ],
      [
        "ro",
        "pe"
      ],
      [
        "wh",
        "ich"
      ],
      [
        "sear",
        "ched"
      ],
      [
        "cray",
        "ons"
      ],
      [
        "ir",
        "t"
      ],
      [
        "w",
        "ide"
      ],
      [
        "heal",
        "thy"
      ],
      [
        "me",
        "et"
      ],
      [
        "n",
        "ic"
      ],
      [
        "W",
        "here"
      ],
      [
        "a",
        "st"
      ],
      [
        "cir",
        "cle"
      ],
      [
        "sto",
        "rm"
      ],
      [
        "trou",
        "ble"
      ],
      [
        "ug",
        "g"
      ],
      [
        "in",
        "v"
      ],
      [
        "cloud",
        "s"
      ],
      [
        "interest",
        "ing"
      ],
      [
        "h",
        "ours"
      ],
      [
        "tast",
        "y"
      ],
      [
        "cle",
        "ver"
      ],
      [
        "smel",
        "led"
      ],
      [
        "p",
        "ile"
      ],
      [
        "fe",
        "et"
      ],
      [
        "z",
        "oom"
      ],
      [
        "or",
        "gan"
      ],
      [
        "A",
        "re"
      ],
      [
        "fr",
        "on"
      ],
      [
        "la",
        "st"
      ],
      [
        "g",
        "igg"
      ],
      [
        "lo",
        "g"
      ],
      [
        "de",
        "st"
      ],
      [
        "whe",
        "el"
      ],
      [
        "mat",
        "ter"
      ],
      [
        "fron",
        "t"
      ],
      [
        "spo",
        "on"
      ],
      [
        "bl",
        "ed"
      ],
      [
        "sh",
        "ining"
      ],
      [
        "was",
        "h"
      ],
      [
        "she",
        "lf"
      ],
      [
        "pro",
        "te"
      ],
      [
        "sp",
        "ent"
      ],
      [
        "fe",
        "ather"
      ],
      [
        "pra",
        "ct"
      ],
      [
        "re",
        "spe"
      ],
      [
        "e",
        "ag"
      ],
      [
        "pa",
        "th"
      ],
      [
        "ro",
        "ar"
      ],
      [
        "comfor",
        "table"
      ],
      [
        "v",
        "ill"
      ],
      [
        "spot",
        "ted"
      ],
      [
        "mu",
        "d"
      ],
      [
        "R",
        "o"
      ],
      [
        "fru",
        "it"
      ],
      [
        "scream",
        "ed"
      ],
      [
        "pre",
        "sent"
      ],
      [
        "ber",
        "ries"
      ],
      [
        "z",
        "oo"
      ],
      [
        "te",
        "a"
      ],
      [
        "and",
        "pa"
      ],
      [
        "pu",
        "zz"
      ],
      [
        "go",
        "es"
      ],
      [
        "is",
        "a"
      ],
      [
        "we",
        "ek"
      ],
      [
        "c",
        "er"
      ],
      [
        "M",
        "ittens"
      ],
      [
        "l",
        "ay"
      ],
      [
        "or",
        "m"
      ],
      [
        "se",
        "at"
      ],
      [
        "minut",
        "es"
      ],
      [
        "spl",
        "ash"
      ],
      [
        "hor",
        "se"
      ],
      [
        "sp",
        "id"
      ],
      [
        "car",
        "d"
      ],
      [
        "wa",
        "r"
      ],
      [
        "my",
        "ster"
      ],
      [
        "answ",
        "er"
      ],
      [
        "as",
        "leep"
      ],
      [
        "love",
        "ly"
      ],
      [
        "p",
        "an"
      ],
      [
        "v",
        "ie"
      ],
      [
        "ho",
        "p"
      ],
      [
        "J",
        "ake"
      ],
      [
        "lo",
        "ck"
      ],
      [
        "iz",
        "z"
      ],
      [
        "n",
        "ed"
      ],
      [
        "who",
        "le"
      ],
      [
        "te",
        "ach"
      ],
      [
        "danc",
        "ed"
      ],
      [
        "g",
        "y"
      ],
      [
        "snow",
        "man"
      ],
      [
        "on",
        "es"
      ],
      [
        "To",
        "gether"
      ],
      [
        "L",
        "isa"
      ],
      [
        "roll",
        "ed"
      ],
      [
        "œ",
        "I"
      ],
      [
        "th",
        "in"
      ],
      [
        "wor",
        "m"
      ],
      [
        "w",
        "ild"
      ],
      [
        "e",
        "th"
      ],
      [
        "f",
        "li"
      ],
      [
        "t",
        "ries"
      ],
      [
        "gent",
        "ly"
      ],
      [
        "ke",
        "ts"
      ],
      [
        "ru",
        "bb"
      ],
      [
        "respe",
        "ct"
      ],
      [
        "wear",
        "ing"
      ],
      [
        "for",
        "give"
      ],
      [
        "t",
        "un"
      ],
      [
        "Some",
        "times"
      ],
      [
        "cor",
        "n"
      ],
      [
        "p",
        "ill"
      ],
      [
        "ch",
        "ing"
      ],
      [
        "place",
        "s"
      ],
      [
        "bu",
        "bb"
      ],
      [
        "cor",
        "ner"
      ],
      [
        "con",
        "fused"
      ],
      [
        "te",
        "eth"
      ],
      [
        "im",
        "press"
      ],
      [
        "st",
        "ring"
      ],
      [
        "gi",
        "ant"
      ],
      [
        "t",
        "ur"
      ],
      [
        "dri",
        "ve"
      ],
      [
        "dir",
        "t"
      ],
      [
        "too",
        "l"
      ],
      [
        "ru",
        "de"
      ],
      [
        "wa",
        "ve"
      ],
      [
        "it",
        "y"
      ],
      [
        "ce",
        "an"
      ],
      [
        "o",
        "cean"
      ],
      [
        "l",
        "ar"
      ],
      [
        "M",
        "ummy"
      ],
      [
        "sl",
        "id"
      ],
      [
        "st",
        "ep"
      ],
      [
        "ch",
        "ick"
      ],
      [
        "itt",
        "y"
      ],
      [
        "pretend",
        "ed"
      ],
      [
        "as",
        "ed"
      ],
      [
        "po",
        "p"
      ],
      [
        "la",
        "ce"
      ],
      [
        "cook",
        "ie"
      ],
      [
        "tast",
        "ed"
      ],
      [
        "u",
        "ce"
      ],
      [
        "face",
        "s"
      ],
      [
        "ri",
        "ch"
      ],
      [
        "cal",
        "m"
      ],
      [
        "p",
        "our"
      ],
      [
        "o",
        "ven"
      ],
      [
        "He",
        "re"
      ],
      [
        "fin",
        "ish"
      ],
      [
        "re",
        "s"
      ],
      [
        "mach",
        "ine"
      ],
      [
        "del",
        "ight"
      ],
      [
        "co",
        "in"
      ],
      [
        "pic",
        "nic"
      ],
      [
        "cho",
        "col"
      ],
      [
        "fur",
        "ry"
      ],
      [
        "ul",
        "t"
      ],
      [
        "m",
        "el"
      ],
      [
        "te",
        "st"
      ],
      [
        "be",
        "ll"
      ],
      [
        "tri",
        "p"
      ],
      [
        "lad",
        "der"
      ],
      [
        "s",
        "we"
      ],
      [
        "h",
        "ang"
      ],
      [
        "fo",
        "ot"
      ],
      [
        "st",
        "air"
      ],
      [
        "p",
        "ay"
      ],
      [
        "t",
        "en"
      ],
      [
        "peace",
        "ful"
      ],
      [
        "help",
        "ful"
      ],
      [
        "see",
        "k"
      ],
      [
        "i",
        "pped"
      ],
      [
        "build",
        "ing"
      ],
      [
        "Pe",
        "ter"
      ],
      [
        "be",
        "l"
      ],
      [
        "e",
        "ventually"
      ],
      [
        "bug",
        "s"
      ],
      [
        "re",
        "mind"
      ],
      [
        "neck",
        "lace"
      ],
      [
        "fo",
        "ld"
      ],
      [
        "L",
        "ittle"
      ],
      [
        "to",
        "mor"
      ],
      [
        "tomor",
        "row"
      ],
      [
        "sa",
        "ck"
      ],
      [
        "sh",
        "y"
      ],
      [
        "sm",
        "oo"
      ],
      [
        "colle",
        "ct"
      ],
      [
        "pre",
        "ad"
      ],
      [
        "stre",
        "t"
      ],
      [
        "c",
        "ur"
      ],
      [
        "s",
        "pread"
      ],
      [
        "cou",
        "ch"
      ],
      [
        "spid",
        "er"
      ],
      [
        "m",
        "ir"
      ],
      [
        "t",
        "id"
      ],
      [
        "sh",
        "r"
      ],
      [
        "W",
        "ho"
      ],
      [
        "po",
        "ol"
      ],
      [
        "smoo",
        "th"
      ],
      [
        "ble",
        "w"
      ],
      [
        "tal",
        "king"
      ],
      [
        "so",
        "l"
      ],
      [
        "mou",
        "ntain"
      ],
      [
        "s",
        "had"
      ],
      [
        "song",
        "s"
      ],
      [
        "ran",
        "k"
      ],
      [
        "b",
        "an"
      ],
      [
        "jo",
        "ke"
      ],
      [
        "chas",
        "ed"
      ],
      [
        "sp",
        "it"
      ],
      [
        "ig",
        "hed"
      ],
      [
        "hid",
        "ing"
      ],
      [
        "er",
        "ly"
      ],
      [
        "k",
        "nee"
      ],
      [
        "prote",
        "ct"
      ],
      [
        "ce",
        "le"
      ],
      [
        "wr",
        "ite"
      ],
      [
        "R",
        "e"
      ],
      [
        "wo",
        "re"
      ],
      [
        "lea",
        "f"
      ],
      [
        "fight",
        "ing"
      ],
      [
        "em",
        "bar"
      ],
      [
        "wait",
        "ing"
      ],
      [
        "chocol",
        "ate"
      ],
      [
        "clo",
        "th"
      ],
      [
        "embar",
        "r"
      ],
      [
        "i",
        "fe"
      ],
      [
        "ban",
        "an"
      ],
      [
        "S",
        "top"
      ],
      [
        "sha",
        "ke"
      ],
      [
        "Ted",
        "dy"
      ],
      [
        "pudd",
        "le"
      ],
      [
        "vill",
        "age"
      ],
      [
        "can",
        "not"
      ],
      [
        "An",
        "n"
      ],
      [
        "h",
        "um"
      ],
      [
        "whe",
        "never"
      ],
      [
        "lar",
        "ge"
      ],
      [
        "embarr",
        "ass"
      ],
      [
        "car",
        "rot"
      ],
      [
        "cor",
        "d"
      ],
      [
        "S",
        "us"
      ],
      [
        "F",
        "red"
      ],
      [
        "d",
        "en"
      ],
      [
        "treat",
        "s"
      ],
      [
        "el",
        "ly"
      ],
      [
        "pa",
        "w"
      ],
      [
        "l",
        "ves"
      ],
      [
        "m",
        "aybe"
      ],
      [
        "st",
        "ra"
      ],
      [
        "self",
        "ish"
      ],
      [
        "Every",
        "where"
      ],
      [
        "col",
        "our"
      ],
      [
        "ca",
        "ge"
      ],
      [
        "c",
        "ross"
      ],
      [
        "R",
        "ex"
      ],
      [
        "ta",
        "ste"
      ],
      [
        "P",
        "a"
      ],
      [
        "s",
        "cre"
      ],
      [
        "bar",
        "ked"
      ],
      [
        "t",
        "ie"
      ],
      [
        "ge",
        "ts"
      ],
      [
        "ro",
        "ts"
      ],
      [
        "tid",
        "y"
      ],
      [
        "A",
        "lice"
      ],
      [
        "sh",
        "irt"
      ],
      [
        "fix",
        "ed"
      ],
      [
        "ir",
        "d"
      ],
      [
        "ump",
        "y"
      ],
      [
        "spr",
        "ay"
      ],
      [
        "o",
        "in"
      ],
      [
        "T",
        "V"
      ],
      [
        "e",
        "e"
      ],
      [
        "stick",
        "s"
      ],
      [
        "st",
        "ir"
      ],
      [
        "Hel",
        "p"
      ],
      [
        "cele",
        "br"
      ],
      [
        "c",
        "ted"
      ],
      [
        "de",
        "ter"
      ],
      [
        "as",
        "ha"
      ],
      [
        "cra",
        "b"
      ],
      [
        "mis",
        "sed"
      ],
      [
        "em",
        "p"
      ],
      [
        "car",
        "rots"
      ],
      [
        "ung",
        "le"
      ],
      [
        "for",
        "ward"
      ],
      [
        "hear",
        "s"
      ],
      [
        "creat",
        "ive"
      ],
      [
        "app",
        "oin"
      ],
      [
        "John",
        "ny"
      ],
      [
        "embarrass",
        "ed"
      ],
      [
        "tru",
        "st"
      ],
      [
        "s",
        "up"
      ],
      [
        "prin",
        "ce"
      ],
      [
        "jump",
        "ing"
      ],
      [
        "cou",
        "ra"
      ],
      [
        "j",
        "ungle"
      ],
      [
        "kis",
        "s"
      ],
      [
        "t",
        "u"
      ],
      [
        "le",
        "gs"
      ],
      [
        "sp",
        "end"
      ],
      [
        "deter",
        "min"
      ],
      [
        "p",
        "ri"
      ],
      [
        "so",
        "ld"
      ],
      [
        "cle",
        "ar"
      ],
      [
        "Wh",
        "ile"
      ],
      [
        "sha",
        "ring"
      ],
      [
        "land",
        "ed"
      ],
      [
        "to",
        "tal"
      ],
      [
        "or",
        "ry"
      ],
      [
        "co",
        "p"
      ],
      [
        "whis",
        "tle"
      ],
      [
        "pl",
        "ate"
      ],
      [
        "sa",
        "ve"
      ],
      [
        "s",
        "que"
      ],
      [
        "the",
        "se"
      ],
      [
        "dec",
        "or"
      ],
      [
        "ro",
        "bot"
      ],
      [
        "get",
        "able"
      ],
      [
        "dis",
        "appoin"
      ],
      [
        "S",
        "orry"
      ],
      [
        "tell",
        "s"
      ],
      [
        "p",
        "izz"
      ],
      [
        "kno",
        "cked"
      ],
      [
        "s",
        "our"
      ],
      [
        "her",
        "o"
      ],
      [
        "mo",
        "on"
      ],
      [
        "ve",
        "getable"
      ],
      [
        "a",
        "il"
      ],
      [
        "blo",
        "ck"
      ],
      [
        "she",
        "ep"
      ],
      [
        "emp",
        "ty"
      ],
      [
        "g",
        "as"
      ],
      [
        "al",
        "most"
      ],
      [
        "brea",
        "th"
      ],
      [
        "gre",
        "w"
      ],
      [
        "stair",
        "s"
      ],
      [
        "asha",
        "med"
      ],
      [
        "ca",
        "pe"
      ],
      [
        "E",
        "ven"
      ],
      [
        "one",
        "st"
      ],
      [
        "ball",
        "s"
      ],
      [
        "gr",
        "ay"
      ],
      [
        "bru",
        "sh"
      ],
      [
        "me",
        "ant"
      ],
      [
        "po",
        "lice"
      ],
      [
        "ad",
        "ow"
      ],
      [
        "tight",
        "ly"
      ],
      [
        "g",
        "low"
      ],
      [
        "l",
        "ine"
      ],
      [
        "me",
        "adow"
      ],
      [
        "se",
        "ed"
      ],
      [
        "go",
        "ld"
      ],
      [
        "under",
        "stood"
      ],
      [
        "yel",
        "led"
      ],
      [
        "n",
        "ut"
      ],
      [
        "je",
        "wel"
      ],
      [
        "no",
        "ds"
      ],
      [
        "g",
        "un"
      ],
      [
        "pol",
        "ite"
      ],
      [
        "G",
        "ive"
      ],
      [
        "h",
        "onest"
      ],
      [
        "la",
        "w"
      ],
      [
        "car",
        "ried"
      ],
      [
        "To",
        "day"
      ],
      [
        "snack",
        "s"
      ],
      [
        "ant",
        "s"
      ],
      [
        "plant",
        "s"
      ],
      [
        "Le",
        "o"
      ],
      [
        "disappoin",
        "ted"
      ],
      [
        "spit",
        "al"
      ],
      [
        "b",
        "urn"
      ],
      [
        "ho",
        "spital"
      ],
      [
        "suc",
        "cess"
      ],
      [
        "b",
        "low"
      ],
      [
        "pil",
        "low"
      ],
      [
        "in",
        "a"
      ],
      [
        "o",
        "b"
      ],
      [
        "f",
        "la"
      ],
      [
        "le",
        "mon"
      ],
      [
        "k",
        "itten"
      ],
      [
        "j",
        "elly"
      ],
      [
        "M",
        "e"
      ],
      [
        "anc",
        "y"
      ],
      [
        "s",
        "pa"
      ],
      [
        "You",
        "r"
      ],
      [
        "pizz",
        "a"
      ],
      [
        "gr",
        "oup"
      ],
      [
        "v",
        "an"
      ],
      [
        "spark",
        "ly"
      ],
      [
        "c",
        "y"
      ],
      [
        "M",
        "ark"
      ],
      [
        "bor",
        "ed"
      ],
      [
        "bed",
        "room"
      ],
      [
        "m",
        "ark"
      ],
      [
        "ra",
        "g"
      ],
      [
        "r",
        "ad"
      ],
      [
        "sp",
        "icy"
      ],
      [
        "fli",
        "es"
      ],
      [
        "k",
        "in"
      ],
      [
        "pow",
        "erful"
      ],
      [
        "fe",
        "ar"
      ],
      [
        "v",
        "ous"
      ],
      [
        "fe",
        "ed"
      ],
      [
        "b",
        "at"
      ],
      [
        "puzz",
        "le"
      ],
      [
        "need",
        "s"
      ],
      [
        "sa",
        "ge"
      ],
      [
        "p",
        "in"
      ],
      [
        "gen",
        "erous"
      ],
      [
        "fru",
        "str"
      ],
      [
        "dre",
        "w"
      ],
      [
        "hid",
        "den"
      ],
      [
        "re",
        "turned"
      ],
      [
        "ta",
        "ught"
      ],
      [
        "eas",
        "y"
      ],
      [
        "cl",
        "ass"
      ],
      [
        "er",
        "a"
      ],
      [
        "se",
        "ll"
      ],
      [
        "wa",
        "ves"
      ],
      [
        "not",
        "e"
      ],
      [
        "myster",
        "ious"
      ],
      [
        "stand",
        "ing"
      ],
      [
        "pa",
        "ir"
      ],
      [
        "s",
        "ighed"
      ],
      [
        "sho",
        "re"
      ],
      [
        "l",
        "it"
      ],
      [
        "fing",
        "er"
      ],
      [
        "on",
        "y"
      ],
      [
        "know",
        "ing"
      ],
      [
        "scar",
        "f"
      ],
      [
        "thank",
        "ful"
      ],
      [
        "pack",
        "ed"
      ],
      [
        "determin",
        "ed"
      ],
      [
        "f",
        "ig"
      ],
      [
        "b",
        "ul"
      ],
      [
        "itt",
        "er"
      ],
      [
        "c",
        "and"
      ],
      [
        "d",
        "le"
      ],
      [
        "che",
        "w"
      ],
      [
        "kis",
        "sed"
      ],
      [
        "t",
        "ent"
      ],
      [
        "cat",
        "er"
      ],
      [
        "cater",
        "pill"
      ],
      [
        "k",
        "en"
      ],
      [
        "whis",
        "per"
      ],
      [
        "sandw",
        "ich"
      ],
      [
        "clo",
        "set"
      ],
      [
        "mess",
        "y"
      ],
      [
        "sleep",
        "y"
      ],
      [
        "c",
        "ries"
      ],
      [
        "p",
        "ir"
      ],
      [
        "ug",
        "ly"
      ],
      [
        "frustr",
        "ated"
      ],
      [
        "ca",
        "se"
      ],
      [
        "your",
        "self"
      ],
      [
        "te",
        "ars"
      ],
      [
        "spa",
        "ce"
      ],
      [
        "f",
        "ancy"
      ],
      [
        "ho",
        "se"
      ],
      [
        "g",
        "ate"
      ],
      [
        "po",
        "or"
      ],
      [
        "to",
        "wel"
      ],
      [
        "keep",
        "er"
      ],
      [
        "ner",
        "vous"
      ],
      [
        "ber",
        "ry"
      ],
      [
        "wor",
        "king"
      ],
      [
        "cr",
        "own"
      ],
      [
        "spl",
        "a"
      ],
      [
        "C",
        "h"
      ],
      [
        "r",
        "id"
      ],
      [
        "pass",
        "ed"
      ],
      [
        "for",
        "m"
      ],
      [
        "br",
        "idge"
      ],
      [
        "spo",
        "il"
      ],
      [
        "Sus",
        "ie"
      ],
      [
        "ens",
        "ive"
      ],
      [
        "gr",
        "umpy"
      ],
      [
        "gather",
        "ed"
      ],
      [
        "wo",
        "lf"
      ],
      [
        "che",
        "st"
      ],
      [
        "ho",
        "pping"
      ],
      [
        "exp",
        "ensive"
      ],
      [
        "fl",
        "ag"
      ],
      [
        "D",
        "an"
      ],
      [
        "tw",
        "irl"
      ],
      [
        "al",
        "low"
      ],
      [
        "sa",
        "ved"
      ],
      [
        "exc",
        "ite"
      ],
      [
        "ta",
        "ken"
      ],
      [
        "oft",
        "en"
      ],
      [
        "dog",
        "s"
      ],
      [
        "eg",
        "gs"
      ],
      [
        "m",
        "ummy"
      ],
      [
        "at",
        "es"
      ],
      [
        "sa",
        "ur"
      ],
      [
        "le",
        "g"
      ],
      [
        "S",
        "ee"
      ],
      [
        "li",
        "f"
      ],
      [
        "m",
        "id"
      ],
      [
        "is",
        "sor"
      ],
      [
        "ign",
        "or"
      ],
      [
        "caterpill",
        "ar"
      ],
      [
        "st",
        "um"
      ],
      [
        "va",
        "se"
      ],
      [
        "bor",
        "ing"
      ],
      [
        "ch",
        "ange"
      ],
      [
        "f",
        "il"
      ],
      [
        "issor",
        "s"
      ],
      [
        "o",
        "saur"
      ],
      [
        "f",
        "re"
      ],
      [
        "pick",
        "s"
      ],
      [
        "know",
        "n"
      ],
      [
        "u",
        "al"
      ],
      [
        "dist",
        "ance"
      ],
      [
        "fru",
        "its"
      ],
      [
        "or",
        "der"
      ],
      [
        "low",
        "n"
      ],
      [
        "answ",
        "ered"
      ],
      [
        "sc",
        "issors"
      ],
      [
        "din",
        "osaur"
      ],
      [
        "iz",
        "zy"
      ],
      [
        "b",
        "ark"
      ],
      [
        "danc",
        "ing"
      ],
      [
        "r",
        "or"
      ],
      [
        "M",
        "ar"
      ],
      [
        "tr",
        "ue"
      ],
      [
        "de",
        "er"
      ],
      [
        "L",
        "o"
      ],
      [
        "c",
        "lown"
      ],
      [
        "mid",
        "dle"
      ],
      [
        "excite",
        "ment"
      ],
      [
        "lo",
        "se"
      ],
      [
        "b",
        "ers"
      ],
      [
        "bo",
        "ss"
      ],
      [
        "li",
        "cked"
      ],
      [
        "a",
        "u"
      ],
      [
        "mis",
        "take"
      ],
      [
        "wa",
        "gged"
      ],
      [
        "walk",
        "s"
      ],
      [
        "B",
        "l"
      ],
      [
        "ex",
        "am"
      ],
      [
        "us",
        "ual"
      ],
      [
        "mat",
        "ch"
      ],
      [
        "ill",
        "ed"
      ],
      [
        "gigg",
        "led"
      ],
      [
        "to",
        "es"
      ],
      [
        "es",
        "pe"
      ],
      [
        "gl",
        "ass"
      ],
      [
        "ple",
        "ased"
      ],
      [
        "el",
        "la"
      ],
      [
        "med",
        "ic"
      ],
      [
        "K",
        "itty"
      ],
      [
        "f",
        "our"
      ],
      [
        "s",
        "on"
      ],
      [
        "t",
        "ig"
      ],
      [
        "as",
        "king"
      ],
      [
        "ro",
        "cket"
      ],
      [
        "k",
        "night"
      ],
      [
        "st",
        "uff"
      ],
      [
        "pain",
        "ting"
      ],
      [
        "vegetable",
        "s"
      ],
      [
        "wa",
        "ke"
      ],
      [
        "mo",
        "ving"
      ],
      [
        "sug",
        "ar"
      ],
      [
        "b",
        "one"
      ],
      [
        "Bob",
        "by"
      ],
      [
        "dr",
        "um"
      ],
      [
        "w",
        "ip"
      ],
      [
        "in",
        "ess"
      ],
      [
        "bo",
        "ys"
      ],
      [
        "ly",
        "ing"
      ],
      [
        "ci",
        "ally"
      ],
      [
        "s",
        "ight"
      ],
      [
        "espe",
        "cially"
      ],
      [
        "k",
        "n"
      ],
      [
        "fa",
        "ther"
      ],
      [
        "mir",
        "ror"
      ],
      [
        "medic",
        "ine"
      ],
      [
        "to",
        "ry"
      ],
      [
        "in",
        "c"
      ],
      [
        "ta",
        "pe"
      ],
      [
        "draw",
        "ing"
      ],
      [
        "b",
        "ake"
      ],
      [
        "call",
        "ing"
      ],
      [
        "ne",
        "l"
      ],
      [
        "jo",
        "g"
      ],
      [
        "al",
        "s"
      ],
      [
        "smel",
        "ly"
      ],
      [
        "l",
        "ly"
      ],
      [
        "f",
        "ake"
      ],
      [
        "$",
        "<<"
      ],
      [
        "E",
        "ventually"
      ],
      [
        "la",
        "zy"
      ],
      [
        "we",
        "ak"
      ],
      [
        "so",
        "ar"
      ],
      [
        "play",
        "ground"
      ],
      [
        "lo",
        "cked"
      ],
      [
        "gl",
        "ue"
      ],
      [
        "dis",
        "appeared"
      ],
      [
        "be",
        "come"
      ],
      [
        "c",
        "ri"
      ],
      [
        "P",
        "et"
      ],
      [
        "te",
        "am"
      ],
      [
        "e",
        "ld"
      ],
      [
        "feather",
        "s"
      ],
      [
        "ag",
        "ed"
      ],
      [
        "quest",
        "ions"
      ],
      [
        "i",
        "pe"
      ],
      [
        "W",
        "ell"
      ],
      [
        "fl",
        "ut"
      ],
      [
        "sweet",
        "ie"
      ],
      [
        "bath",
        "room"
      ],
      [
        "ha",
        "m"
      ],
      [
        "d",
        "rank"
      ],
      [
        "no",
        "d"
      ],
      [
        "fl",
        "uffy"
      ],
      [
        "B",
        "r"
      ],
      [
        "me",
        "asure"
      ],
      [
        "d",
        "ish"
      ],
      [
        "c",
        "il"
      ],
      [
        "m",
        "ic"
      ],
      [
        "le",
        "ad"
      ],
      [
        "hor",
        "n"
      ],
      [
        "ru",
        "ined"
      ],
      [
        "gi",
        "ving"
      ],
      [
        "ha",
        "lf"
      ],
      [
        "mean",
        "s"
      ],
      [
        "pp",
        "o"
      ],
      [
        "spla",
        "shed"
      ],
      [
        "stone",
        "s"
      ],
      [
        "your",
        "s"
      ],
      [
        "fam",
        "ous"
      ],
      [
        "re",
        "la"
      ],
      [
        "che",
        "ck"
      ],
      [
        "rela",
        "x"
      ],
      [
        "dec",
        "ide"
      ],
      [
        "inc",
        "red"
      ],
      [
        "box",
        "es"
      ],
      [
        "c",
        "her"
      ],
      [
        "y",
        "al"
      ],
      [
        "sk",
        "ipped"
      ],
      [
        "no",
        "isy"
      ],
      [
        "que",
        "en"
      ],
      [
        "Pet",
        "e"
      ],
      [
        "pen",
        "cil"
      ],
      [
        "a",
        "tor"
      ],
      [
        "sug",
        "gest"
      ],
      [
        "il",
        "li"
      ],
      [
        "en",
        "g"
      ],
      [
        "mic",
        "ro"
      ],
      [
        "at",
        "ing"
      ],
      [
        "j",
        "am"
      ],
      [
        "o",
        "g"
      ],
      [
        "show",
        "s"
      ],
      [
        "Bl",
        "ue"
      ],
      [
        "mo",
        "tor"
      ],
      [
        "pr",
        "ay"
      ],
      [
        "f",
        "u"
      ],
      [
        "mom",
        "s"
      ],
      [
        "g",
        "ue"
      ],
      [
        "as",
        "er"
      ],
      [
        "ju",
        "icy"
      ],
      [
        "Mr",
        "s"
      ],
      [
        "v",
        "ide"
      ],
      [
        "ex",
        "tra"
      ],
      [
        "co",
        "ins"
      ],
      [
        "ve",
        "st"
      ],
      [
        "El",
        "la"
      ],
      [
        "M",
        "andy"
      ],
      [
        "ro",
        "te"
      ],
      [
        "El",
        "lie"
      ],
      [
        "Let",
        "â"
      ],
      [
        "fig",
        "ure"
      ],
      [
        "d",
        "ig"
      ],
      [
        "W",
        "he"
      ],
      [
        "cont",
        "ent"
      ],
      [
        "sw",
        "an"
      ],
      [
        "w",
        "rote"
      ],
      [
        "f",
        "ine"
      ],
      [
        "cha",
        "se"
      ],
      [
        "ear",
        "s"
      ],
      [
        "eag",
        "er"
      ],
      [
        "w",
        "is"
      ],
      [
        "stra",
        "w"
      ],
      [
        "do",
        "l"
      ],
      [
        "t",
        "ro"
      ],
      [
        "chick",
        "en"
      ],
      [
        "g",
        "ing"
      ],
      [
        "R",
        "ose"
      ],
      [
        "b",
        "s"
      ],
      [
        "ch",
        "ang"
      ],
      [
        "z",
        "ed"
      ],
      [
        "?\"",
        "."
      ],
      [
        "incred",
        "ible"
      ],
      [
        "end",
        "ing"
      ],
      [
        "organ",
        "ized"
      ],
      [
        "dol",
        "ph"
      ],
      [
        "t",
        "ub"
      ],
      [
        "r",
        "are"
      ],
      [
        "sail",
        "ed"
      ],
      [
        "clean",
        "ed"
      ],
      [
        "eld",
        "erly"
      ],
      [
        "bor",
        "row"
      ],
      [
        "so",
        "ap"
      ],
      [
        "al",
        "ous"
      ],
      [
        "w",
        "ha"
      ],
      [
        "bran",
        "ches"
      ],
      [
        "l",
        "amp"
      ],
      [
        "N",
        "e"
      ],
      [
        "je",
        "alous"
      ],
      [
        "us",
        "ing"
      ],
      [
        "E",
        "nd"
      ],
      [
        "advent",
        "ur"
      ],
      [
        "m",
        "en"
      ],
      [
        "lo",
        "yal"
      ],
      [
        "c",
        "ro"
      ],
      [
        "dis",
        "covered"
      ],
      [
        "adventur",
        "ous"
      ],
      [
        "s",
        "il"
      ],
      [
        "hur",
        "ts"
      ],
      [
        "bubb",
        "les"
      ],
      [
        "ara",
        "ge"
      ],
      [
        "t",
        "ag"
      ],
      [
        "g",
        "arage"
      ],
      [
        "on",
        "ce"
      ],
      [
        "tig",
        "er"
      ],
      [
        "S",
        "t"
      ],
      [
        "fr",
        "own"
      ],
      [
        "off",
        "ered"
      ],
      [
        "tru",
        "cks"
      ],
      [
        "Br",
        "own"
      ],
      [
        "real",
        "ised"
      ],
      [
        "run",
        "k"
      ],
      [
        "happen",
        "ing"
      ],
      [
        "O",
        "w"
      ],
      [
        "colour",
        "ful"
      ],
      [
        "fl",
        "ash"
      ],
      [
        "l",
        "id"
      ],
      [
        "f",
        "ic"
      ],
      [
        "e",
        "ye"
      ],
      [
        "p",
        "ump"
      ],
      [
        "bal",
        "ance"
      ],
      [
        "sm",
        "o"
      ],
      [
        "Bo",
        "bo"
      ],
      [
        "B",
        "ella"
      ],
      [
        "ul",
        "ar"
      ],
      [
        "se",
        "lves"
      ],
      [
        "add",
        "ed"
      ],
      [
        "to",
        "m"
      ],
      [
        "ci",
        "ent"
      ],
      [
        "wra",
        "pped"
      ],
      [
        "loud",
        "er"
      ],
      [
        "s",
        "word"
      ],
      [
        "ballo",
        "ons"
      ],
      [
        "mar",
        "ket"
      ],
      [
        "ate",
        "ly"
      ],
      [
        "er",
        "o"
      ],
      [
        "lif",
        "ted"
      ],
      [
        "uni",
        "que"
      ],
      [
        "li",
        "ft"
      ],
      [
        "bot",
        "tom"
      ],
      [
        "dif",
        "fic"
      ],
      [
        "shell",
        "s"
      ],
      [
        "r",
        "at"
      ],
      [
        "y",
        "og"
      ],
      [
        "al",
        "ready"
      ],
      [
        "kn",
        "ife"
      ],
      [
        "man",
        "aged"
      ],
      [
        "banan",
        "a"
      ],
      [
        "we",
        "ird"
      ],
      [
        "ma",
        "p"
      ],
      [
        "im",
        "ed"
      ],
      [
        "to",
        "ug"
      ],
      [
        "de",
        "p"
      ],
      [
        "might",
        "y"
      ],
      [
        "re",
        "cord"
      ],
      [
        "craw",
        "led"
      ],
      [
        "th",
        "ick"
      ],
      [
        "p",
        "al"
      ],
      [
        "c",
        "ity"
      ],
      [
        "g",
        "ust"
      ],
      [
        "diffic",
        "ult"
      ],
      [
        "er",
        "t"
      ],
      [
        "wha",
        "le"
      ],
      [
        "mo",
        "vie"
      ],
      [
        "fri",
        "ght"
      ],
      [
        "b",
        "arn"
      ],
      [
        "un",
        "usual"
      ],
      [
        "go",
        "at"
      ],
      [
        "ha",
        "rm"
      ],
      [
        "kind",
        "ness"
      ],
      [
        "n",
        "orm"
      ],
      [
        "ur",
        "ed"
      ],
      [
        "hat",
        "s"
      ],
      [
        "ed",
        "ge"
      ],
      [
        "er",
        "y"
      ],
      [
        "r",
        "ough"
      ],
      [
        "D",
        "ave"
      ],
      [
        "c",
        "ab"
      ],
      [
        "laugh",
        "s"
      ],
      [
        "J",
        "u"
      ],
      [
        "sque",
        "e"
      ],
      [
        "bo",
        "o"
      ],
      [
        "che",
        "erful"
      ],
      [
        "fo",
        "ol"
      ],
      [
        "at",
        "ure"
      ],
      [
        "ad",
        "o"
      ],
      [
        "har",
        "der"
      ],
      [
        "a",
        "po"
      ],
      [
        "learn",
        "ing"
      ],
      [
        "bag",
        "s"
      ],
      [
        "d",
        "izzy"
      ],
      [
        "gu",
        "it"
      ],
      [
        "smo",
        "ke"
      ],
      [
        "Gr",
        "andpa"
      ],
      [
        "val",
        "u"
      ],
      [
        "B",
        "u"
      ],
      [
        "gr",
        "own"
      ],
      [
        "apo",
        "log"
      ],
      [
        "toug",
        "h"
      ],
      [
        "sear",
        "ch"
      ],
      [
        "is",
        "land"
      ],
      [
        "fav",
        "our"
      ],
      [
        "poin",
        "ting"
      ],
      [
        "brother",
        "s"
      ],
      [
        "sp",
        "un"
      ],
      [
        "su",
        "it"
      ],
      [
        "y",
        "ell"
      ],
      [
        "gu",
        "ess"
      ],
      [
        "gr",
        "and"
      ],
      [
        "enjoy",
        "ing"
      ],
      [
        "st",
        "ri"
      ],
      [
        "ag",
        "ree"
      ],
      [
        "sha",
        "pe"
      ],
      [
[...]
